[PAD
[UNK]
[CLS]
[SEP]
[MASK]
!
"
#
$
&
'
(
)
*
,
-
.
/
0
1
2
3
4
5
6
7
8
9
:
;
=
?
\
_
a
b
c
d
e
f
g
h
i
j
k
l
m
n
o
p
q
r
s
t
u
v
w
x
y
z
##r
##e
##s
##c
##i
##b
##n
##g
##h
##a
##l
##m
##o
##u
##d
##z
##p
##k
##v
##t
##f
##j
##w
##y
##4
##0
##8
##x
##2
##9
##1
##q
##6
##5
##7
##3
##er
th
##in
##es
##on
##or
the
##an
##ed
##ar
##en
##at
in
##ing
##al
to
##it
##st
##ic
of
##ro
an
##ay
##il
##ion
##as
##ou
##el
##is
##ter
##ec
##et
##id
##om
##re
on
and
##ent
st
for
##ac
##ur
re
##ad
##ir
##ol
##am
##ts
##ig
##ot
##le
##day
##ers
##ut
39
##ill
##ve
ne
##ow
##us
##ch
ch
##th
##est
com
##ra
as
##ver
##un
##ation
at
##im
be
##ly
##os
de
pro
##ith
is
with
pr
##ak
##igh
sh
##ag
##ce
that
##ul
con
##ear
new
##and
wh
ap
un
##ess
##ri
##ld
sa
qu
##op
af
##ters
sp
le
##ist
##ain
##oc
ex
##ast
##oun
it
##em
##ect
##ks
its
pl
##ap
##all
##ian
se
by
##ate
us
al
said
##uters
##um
comp
en
##ia
##oo
##ft
##up
has
reuters
##ies
ag
##ore
##rom
##our
was
##iv
##ust
off
##ost
from
##ight
wor
##ort
##00
he
##ack
##ity
##ment
we
up
will
##ard
mon
##uc
##ip
##art
fr
##ell
##ial
##ine
after
ac
his
##esday
cl
##ug
##ive
##ud
year
lt
##ie
ha
over
##end
##ab
##ry
op
fir
##ob
##if
inc
gt
am
sec
exp
##ens
##ice
mar
##oft
##qu
##ere
res
rep
int
##ace
##ions
##ould
inter
##ge
ser
ab
##are
##ans
tw
##ub
win
ind
have
quot
go
or
##ays
##ick
##ning
ar
are
##any
##ant
out
rec
##ond
their
##ke
##ord
##ong
gro
co
ad
##out
fin
two
tr
##ame
br
bl
pe
##ish
##ue
##ome
no
##arg
sc
first
##illion
##mp
##ree
##ach
##ail
per
cr
##ile
##ign
but
##old
##ork
##ide
##ime
ira
app
world
iraq
##ors
##ich
##ros
more
not
##ident
##ake
lead
##og
##oll
cont
##ous
bus
pres
dis
##ek
##amp
again
200
##ber
inv
el
##age
man
##ices
##own
##urs
##ase
##ass
te
la
##ations
##od
##ff
this
##rop
can
##ester
fl
##ets
##ound
one
##iz
min
##ates
##ep
cor
ph
##ure
intern
##act
##av
eu
company
##iday
wed
monday
oil
high
##one
president
##ary
##ock
##hn
##der
tu
wedn
wednesday
##ance
tuesday
all
##ict
than
play
##ursday
acc
##ory
thursday
##ton
##ite
ear
sun
##ank
##ull
rel
mic
##her
##iss
##ence
war
##mer
##ount
hel
against
week
friday
##anc
##ose
##ated
##ade
str
##ational
##arter
air
##ited
mark
##ood
into
last
##earch
att
##ther
invest
dec
corp
mo
ann
##gh
##ey
report
they
##urn
about
micros
##etw
peop
kill
offic
so
##ican
york
##ven
bu
serv
pol
##ason
prof
sup
ret
sl
##pt
quarter
##oin
who
yester
yesterday
def
li
##als
##und
three
elect
end
me
##orts
microsoft
sy
##hing
##les
back
million
##duc
comm
were
game
##gr
car
##ware
gover
##man
open
mil
shar
sal
secur
des
##ina
tec
cons
govern
##ash
set
##xt
team
##oss
bro
##vel
##ote
been
##oy
##uss
time
##ition
##ocks
sat
amer
official
##ang
##reat
group
##ical
##orm
had
says
four
##its
mak
##ook
##ird
##ected
##wn
##ix
##ire
month
##ib
##tle
may
part
##eral
##ral
united
##land
##ounc
government
plan
down
##cent
##ower
news
when
could
##ased
##ise
##line
next
second
sunday
soft
stocks
##ating
would
sur
prices
sou
##atch
ma
europ
##ting
su
europe
##ugh
##ely
security
##ines
big
ter
##ped
10
cap
par
today
years
##olog
red
people
pre
top
season
##able
nor
##con
percent
minist
##az
work
which
full
##ics
count
ass
mus
afp
record
imp
##iness
col
##tion
##ah
software
##ents
bank
gen
reg
##enc
tal
business
##co
med
day
bec
run
third
market
milit
##ows
champ
brit
##ph
inf
##els
conf
del
deal
night
sw
dem
##ubl
##ital
do
##ier
##air
produc
cour
vict
eng
aust
internet
satur
techn
##hip
saturday
some
announc
##stem
sch
##ath
supp
call
##unch
##ings
dr
washing
##ement
china
##ally
ins
fed
fe
##ball
tri
jap
washington
japan
state
##ief
##ms
##ecut
rele
under
##ists
ir
##io
sales
pal
bo
##ged
##ws
netw
##uts
billion
minister
just
russ
bush
gl
##uring
take
econ
##omb
near
austral
econom
gu
##ild
##ins
##quote
system
technolog
##ied
fullquote
agre
sm
##ision
most
##ames
isra
##ved
fall
israel
2004
bar
targ
sign
##ves
##ger
##lear
start
jo
##eld
long
##ult
##ern
miss
post
##cess
international
##uter
buy
former
gr
grow
##orn
announced
say
tra
launch
profit
ra
##ough
rem
research
court
killed
job
gian
tro
head
##urr
##ons
chief
##ones
##ead
##ities
##ands
##oot
##aus
search
##ct
home
##ica
##istan
get
tel
lin
##ward
city
web
victory
officials
you
##ner
manag
000
kn
##led
vi
offer
help
##ron
south
##ert
tak
hal
if
service
##ious
bomb
##iam
oper
plans
other
##ok
##ague
##acks
larg
stri
##ble
##ince
##uch
maj
hit
host
states
reported
thro
target
computer
##way
##ants
bef
european
##ee
before
##ives
##ned
##ony
american
dep
indust
##ollar
##ual
##gle
national
technology
##aim
show
major
space
gre
bid
##ted
dollar
19
final
press
country
test
pay
cup
champions
beg
##ling
##ange
league
aut
##ures
reb
##tt
talks
canad
poin
oly
now
power
olymp
cal
north
network
sus
upd
##other
ib
##inian
##een
five
##velop
online
##lud
em
terr
expl
bel
##ont
goo
hop
prov
execut
coach
##ese
##nings
##enn
john
what
bat
develop
lat
##ember
ext
ref
palest
tick
her
mob
british
##vers
ste
expected
largest
ed
15
ant
cent
##ient
##ai
##ield
ro
publ
cost
palestinian
shares
india
##se
prot
strong
stre
##gy
accord
##ces
hol
music
##ium
##ene
##ency
won
federal
progr
susp
make
im
google
prime
gold
nas
san
cut
bag
loss
contin
ibm
way
fil
police
##ky
least
claim
wind
##ool
##pos
##ury
eff
add
ke
11
iraqi
bre
election
dat
hold
old
another
includ
##app
##ops
made
##ful
leader
how
according
found
compan
drug
maker
him
incre
ever
##pr
camp
six
update
##vent
companies
uk
##head
##thern
quick
put
deb
##fo
mobile
##ax
games
star
arm
##ave
stud
##gest
while
there
lond
inj
##aly
oct
sell
through
during
terror
london
charg
threat
##ving
ath
##ular
##ause
ris
ger
series
attack
##hd
##eless
##let
riv
betw
meet
still
between
industry
dead
##ense
pat
ticker
##over
them
tit
stock
20
conc
foot
sub
chip
own
##rup
dri
wir
##aw
baghd
baghdad
pass
round
mer
##ttp
http
##ush
sing
ww
##ty
##ouse
##ised
trad
##ending
sept
adv
giant
##be
move
consum
left
ara
return
share
based
vir
look
12
sour
sports
##ards
reach
growth
##ects
services
rul
since
www
##isco
pak
wal
##ize
early
##eks
dou
boo
beat
data
##cl
##ref
insur
wireless
##ley
##ages
nuc
ver
program
contro
##son
investor
free
appro
trade
nuclear
href
det
bill
hand
##vie
##owing
union
higher
ur
phone
##eb
mem
##ution
mid
enter
char
##ains
net
##acle
##ications
spe
##ivers
sold
leg
##ind
##ility
military
##ract
australia
earnings
general
pakistan
ang
kore
form
##ady
pc
sen
##ots
##ife
##ues
even
being
glob
wr
##ior
any
los
##aza
id
##loy
west
only
dev
peace
fight
##ux
spec
law
iran
afgh
act
bra
clos
av
##itch
franc
retail
half
hear
##ping
key
keep
turn
##ider
dav
like
rest
players
asp
apple
##iff
desp
iss
sol
##ights
amp
14
##lin
##bers
##round
dir
##ments
##min
##ench
stor
calif
good
months
##uel
##ured
drop
##ked
agreed
afghan
low
sox
foll
##form
##ison
days
##ission
num
join
##par
commun
tim
oracle
firm
dar
because
##ific
fut
face
financ
israeli
##ator
price
windows
bet
##bs
stand
step
many
need
global
mich
scor
cre
afr
ahead
fire
mot
nation
wom
scient
viol
latest
england
fund
cust
##med
russian
##ators
##ism
olympic
mor
##com
##info
##erson
dig
troops
fore
inst
quickinfo
aspx
fac
should
##ries
intel
rad
ve
public
ge
gaza
line
vide
##gan
acqu
russia
##ible
##ov
hom
ip
biggest
##int
football
rose
vis
##oci
lab
##eng
executive
##ik
sud
real
compet
##oston
held
ban
##down
##66
##alth
stra
indian
##amil
##port
jobs
users
boston
championship
including
polit
##iers
##idn
rise
hurr
hurrican
ago
bot
##ude
support
reports
suc
##tain
peoples
hard
rock
demand
mc
phil
east
past
canadian
arr
boost
lower
wall
released
custom
death
despite
direct
ev
##iting
leaders
##ress
economy
##pl
foreign
pa
points
match
##ds
vers
##ative
peoplesoft
fail
har
##ev
much
your
##ann
pop
my
##af
athens
bas
forces
dra
mart
13
use
case
investors
##ross
##ret
##ump
commission
pack
economic
div
##back
##erry
school
release
aug
contract
associ
base
##ink
##enter
##ida
tur
##ater
street
emp
fell
house
recent
main
##ued
##ether
disc
36
##used
ast
yan
break
##ats
dom
nov
##row
##ered
##ears
25
##sh
2005
video
seven
broad
trans
18
hum
30
16
##ugg
jud
##rupt
right
process
##iver
##ute
men
##ago
where
source
fourth
region
aim
##esh
##ising
campa
australian
cell
poss
##uk
presidential
far
ham
concern
tax
lo
17
sudan
french
build
title
##ef
##ather
mod
weeks
##ober
nations
financial
ce
nearly
investig
health
hist
il
close
##ended
sever
tech
linux
##fact
engine
she
rival
wins
##kyo
tokyo
around
##acy
called
##uct
try
america
workers
care
short
vo
##adr
je
##ized
##off
life
auth
attacks
port
field
met
systems
watch
ari
campaign
media
dist
quest
##ocr
alle
control
##ection
flor
nasa
well
lit
analy
small
kerry
##ration
digital
##fur
univers
saf
##erence
don
##so
best
pos
agency
korea
equ
##eal
##ecast
##red
##iger
chic
##by
##itt
capital
yanke
sum
##ging
##ests
##ham
card
francisco
democr
appl
super
mass
secret
sent
emb
number
##ults
late
rob
leading
player
led
##ites
##view
100
##key
party
##uj
success
##iving
##ark
october
september
forecast
prom
chicago
race
coll
used
crude
also
##uck
took
hot
araf
scientists
laws
florida
##rem
center
##ided
##ends
crit
rece
ty
hurricane
depart
following
##elf
great
consumer
famil
ms
killing
interest
darfur
iv
##ta
##atic
##ming
arafat
person
battle
lik
sn
mail
army
est
outs
##ness
50
##fl
##ened
vote
spr
barr
here
version
##ney
fast
charges
##hold
corpor
france
study
author
mos
##cer
rev
design
##ech
board
touch
clear
chall
japanese
poll
unve
speed
both
unveil
yankees
might
val
find
agreement
##sc
trial
future
give
##go
loc
##ex
aid
##ker
reven
black
impro
ball
##ael
##lines
##pe
quote
strike
anti
den
##str
##ases
propos
regul
want
site
electron
##raft
list
##kt
##aker
##ensive
making
begin
doc
geor
club
organ
products
sem
ener
##ject
remain
profile
settle
exper
##rib
sim
##ij
arrest
tv
every
tor
resp
political
manager
tour
britain
employ
##ges
##ike
women
##lo
eight
beh
##uit
stop
william
earth
management
21
gra
##idence
californ
24
##cy
customers
results
##ished
defense
tre
away
sk
curr
##vem
conference
po
push
##ale
blast
novem
pull
##ners
##lam
##orks
decision
several
office
reser
angel
energy
cel
november
sony
##less
##ises
place
little
proble
mac
northern
hour
##enal
shot
food
##imin
##ify
chair
southern
gas
##ster
pitch
##ole
meeting
costs
without
militants
bow
##da
hostage
##amed
##ne
##ung
running
pan
##ler
elections
gets
champion
takes
baseball
kidn
##we
california
tex
##uce
does
##lant
##ston
storm
bankrupt
lar
islam
grand
perform
##ways
winning
judge
polic
taking
central
##ession
order
##ams
inform
cuts
canada
due
straight
force
few
ca
mess
er
vot
##ipp
##ides
spam
##ba
priv
such
##icans
qual
green
doub
defe
seek
oppos
quarterly
human
##ule
analyst
fans
hopes
child
##sp
told
neg
department
cle
##lier
euro
germ
expect
ceo
##umb
deskt
claims
cam
see
better
though
##thers
soc
whether
michael
mill
##ott
bod
##uction
land
##mit
less
##owed
stat
##ians
rate
sil
##ees
##eck
outl
times
##bc
using
explos
let
##gin
chang
lou
##ension
giants
amid
scored
likely
wound
##ired
increase
##rist
##ana
mal
ship
##cept
exch
across
telev
fre
consider
ey
launched
violence
##ps
fuel
foc
action
august
university
complet
money
class
hou
##ape
angeles
lost
rank
saying
##wa
level
bay
gun
become
texas
##imb
##inese
williams
dam
rich
coast
history
##ering
##prise
cash
rates
chairman
##eration
prison
unit
ipod
atlant
tool
##rew
vol
thous
chinese
trading
cy
##urt
##osp
houston
tom
stores
admin
weekend
access
server
##ential
morning
opt
seat
administ
ple
among
pur
hits
##br
germany
too
##ox
##oon
##ys
activ
white
medal
members
sharp
toward
alm
same
##ett
ars
information
##ars
rebels
secretary
desktop
come
cop
##oid
##ove
behind
rally
##ea
##estern
eas
change
soon
emer
block
##res
rej
radio
##ounce
crash
accused
falluj
belie
withd
confir
must
phones
yah
diff
##lex
german
mult
prem
ju
##avy
david
conn
attem
bal
gain
yahoo
##att
store
soldiers
##cc
seen
possible
did
going
barrel
cub
injured
prepar
afghanistan
profits
fra
makes
operating
bri
##lim
##cast
##ified
paul
mag
##ns
commer
##aper
phot
product
communications
color
visit
labor
repl
##ona
senior
exchange
fact
indones
manu
infl
revenue
republ
disp
almost
stad
##ived
calls
point
##aff
warned
ready
bring
bankruptcy
nine
blue
paris
intro
##ament
##ught
rac
##ren
thousands
cand
tenn
##inc
ob
cond
airlines
jan
os
takeover
stadium
##itz
##raw
posted
train
##ience
account
touchdown
fur
heart
manufact
file
##ift
##oti
shut
reserve
colle
insurg
domin
showed
feat
got
##ety
bur
fav
##ena
term
pac
personal
##load
signed
virgin
africa
##ening
23
weap
nfl
##iti
yet
those
shop
delay
production
challen
##eland
division
television
braz
22
opening
##onto
popular
toronto
pil
arri
negoti
jun
##inals
earlier
500
jones
env
cred
ent
markets
##ota
hope
##ization
ry
growing
##dle
surve
offering
roll
spain
sale
wants
road
alleged
appear
muslim
##ille
ut
requ
##que
##gress
vie
opposition
##itor
##itive
che
outlook
wood
##ban
##ama
unt
travel
pot
stake
legal
ny
##ication
helped
civ
olympics
performance
brazil
capt
local
louis
font
carri
leav
dip
##itions
art
association
blair
station
probe
arg
resign
finance
americans
##ately
rebel
corporate
##val
came
hosp
began
african
concerns
ltd
##ared
##king
##olf
island
brown
kar
ital
flight
wa
town
fresh
focus
madr
##icks
goal
counc
gains
##band
special
suff
insurance
died
##de
slow
dv
##ecom
networks
candid
civil
council
##olution
##cover
western
conv
expand
##ooks
efforts
ended
dut
199
ber
countries
prop
recover
lift
mast
##asing
aff
track
career
administration
mur
##bur
once
##akers
youn
##ket
##ready
already
airline
sym
investment
arrested
fighting
announce
supply
##chester
pm
##aj
analysts
miam
double
##ino
looking
28
miami
jour
##vert
spending
download
##asser
holiday
trying
hours
niger
##ece
prev
weapons
drive
##apped
competition
27
##ane
within
computers
madrid
fraud
read
teams
bowl
family
arsenal
attempt
squ
sched
lim
##wood
spot
hy
cris
35
egy
continue
mort
side
egypt
dell
##set
##icide
others
water
charged
rules
##ll
##ades
question
##verage
airways
##rap
##ances
rights
##aps
##ength
reve
spac
##icket
current
stay
beij
ground
##ories
bene
##wide
motor
beijing
nba
virus
outside
policy
pir
##lad
survey
telecom
george
strugg
sharon
##okes
until
fig
hun
bond
##ric
starting
bird
pressure
crisis
gam
brows
151
avail
pract
enough
selling
authorities
merc
seattle
hund
seem
strip
basket
hundred
mount
gave
coming
mach
clin
development
hospital
som
##nal
express
pow
offers
consumers
asia
##eing
effort
italian
strate
deliver
fears
weak
finally
manchester
cp
##get
pred
quarterback
ruling
##ips
yards
##utes
arab
##ined
sees
executives
reached
suicide
##ris
injury
##reme
die
christ
children
each
size
award
##emp
mont
hands
then
##leg
##iance
satell
hug
##use
scre
yuk
##ico
retailer
celeb
devices
wild
taken
bang
##mo
guard
getting
charge
##ily
ivan
bad
cisco
##ault
aimed
chips
cou
event
electronics
failed
soccer
##ually
##aced
jump
name
##field
##arm
heavy
large
##men
invol
further
##wan
rivals
yukos
fi
operations
staff
researchers
continued
college
40
##err
shows
spokes
problems
private
playoff
nat
ok
previous
fif
mosc
26
clash
##ically
import
estim
light
hew
##ender
comb
swe
known
basketball
asian
park
powerful
treat
roy
##ced
##ga
think
##anced
rising
middle
yasser
##nes
discover
discuss
golf
##ertain
benef
moscow
caus
jail
pick
##ishing
trip
qa
rod
fired
working
risk
cit
##akes
partners
area
young
winter
ly
went
disapp
introduc
missing
steel
##icted
raised
palestinians
named
##hl
##han
davis
bi
##uary
##iven
filed
credit
##ville
potential
ident
coun
above
suspected
atlanta
nok
kills
merger
lock
##east
##ulation
appeal
prob
hp
never
##aled
warning
leave
##ability
signs
respons
fri
defeat
bud
##for
##osed
eag
illeg
pit
firms
faces
worth
challenge
mission
terrorism
##elph
##iron
debt
##icip
dvd
pros
equip
##gers
withdraw
parl
##elphia
annual
designed
bell
2006
allow
pet
##den
planned
journal
##mar
sex
storage
chance
businesses
body
satellite
investigation
issue
spy
mex
raid
##ze
span
##ept
autom
jer
dollars
king
##ald
delta
controvers
xp
tourn
issues
expectations
cricket
##50
strength
##era
##ention
##unes
hall
shr
sharehold
tell
##ders
##ya
project
##ander
singap
lawsuit
tony
treas
amd
fun
##ilt
parliam
singapore
ken
know
nokia
##roit
provide
parliament
congress
##ector
dutch
dre
sug
##lom
detroit
december
hundreds
dow
tai
##eric
front
groups
##ria
italy
##to
##anium
available
bord
securities
captain
improve
400
naj
rom
##mir
launches
sites
review
seeks
officer
bit
boy
##lies
##mark
##kins
##iding
##irc
cbs
debate
experts
29
fix
newsp
boeing
regulators
##bit
overt
athlet
draw
##enger
ryder
najaf
rain
##orters
intell
prosecut
looks
##wart
separ
singh
##oming
runs
approved
enterprise
aud
wid
##ula
##arra
##ably
blood
medical
drugs
rout
##ford
arch
advert
philad
democratic
happ
##icit
militant
employees
box
hen
recall
losses
fallujah
philadelphia
mat
surv
astros
browser
awa
view
ran
closer
islamic
2003
##anger
##itness
tot
##ural
acquis
safety
prize
resum
moon
ireland
ukra
building
##illa
johnson
circ
mut
asked
dism
sant
nasda
astron
position
nasdaq
##wh
taiwan
fly
lines
trop
##post
check
##ceed
effect
critic
sprint
bull
deep
unveiled
##tors
##aged
##aging
slight
overs
##uff
sett
rap
##ounds
dest
role
upgr
avoid
environ
forward
##uting
scand
vs
decided
fifth
tournament
##egr
urged
crow
##pon
woods
sets
disney
fla
rocket
confirmed
given
rang
holding
ster
cho
appar
##eph
technologies
giving
generation
hostages
ton
losing
##read
row
##cel
##cial
goes
##awi
applications
tight
##iet
##per
equipment
49
seed
lawy
##ption
putin
brief
later
detail
along
rises
turned
##dam
##assin
playing
somet
31
comes
debut
ranked
purch
mom
protest
commercial
##imate
decl
streak
plant
##ented
code
warns
kash
nets
tough
chels
film
serious
added
average
accept
##olph
##illing
agree
create
kashmir
sanc
witness
traff
accounting
jets
##kes
##vet
offensive
meas
broadband
kidnapped
fear
woman
our
ram
##fi
displ
standard
mike
send
retire
victim
range
##ran
##hic
##atives
compl
desc
doz
increased
changes
##uits
##zz
repres
##rust
summer
##raph
content
ending
bonds
lic
explor
sources
joint
oh
##erv
##uments
reform
claimed
director
differ
insurgents
##he
##maker
ford
bob
##ockey
entertain
acquire
millions
cas
rog
##ari
moved
##itional
minnes
vent
posts
greece
wounded
pilots
spokesman
gm
inning
##vention
minnesota
why
indonesia
##ss
##ively
flu
mortg
nhl
##ored
##ained
flood
patri
boss
cross
kick
##itial
steve
protect
poor
gives
initial
##ifying
pict
turkey
environment
march
opened
very
flat
plane
confidence
restr
##ills
course
received
oak
single
virginia
coup
disappoin
##bi
##lywood
##bn
##inger
##isc
save
evidence
mix
airport
talk
advanced
huge
dod
didn
##ilities
stage
smart
suspended
funds
celebr
cleric
##ibility
chelsea
shoot
ko
##ently
##aded
decline
carry
distrib
##ca
result
vehic
hurt
##yle
##erate
##umped
voters
60
gri
sit
##mers
plat
having
guil
falls
seeking
copy
diplom
##craft
##uing
deter
shi
washingtonpost
doesn
esc
##lish
##oes
remains
homes
tennis
border
sanct
fle
temp
##rich
##west
##ein
toll
coal
related
justice
continues
device
july
##beat
guilty
pain
tiger
##uled
raise
memory
##na
panel
##hy
leads
cardinals
murder
non
##iest
##atory
moves
dispute
##bor
##uries
able
supreme
ruled
verd
total
winner
suit
suggest
ll
reds
##ought
january
thanks
nextel
explosion
counter
gar
##ma
##orld
attorn
committ
sharing
protection
banks
settlement
attorney
##pan
##aring
teleph
mexico
lay
sad
deficit
missile
futures
philipp
acquisition
##iring
expects
successful
spanish
zeal
##uke
##obe
hollywood
korean
##ova
##uted
itunes
pled
enc
minutes
##ences
proposed
scandal
creat
vend
##oles
climb
mars
slip
##enez
files
howard
increasing
alex
vac
wel
##unt
below
##ny
##ring
worries
played
approach
senate
##ati
##factor
sanctions
sir
##ada
solar
statement
entertainment
pace
##bo
newsfactor
leaving
reason
started
karz
80
##ask
freed
##ushing
carol
irish
committee
wanted
mw
ps
##self
interim
these
classic
beating
resc
insp
palm
powell
zealand
karzai
ow
##ental
forced
##igan
servers
auto
kab
weather
movie
catch
##ansas
supplies
threatened
outp
electronic
intellig
cur
integr
progress
##fox
illegal
song
##pal
##idents
shopping
cro
mel
rule
yen
##anch
science
organization
book
kong
sha
crack
cab
hat
##oul
aircraft
offered
crowd
chain
##aking
needs
firefox
application
platform
whose
buying
sweep
confl
##hi
embass
slightly
cast
##iox
edge
inflation
##eda
sport
sharply
aol
core
hong
surf
newspaper
##mas
terrorist
questions
rejected
connect
bol
##istic
warner
targets
broadcast
carrier
masters
citing
wide
##rial
##uster
stewart
room
eb
##ew
##tered
makers
formula
lear
member
##rac
##ko
##inn
dropped
sector
##irl
refug
rene
ten
ends
returned
thought
wrap
##tim
##orrow
##ires
##epend
eastern
proposal
300
cable
problem
kabul
dolph
hack
james
occ
rav
opec
became
ukraine
mortgage
patch
##held
##vin
##agu
abu
brand
explod
provider
owners
##mun
batt
qaeda
patriots
si
##bed
independ
orders
pcs
easy
cn
names
ans
##imes
prix
##comp
represent
nl
ray
sadr
##dog
##iny
nigeria
oakland
jose
##udi
nyse
eagles
hockey
##force
tonight
highest
subs
crew
voting
important
dan
sky
bron
##ograph
##medi
ariz
bry
dall
##usal
prior
##ulf
weigh
##onduct
shareholders
ohio
carolina
cra
secure
signific
needed
favor
pers
##ients
##nam
##rian
trib
mis
feder
recently
auction
index
premier
lose
##oric
amaz
##reek
##oney
broker
msn
ul
finish
blow
candidate
41
son
alth
heat
airb
cat
frank
uranium
ivory
christmas
da
##ery
relief
ministry
dream
dolphins
amb
venture
nob
##iar
##makers
haiti
arms
although
kh
sending
##iders
##ado
##thing
kidnapp
tools
embassy
certain
obs
pension
expos
accus
operation
michigan
enron
##gery
longer
bombs
optim
intelligence
32
##come
bombing
closed
processor
dallas
##right
brought
hoping
kept
sans
micro
linked
negotiations
spacec
thail
impact
jeff
supercomp
royal
spacecraft
tests
##ken
cool
earthqu
##idge
built
carl
consecut
mush
immedi
consecutive
esp
fer
hur
coop
scr
crimin
liver
features
merck
ring
surgery
##coming
thailand
##eg
andre
stro
exc
passes
##burgh
cards
tack
van
marsh
relations
liber
commit
training
begins
issued
##lined
programs
scheduled
mad
tie
shock
unc
worldwide
planning
striker
hamas
practice
assault
deploy
strategy
ben
innings
##oma
feel
troubl
hostile
ariel
significant
nik
vill
##idel
developed
figures
spyware
64
danger
kansas
aftern
virt
eyes
controversial
dismiss
mets
##cs
##iles
##isl
swed
calling
deadline
vice
##iod
tog
##iled
motors
ill
manufactur
rum
wi
unl
invent
angels
unveils
jav
##cos
##oom
##estic
surge
himself
photo
ebay
together
##car
##arian
##ched
webs
extra
veter
cubs
output
33
mour
venez
isn
##izon
lawsuits
georg
venezuel
34
lack
##ten
##elves
stem
##olis
saudi
budget
pitts
mixed
penn
ts
legisl
novell
dro
ties
##cing
##duce
marketing
raises
afternoon
##igning
##veland
reduce
soldier
cleveland
##itzer
recovery
ky
prosp
blog
common
##encies
buys
knock
fa
live
mp
##iling
##ansion
eye
airbus
thom
##iconduct
worst
##izing
hotel
semiconduct
advertising
saw
parts
##inal
fort
##endo
struck
facing
martin
damage
pacific
struggling
caused
subsid
45
log
##fe
##ystem
##iter
greens
charl
##ification
38
resol
pakistani
wrong
instead
666
##ios
##house
enrich
##enced
published
revealed
pittsburgh
55
jet
things
threw
plot
climate
serif
period
helvet
##ashed
producer
approval
##666
arial
different
verdana
conflict
666666
helvetica
##real
goals
bir
dail
hon
surprise
viox
zone
vioxx
spl
backed
industrial
patent
delayed
jerusal
jerusalem
greek
lif
pent
wake
##apolis
moving
massive
##itors
stars
retailers
critical
manufacturing
federer
daily
armed
advance
republican
argent
troubled
##gn
anim
convention
interview
smith
ordered
moment
nint
##uation
##ads
finals
alliance
moz
##portun
summit
itself
opportun
##angu
image
##arraf
girl
sel
##iation
noteb
decades
helping
details
arizona
musharraf
##oint
cutting
nintendo
sbc
##pool
##war
##oph
subsc
estimates
bears
decade
yard
leban
positive
request
cing
story
terms
delhi
knee
operator
victims
hous
va
##light
##ania
##eth
abb
warming
mean
surpr
ministers
owner
malays
cingular
70
cause
pound
syd
troub
ipo
domestic
pulled
##essional
gather
pra
sam
thr
##aces
indic
extended
probably
rangers
subscri
sydney
atom
address
complete
propert
machines
trophy
saddam
income
showing
ba
pair
promp
switch
holds
racing
display
cow
lands
puts
via
##itution
##cher
##kei
finds
scott
nikkei
opens
community
something
jacks
stun
introduced
nec
ped
##fect
highs
planet
demands
deadly
species
numbers
celt
appeared
##iscal
liverpool
##ystems
fair
session
vul
spread
replace
band
dies
lad
##bour
##mn
##ara
const
sea
falling
typh
piracy
nar
##inet
##ola
ask
##arta
cancer
flights
electric
cars
opener
prevent
returns
breaking
semiconductor
jackson
luc
rook
##ding
##kn
##imir
dise
disast
inside
alleg
pitcher
touchdowns
backs
fann
##keep
flash
okl
renew
dame
jim
vlad
spent
orig
notre
2000
benefits
ele
##night
chec
expansion
admit
teen
raising
antit
century
beginning
fannie
ep
##wer
shift
plc
teh
flag
minute
colomb
passed
challeng
believe
screen
km
ron
sand
toy
sevent
developing
##lett
prince
##eman
watchdog
##going
message
arrived
discovered
roger
criminal
##fer
oppon
score
broke
links
testing
verizon
##ha
tosh
diego
beck
hurricanes
utah
friend
tehran
date
ec
jason
##ano
adop
assist
extend
anticip
adds
upset
iraqis
paid
associated
aims
commerce
bryant
vladimir
purs
##outh
##elder
##amb
resolution
handheld
##ladesh
bangladesh
astrona
43
fiscal
##ival
scot
salv
records
emerg
##utions
##ements
polls
value
und
##ensions
##berg
english
historic
vulner
ml
##pers
##icon
filing
students
threats
remained
dodgers
amazon
done
nort
penal
##apt
90
mater
##lan
##roy
##ucks
appears
##oys
seconds
caps
announces
living
unions
alter
annan
slam
miles
dram
falluja
baltim
typhoon
baltimore
barg
##onstr
quit
##ounts
48
las
##eas
##ucture
jak
lot
rand
agent
heating
microsystems
assets
model
tig
neigh
##ques
draft
votes
silver
options
indonesian
hewlett
mozilla
kid
##ading
cruc
nothing
##iba
##wards
urges
harm
##exp
montreal
cos
##inh
traders
portable
forecasts
telephone
antitrust
fish
mary
defence
colin
banking
tried
voice
corporation
doctors
june
gh
rush
sams
##my
stead
offense
setting
holdings
homer
packard
silicon
greenspan
mun
##ml
deals
cover
pharm
province
driver
format
resume
samsung
coc
mr
##well
##isions
spir
exports
residents
northeast
fastest
hewitt
witnesses
explorer
bern
gulf
nin
##rad
##backs
steps
tomorrow
shuttle
leaves
fel
##dick
##roup
regist
republic
georgia
material
fan
lank
##ils
##iment
appe
manning
##ody
starts
treasury
rookie
seventh
pen
##illed
ups
reduc
reportedly
nascar
sixth
braves
install
colorado
purchase
cabinet
jakarta
oust
anc
conduc
twice
text
defensive
beats
qualifying
announcement
toshiba
jack
pip
word
gov
sudanese
gates
##ius
prin
shell
##ope
2002
flaw
bills
handed
speech
blasts
wounding
java
tigers
75
pt
wil
##ato
##une
beach
marath
upgrade
exploded
sie
##arters
levels
theft
pric
##oping
##isted
plus
computing
walk
copyright
fox
ku
ta
earn
democracy
faster
enrichment
oklah
bin
gy
rall
zimb
chen
partner
strikes
simp
dozens
marathon
zimbab
##stand
saturn
mae
managers
##ruption
oklahoma
solid
roddick
zimbabwe
##orter
inn
really
##aks
##ighth
allowed
##atings
##ology
##ahe
becoming
halt
semif
considering
partnership
coalition
rare
##abad
##izes
candidates
petro
traffic
eth
areas
2001
suffered
allegations
sri
##ties
##oud
##tha
##izer
defending
headed
advant
associates
##inks
ank
unexp
sav
spar
age
700
titan
standards
telecommun
unexpected
51
social
appeals
az
thing
##acher
goods
safe
awaited
crucial
53
##omm
nepal
publish
scores
customer
familiar
tenness
600
bes
der
##ship
##iot
##pts
often
peer
treatment
notebook
dual
fat
sound
sure
thems
##uty
twins
closing
currency
spaces
lawyers
themselves
sens
anahe
##oty
discl
columb
keeps
doubt
atomic
emergency
anaheim
##box
##gen
majority
grew
hearing
jac
ways
ads
defin
datab
rockets
package
richard
tennessee
##season
bott
atlantic
retirement
cold
ease
##esc
hole
myster
pacers
mist
mine
##eline
chile
bey
proj
gunmen
strateg
ninth
ven
chann
abuse
allows
attend
spring
bodies
disease
pun
##wis
##enses
flo
swiss
rebound
turns
rejects
prepared
philippines
##aries
option
##ght
##ussels
edition
schedule
cnn
telecommunications
behead
allawi
syria
delays
created
deaths
turk
changed
cyber
seems
shiite
hub
huss
##icult
ali
brussels
regular
southeast
wales
##weight
nortel
figh
##jan
trust
sought
robert
documents
supercomputer
ach
pact
inqu
resour
perfect
jew
wait
master
previously
initi
##ried
decide
missed
beyond
cities
##ither
martha
agrees
quickly
books
hamm
##burg
prosecutors
independent
##oura
unbeat
releases
completed
magaz
54
fine
wife
##rict
##cat
##cons
confident
developer
holy
difficult
cuba
declared
3g
##emb
capac
suspects
frances
matter
mutual
jord
prel
finished
elimin
grant
images
conditions
paper
##che
exec
##ially
conserv
looked
district
donald
finding
activity
laden
beckham
burn
##ht
forest
uns
##iction
info
charles
smaller
complain
redskins
veteran
##otype
spin
monitor
terrorists
regional
bringing
gear
jumped
##aling
react
mov
genes
heads
helps
denied
withdrawal
bought
era
od
plun
##ctic
198
adding
speculation
clean
apparently
educ
##jay
##yl
##ione
##ument
tops
putting
summ
voted
prisoners
preparing
natural
overtime
aub
gone
hung
jam
jury
tent
##ni
constr
include
commissioner
influ
environmental
craig
42
pga
river
##rit
##me
##oke
##va
devast
turning
opportunity
jordan
vod
##bury
##lus
andy
quiet
##ecting
parties
joined
denver
65
hills
ice
##lers
##icop
chase
##anda
worm
abs
schilling
201
receiver
picture
property
magazine
auburn
cents
##mond
chem
unf
alan
enh
##elled
haw
helicop
bombings
instant
indiana
virtual
di
eighth
sp2
plays
##inez
governor
indianapolis
##board
tiny
style
upcoming
##aval
sells
martinez
shooting
47
kind
tamp
##wers
##aming
##iban
inquir
chart
taliban
includes
advis
boosted
camera
priority
kidnappers
44
cer
sle
truck
barry
chiefs
link
##where
hussein
chris
##ously
command
championships
directors
promot
earthquake
trouble
ds
spect
##emy
rooney
stronger
increases
##awa
beta
mcd
hamid
believed
nigerian
response
ravens
scotland
wond
##ints
##ami
stroke
disaster
holl
ott
comments
congo
always
scoring
improved
multip
vacc
vodaf
dy
wm
##ever
##do
##zy
chech
wasn
##ivid
##abilities
milan
prep
assassin
colts
crashed
##castle
clashes
vodafone
bab
cassin
##iro
minor
broken
roundup
keeping
instit
breaks
carrying
pedro
lanka
dun
rub
##cle
##ki
##ero
##ador
##ocol
##eme
agencies
works
willing
##rys
replac
symb
narrow
cassini
bom
wenger
##gar
arth
extension
kevin
##bean
transport
msft
unbeaten
movies
tampa
cinc
nom
##igroup
usato
remote
##apping
believes
citiz
citigroup
##innati
spaceship
cincinnati
usatoday
hd
lions
mig
##horn
seoul
fred
phel
libr
teamm
##ierce
hardware
estab
camer
berlin
involved
steelers
argentina
dub
##ka
##enty
comeb
newcastle
##lands
bigley
guerr
refer
update1
drops
activities
premiers
database
prelimin
phelps
ble
jaz
lows
rig
anth
blu
liby
tries
founder
limited
crown
capacity
bomber
wis
wave
##ction
##0s
meg
throw
solution
##fielder
mp3
turkish
jon
kod
##ias
rein
##ription
phill
supporters
subst
follow
failure
love
islamabad
rescue
76
800
mir
pist
stan
placed
doing
heading
rebounds
##enna
lawmakers
labour
leadership
outsour
allegedly
rapid
vehicle
carlos
ii
rather
##edia
spend
lewis
attention
drives
voip
revolution
choice
comeback
pi
##rick
##hib
crimes
gener
entered
nationwide
sentenced
gord
ziff
##ique
##nd
##lins
##za
##iners
##ilar
slide
batter
matches
##anne
packers
graph
pushed
venezuela
bh
jagu
##ao
##uses
##acked
county
semi
restruct
dial
##point
##urch
motion
poised
qualif
describ
website
doping
rick
##au
##ination
##isting
exam
aband
officers
##ibly
demonstr
begun
belg
fields
altern
gymn
05
##olm
##ersey
repe
individ
appoin
##ogn
golden
radical
##ikely
promised
unlikely
##aug
##apse
surged
preview
motorola
kmart
inquiry
##rysler
dog
##rol
recomm
##aves
liqu
fees
continuing
clinch
immediately
52
bul
##of
##pp
##etary
##aceut
mayor
planes
sues
joe
morgan
investigating
photos
admitted
ottawa
langu
zar
##rd
##oring
sued
driven
similar
renewed
bench
uef
##hard
##umn
predict
housing
premiership
uefa
46
##oning
franch
impress
protocol
organiz
feature
separate
disappointing
advantage
hang
lives
pf
self
##aur
##orth
##rough
alive
words
contrib
infow
owned
schools
magn
situation
nobel
split
ens
overnight
deputy
maintain
grab
explosives
tackle
tend
##sis
##cape
##aining
declined
halo
email
ranking
shrine
encoura
##racts
anticipated
jr
mcl
sides
##omo
asks
##osen
newly
lee
usa
buff
medic
250
greater
resigned
machine
increasingly
ful
##hood
##yad
##oth
##ivity
weight
soaring
joins
remaining
err
egyptian
malaysia
preliminary
au
ign
##aver
##asion
prim
alert
##abor
adobe
stret
centre
violent
pistons
66
sor
##world
forb
recogn
trig
parent
viet
acquired
athletics
destroy
carter
path
porn
sears
##olic
worker
wayne
deadl
caught
##attled
mountain
widely
lawyer
gymnast
infoworld
sidel
##ois
##oned
spons
hass
interf
abduc
els
##assi
defend
##airo
threatening
lineup
flying
vendors
challenges
fal
jersey
##asc
governments
recording
launching
edwards
150
traditional
myan
authority
miller
separat
criticism
uncertain
99
gap
ori
##bre
revers
chances
##uggle
else
technical
grid
iranian
songs
67
##wl
##aters
##oto
##umping
phys
means
guid
peacekeep
scientific
succeed
waiting
vehicles
ferg
pharmaceut
myanmar
fcc
##orse
professional
infring
barcel
threatens
##minent
respond
messaging
status
refugee
steady
construction
chechen
curt
wear
apart
overall
attract
officially
attacked
idea
compete
snow
hunt
friends
birth
jewish
restructuring
kim
page
##ril
##mine
##ining
##etic
cann
patients
evening
condem
welcom
occup
ax
gary
rat
sue
inch
##station
##lement
units
seized
heav
reporting
sharap
##phere
jobless
banned
illin
channel
kodak
gall
mand
##sters
enj
bright
##argo
##berry
mind
studios
passenger
instr
brian
vendor
kobe
nick
rw
##vez
unless
##umble
annivers
suspect
towards
dangerous
vietnam
sharapova
37
82
vowed
##reg
bids
claiming
reaching
larry
spammers
shipping
solaris
lebanon
zarq
anniversary
born
fam
gate
navy
user
agassi
##ookup
partic
winds
walt
events
multi
captured
steroid
hackers
barcelona
ol
vows
##die
spitzer
clar
allowing
##issions
vienna
developers
streets
mcc
playoffs
achie
resources
bos
rut
##buster
##hman
marines
##antec
contest
corner
assemb
convicted
lifted
symantec
tempor
zarqawi
cry
fit
fda
hike
lux
##otel
shots
##apers
bloom
militia
trail
jeanne
democrats
collapse
blockbuster
legislation
jacques
##html
cerem
gordon
ferr
hus
jhtml
##pped
##fire
stall
chir
shan
vijay
titans
##type
astronom
stern
briefly
cowb
rallied
hu
matt
##py
##igious
##estone
##ipped
mariners
longhorn
defeated
bbc
qcat
qtype
##iary
##enko
##quotel
adm
contracts
struggle
infotype
deleg
networking
providers
edged
entire
financequotel
financequotelookup
##usive
##ipe
frust
surround
faced
mosque
creating
ancient
pfizer
ru
signing
##inos
##arily
##icious
editor
improving
denies
jailed
circuit
seeded
oce
torn
##gu
forum
injuries
reaches
everything
gaming
measures
vaccine
gal
tab
anton
onto
##urning
arctic
##ords
canc
driving
summary
gard
nca
pione
##gas
##feld
##ective
cru
crime
corr
corruption
##ibur
traded
politic
robot
promises
##ette
brazilian
viruses
identity
friendly
69
##agon
##ello
ability
elected
hitting
showdown
refused
loses
taxes
condition
expressed
hallibur
thomas
education
prepare
halliburton
04
dc
##oe
##aked
quite
pervez
extends
evac
messages
doubled
pictures
semifinals
genesis
forbes
father
##ata
bea
##ume
desert
refl
critics
foods
factory
shoppers
browns
bitter
ult
bottom
eased
pret
offset
##ordin
processors
analysis
combat
picked
archit
happy
dramatic
ncaa
diam
##haps
##oen
reject
##leans
aggress
orleans
trick
paying
failing
considered
square
involving
benefit
62
sugg
tied
##ales
prove
fires
export
internal
postseason
gren
brawl
powers
diplomats
drove
ankle
columbia
jays
norm
##zen
##icals
prec
##iana
worry
repair
soy
cease
emerged
favour
practices
henman
lapt
##wich
thai
church
congr
april
pole
seasons
##elson
##engers
politics
civilians
manufacturer
subscribers
capsule
trigger
96
aer
buc
pushing
rou
##ashing
perhaps
relie
boom
possibly
blackberry
roman
dismissed
surprising
hamp
nv
thin
##under
expands
recr
present
extrem
##rupted
squad
figure
dozen
garc
cooperation
##ritis
graphics
##iller
##ivo
accident
sudden
organis
bobby
siege
citizens
spaceshipone
chirac
either
p2
##itude
bigger
trium
brain
vegas
kyoto
fighters
outsourcing
diamond
##hen
##ini
ongoing
serena
remember
managed
dominated
arthritis
tap
##time
##room
alital
announcing
suspension
##awks
everyone
journalists
kofi
determin
colombia
astronauts
strategic
franchise
cowboys
triumph
alitalia
ho
tank
##essed
##emen
weaker
backing
explo
passengers
modest
qaida
resolve
cz
lu
mol
##ui
##rier
particip
door
throughout
drivers
indians
resignation
licens
toyota
language
p2p
78
hill
kenn
##work
##etts
ash
spark
expert
serve
orbit
playstation
brother
swim
vik
imm
approves
ryan
expanding
illinois
##erc
##usetts
compens
resist
brings
##achusetts
##phone
remo
nether
massachusetts
receive
lyn
overseas
opponents
84
fash
kl
##eason
marlins
aren
trend
bridge
preseason
##ghai
carib
injuring
joining
scientist
visiting
cleared
downloads
lockout
espn
libya
shanghai
86
dur
gad
mother
nap
pct
samp
##yn
sap
##central
mah
feed
holes
additional
anyone
discount
successor
mosul
landmark
resigns
tells
measure
floods
obser
netherlands
3q
92
lake
rf
##pass
##ying
##itory
##ager
peru
phishing
insisted
197
foundation
conclud
collabor
connection
gained
inventories
maryland
56
aside
highly
meets
column
updates
##ennan
divid
hotels
pirates
cameras
fergus
antonio
fate
tall
##had
##ature
##omes
lehman
##endum
orland
peter
mining
warnings
string
postpon
freeze
heard
communist
transfer
maccentral
treasuries
coca
orlando
57
##gs
##mc
brad
cancel
sunni
slugg
##azer
talking
predicted
controversy
constitution
suggests
caribbean
cart
nic
sac
##rig
##side
##iel
##gb
##te
##using
##oster
accounts
telesc
protests
universal
arabia
pipeline
referendum
drew
fro
##fort
##roll
chap
enab
agents
monetary
overha
serb
fined
brands
returning
regard
medals
headqu
##ooth
anything
engineers
quality
reforms
breat
bert
cases
##fall
##star
whe
unr
consp
gasol
introduce
pilot
screens
assistant
mclennan
enjoy
cult
##anes
##ili
produce
##iant
offices
abd
blamed
busch
presence
wars
infra
schum
knew
provided
fellow
equity
embattled
stopped
insurgent
affair
lifts
hollinger
assembly
vikings
85
eri
ecl
ross
##aire
plants
boosts
entry
palmone
answer
bronze
cheney
projects
ceremony
ferguson
sust
##dy
##dles
##icts
blame
maures
coaches
watched
explosions
muslims
suffering
harmony
ace
len
pounds
sr
##erly
##esters
knicks
boxing
apparent
fashion
mauresmo
dna
rug
rays
tun
##bel
##orp
beef
acad
amount
marri
however
models
sprin
license
pledged
surface
ousted
helicopter
architect
bon
var
xbox
##mens
##aped
true
austria
larger
##avez
competitive
meth
climbed
appointed
headquarters
hor
kaza
rome
table
##bar
##qt
comment
compon
##elling
clot
deser
payments
approve
##views
closely
dark
docomo
sweden
manufacturers
hassan
infrastr
kazaa
72
rams
task
##lor
##uan
tob
chavez
unw
uses
intens
allies
meter
stronghold
##cliff
ballot
easier
carried
feared
tsun
qualifier
cannot
74
77
rail
##pm
excl
##antas
adrian
worlds
parents
cola
targeting
belt
##loyment
solutions
distance
sentiment
letter
prepares
magic
casino
charlott
reduced
innov
described
fought
pav
tar
wto
##can
##ground
##met
inaug
##icated
proceed
##emens
##enda
trim
trump
scale
slash
produced
rovers
risks
stepped
fails
pitched
require
celtic
alternative
##cliffe
lets
loy
woes
##bl
stick
##artner
diss
##ovo
harry
democrat
clemens
seemed
potentially
raptors
siemens
beslan
88
roo
wiz
##bod
deuts
exhib
usc
worried
client
retired
backup
suite
powered
sentence
focused
pleaded
emerging
expanded
heavyweight
penalty
neighbor
infrastructure
ft
hond
tape
##tering
##usion
exit
complex
euros
capable
breed
meetings
shoulder
osama
raiders
effective
successfully
crackdown
brokerage
spirit
stretch
##qtada
hired
yield
##roc
##achi
disrupt
serving
implement
palace
israelis
humans
valley
shipments
slipped
liquid
bt
dust
gartner
horn
ox
##nel
cha
spurs
##anson
orange
peters
invasion
couldn
imports
glazer
largely
update2
aviation
financing
investigators
positions
capture
limit
##mohan
causing
relationship
institute
ocean
caval
fem
gd
##xim
adj
helens
maybe
mostly
lowest
families
experim
cambod
clinton
distribution
publisher
multiple
overhaul
hamil
lob
mall
tag
spur
opin
orb
accel
industries
providing
charley
funding
philips
drag
volunt
delivered
responsible
tropical
flaws
auss
stands
phoen
targeted
ticket
imac
mcn
greatest
dividend
schumacher
deutsche
hamilton
phoenix
63
ic
ov
##iber
shad
apolog
seah
disk
manmohan
offerings
territory
patents
insurers
programme
memph
pushes
landing
subsidiary
##inho
sluggish
68
dick
tay
##itas
thatcher
exact
##icken
busy
commander
advances
movement
writer
homeland
jean
poison
gamb
couple
reasons
owen
curb
battles
favorite
pentagon
##know
tsunami
charlotte
seahawks
memphis
flex
hugh
##eera
##mes
##wom
##illy
whole
ell
swing
writes
versions
possibility
modern
storms
obtain
arrives
settles
netscape
infringement
famous
foss
lun
tan
##rison
##burn
##net
##web
##stone
acknow
maria
religious
consol
monthly
guine
##urred
imf
reality
watching
promise
photograph
islands
representatives
bund
fen
jos
ratings
vital
wick
##cott
##hill
##aste
compared
##abil
##enson
marks
mini
earned
raf
calm
provides
demanding
160
convoy
henry
rfid
dh
f1
hiring
viv
##life
##acco
##amo
agenda
slowing
engines
##ront
transact
discovery
suggested
initiative
anthony
clothing
loyal
##woman
acknowled
guinea
cs
es
eis
lakers
pin
tail
##ua
##oum
concess
unpr
unemp
sab
exerc
branch
laur
##active
doubles
frequ
hopeful
rolls
estimated
illegally
prosecutor
fleet
optimistic
prospects
celtics
origin
gateway
gasoline
eisner
95
fierce
##uz
##rah
ally
firing
arena
bln
2007
##ologists
muse
titles
legend
competitors
experience
republicans
lycos
shareholder
tentative
tobacco
honda
71
##rill
##nie
##ulate
conver
alber
marine
ord
sco
crush
2008
##ancing
10th
payment
concerned
controlled
ballmer
withdra
confirms
envoy
surviv
sirius
rums
landsl
petrole
finger
lc
py
##mission
##arant
##atively
shake
itanium
##enders
slump
quarterf
operators
protesters
cells
tyco
abbey
mln
separatist
rumsfeld
bed
bug
fool
krem
soph
tivo
##ded
margar
reporters
contact
supplier
suspend
arrests
population
plea
felt
individual
wizards
##outs
##eced
##olen
##rif
##antan
defends
consort
##athan
grad
northwest
effects
subject
formally
radcliffe
estate
membership
currently
awards
sweeping
materials
mcdon
ensure
particular
astronomers
czech
petroleum
kremlin
margaret
aide
cath
cbc
##stein
neal
cong
unh
memor
followed
stephen
firew
##ikes
regulator
policies
pleads
utility
bolster
optimism
du
gor
horse
map
punch
##rated
##su
##lon
##ecially
manage
marked
justin
detain
cellular
loan
revenues
document
attempts
rolled
delivery
handset
chechn
rushed
gymnastics
consortium
bor
bcs
mg
vision
##giving
##oard
##arr
andrew
plenty
##ipse
haven
scrap
assess
briton
knows
steam
studio
slowdown
advertis
casual
especially
munich
kuwa
wonder
chechnya
crop
ie
pock
pool
vast
##ports
##vic
##enport
##icle
quake
upbeat
coff
##etworks
##anged
trials
hero
merge
davenport
facility
boosting
regulatory
privately
struggles
accepted
philippine
welcome
organizations
compensation
cavaliers
81
aw
bound
gaz
rape
sized
##oil
##olves
##utious
##iab
aboard
becomes
understand
searching
included
fewer
administr
refugees
swedish
mystery
jazeera
eclipse
unpreced
unemployment
unprecedented
jama
mu
wire
##rone
##kar
##alo
anger
comfort
alb
termin
victor
coaching
formal
standing
visits
harv
cautious
struggled
biot
broncos
immediate
abbas
jaguar
garcia
telescope
rugby
picks
tens
##zard
##ayed
ata
shak
shown
allen
nears
##inson
everton
write
doubts
reading
awarded
##aska
accusing
jay
lp
sense
##gate
##pa
##vania
##fol
starter
##through
##aine
##ectors
##ifts
amster
crm
producing
feet
battered
passing
veritas
carriers
birds
destr
escal
pentium
evacu
licensing
amsterdam
lley
mull
rid
rim
tumb
##ares
##itarian
##ache
console
doug
evolution
loans
safin
races
responsibility
committed
simple
lleyton
89
cd
dal
neck
waters
##uth
##imp
hasn
fled
setback
producers
depot
##inking
breakthrough
engineering
##ippi
handsets
trafford
unexpectedly
postponed
chapter
female
ailing
mick
rough
##iga
ite
buzz
gene
guantan
emc
threaten
strained
employee
pitching
multim
appearance
momentum
peacekeepers
guantanamo
iow
rh
sven
toys
enforce
resort
caution
thanksgiving
cairo
dw
et
hij
sag
ug
ont
stations
##vement
##unk
princ
clients
relatives
improp
guide
copies
bloody
khart
consolid
wider
wides
##iced
##icut
wholes
##emic
winners
meters
supposed
goog
restaur
##atorial
creation
lowered
domain
connecticut
learn
cooper
influence
assassination
napster
wickets
khartoum
3rd
bail
kaz
ot
sends
wing
##oral
stakes
item
##ifies
presc
disarm
warn
endang
genoc
barely
trojan
chargers
angry
homered
typ
easily
murdo
kenya
flagship
bosn
iowa
murdoch
ia
kil
u2
##cling
##away
##aka
##ulated
alt
hav
##endi
blaz
norway
idg
collaps
confirm
spotlight
pricing
definition
blew
phillies
luxury
mcdonald
61
79
94
jul
##worth
stir
##chet
existing
alone
exporters
##ernand
remove
restore
aiming
pulls
disputed
rolling
nato
lcd
gil
lag
##eed
##western
##urity
unus
enters
##amped
retreat
capabilities
emissions
extending
snap
##ception
bangal
##ukee
freedom
integration
knocked
gathered
teammates
buffalo
resistance
eriks
genocide
ded
eve
kent
rice
sach
##ali
slowed
asset
someone
advoc
dominant
civilian
hyd
journalist
audio
prospect
kenneth
lunar
2nd
beng
ga
md
ren
rio
##wag
toss
shel
##ections
marc
scene
guarant
processing
revised
pollution
activists
views
sometimes
library
ferrari
fossil
museum
bangalore
luk
ride
wine
wage
##pread
##wal
##ario
##agues
##uls
syn
tested
##ventus
insurer
loom
healthy
reserves
juventus
object
cheap
sweet
athletes
##whel
opponent
sparked
##consin
chemical
wisconsin
admits
widespread
eriksson
##kers
##ych
##road
comprom
wash
investments
milwa
febr
signal
##oking
emot
##eneg
submar
lineback
realn
employment
panthers
wildlife
determine
ambass
necess
piece
aggressive
hughes
milwaukee
february
hell
pino
tas
##gom
##ae
##mal
##mouth
##iracy
chad
arbit
perman
eli
older
detained
##planes
proposals
arsene
factories
sexual
granted
execs
baby
fully
realnetworks
pinochet
sight
##bing
##kel
##state
forg
##istics
bru
notes
suz
victories
idc
portfol
promote
promising
weakness
montgom
settled
ricky
heavily
cert
daim
hire
xinh
##ez
##gment
##due
##erve
##ores
##icient
##astic
places
alco
scan
accom
##ancy
imposed
mississ
thrown
ballots
volume
limits
hunting
jumps
ramad
diamondbacks
suzuk
daimler
bc
gop
joy
kee
yell
##ratings
##gent
##words
##eries
##atically
exceed
overwhel
milose
paypal
suspic
##ikh
changing
identified
raids
kenned
fixed
mutu
santa
learned
daniel
pharmaceutical
ah
lie
lsu
nag
ramp
tip
##rant
##tery
proved
interior
orcl
grows
coverage
flow
slips
##ounced
##ological
swap
guy
joh
deport
student
rounds
billions
foreigners
##itten
pullout
crashes
athletic
criticized
seriously
owens
original
northeastern
throwing
welcomed
milosevic
58
fault
nav
##mos
##rage
##ulting
unch
adap
weekly
worked
switzer
buyers
mete
robust
1999
reveal
reveals
thinking
description
crowded
earthquakes
simply
beheaded
abducted
laptop
endangered
hydro
linebacker
g5
gay
khan
mits
math
nan
##nic
##holm
##20
##erie
##illas
worse
##ellor
cloud
incent
coordin
highlight
relay
iron
eds
netfl
devil
equatorial
##market
psft
andreas
lebanese
kids
survivors
mile
nt
soci
##bek
##uild
##po
newest
plug
##allah
##igned
##ogue
buyout
##prises
12th
beaten
##place
##anny
controls
visitors
combined
diplomatic
astronaut
pretty
normal
conspiracy
lenovo
opinion
craft
gib
kir
qantas
rating
tact
##bon
##dom
##stan
forget
##chenko
chanc
##agers
saving
compat
wealth
indies
blade
##encing
##fully
146
boycott
celebrate
pledges
persu
recommend
orioles
instruments
determined
taylor
vivendi
kennedy
curs
pad
##syl
##lights
##eded
##idia
stuff
offsh
marion
invit
counting
barb
updated
patrick
submit
wreck
versus
judges
cheaper
pennsyl
stunning
conservative
cryst
exhibition
adjust
mississippi
switzerland
netflix
gig
##organ
##acter
unix
adam
scam
miners
brothers
maver
troop
hoped
farm
##adres
insurgency
checks
priced
2012
replacement
deadliest
nvidia
shadow
exactly
59
hip
icc
sender
wer
##jet
ones
conway
sean
branson
button
downgr
merrill
enterprises
violations
revenge
privacy
mortar
disappear
newspapers
ranks
##bourne
hubble
dubai
dot
fill
wish
##ecl
##acom
shat
##abe
finland
warri
soared
planets
patrol
actually
closes
gaining
questioned
restrict
deployment
politicians
immig
destruction
pennsylvania
ich
nz
ports
pensions
padres
rot
rental
##overs
spa
plum
##iable
expensive
killer
mao
##airn
courts
extrad
demanded
discip
respect
challenger
junk
independence
commitment
samarra
scottish
conduct
establ
lynch
ovitz
ambassador
craw
divers
hed
kris
mv
nc
ntt
native
td
##pur
##eling
comcast
quarters
peak
slower
meant
satis
walker
dropping
pope
household
massac
aids
##bridge
function
route
melbourne
village
mourinho
prompting
belgium
fenway
portfolio
bust
pover
rushing
##mon
##tr
##inder
##itely
##ource
##iev
poland
governing
surr
##ughter
regime
computerworld
##lington
rover
draws
severe
techweb
engineer
##ipper
humanitarian
affect
treaty
strengthen
connections
feeling
aziz
establish
congressional
harvard
bengals
fu
fol
oks
##cats
##ono
##isk
##omet
##ivir
note
manh
phase
defended
impose
managing
southwest
rocked
baseman
yankee
##scar
tourists
malicious
cybers
gamers
rodrig
ukrainian
settlers
choose
encoun
subsidies
ethnic
derail
quietly
steroids
temporary
exclusive
daimlerch
poverty
91
ak
buck
jen
kath
##aron
##enters
##ala
##rey
##utch
shed
quits
reporter
intc
abc
economists
trapped
bombard
antivir
##print
entering
transform
embarr
clearing
settlements
triple
introduces
stalled
surrounding
organisation
affairs
kuwait
daimlerchrysler
embarrass
00
93
langer
wta
asking
height
resident
intended
twin
defender
surging
missiles
midfielder
straw
authent
cuban
berth
recovered
prompted
symbol
regarding
unrest
enforcement
antivirus
1st
dict
filled
gift
ling
lure
mas
pays
##ien
##dd
stolen
##ira
##lying
##quel
outfielder
scare
notice
eliot
##ocked
polish
##coni
swift
debuts
investigate
rivalry
portug
type
stormed
guns
buried
hugo
ramallah
dawn
impressive
method
mvp
q3
##ean
##bat
##fc
##idays
stood
reign
atop
prol
musab
swapping
tickets
senator
competing
farmers
artest
convinc
locked
telling
improvement
fixing
gmail
mourning
falcons
quarterfinals
yellow
chancellor
fals
rup
tensions
##rate
##mand
##ila
forcing
##imax
bear
prominent
##emark
indicted
ort
elite
moham
electoral
syrac
recorded
swept
guards
explain
belar
refin
stockholm
visa
mys
hammer
ernie
seeing
##otten
easing
overturn
kicked
escape
randy
cosm
venus
concessions
syracuse
650
97
fab
fame
lived
waves
##stop
##estyle
marking
medium
signals
greet
rockies
direction
hamstr
##week
ships
##ospace
replaced
captors
christian
automaker
roma
recalled
survived
49ers
devastating
minority
destroyed
mgm
meteor
crystal
87
fest
hikes
pages
tear
##iences
##lecl
##fit
newratings
hait
colon
medi
urge
wrest
##lining
buildings
doublecl
damaged
emerge
balance
arrive
##valley
stripped
shrug
grizz
representing
teenager
siliconvalley
guidant
cambodia
pocket
doubleclick
83
pour
##ror
##aa
##la
##yang
chrysler
##akh
shape
seats
teach
laid
##oya
11th
breach
supporting
##mingham
employers
dominate
happened
disappoint
##boro
birmingham
conducted
disclosed
complaint
rwanda
husband
removed
chaos
society
hide
mood
##tor
toug
##aying
##rie
upon
slug
workforce
dealers
billionaire
finale
singles
urban
standings
michel
philip
matchup
yanks
##uggets
arist
valu
suffer
mexican
recalls
patches
##ography
liberty
sleep
dynam
garden
##mandu
ortiz
nuggets
tort
##icate
##ecurity
##ister
abroad
##ishi
longest
timber
##eva
shortage
robinson
simpl
landed
freshman
pledge
electricity
jacksonville
vulnerable
savings
punish
wmt
pioneer
suddenly
wholesale
submarine
hamstring
gb
honey
kings
thunder
##atile
anwar
##omed
stops
##oses
unkn
##kswag
hailed
overcome
intr
fines
196
imag
globe
##comm
listed
trees
volkswag
favre
louisville
berlus
350
parliamentary
boys
salvation
substant
jamaica
princip
volkswagen
900
jol
ni
naz
qb
sar
soun
sights
yug
##mail
tott
##eces
reward
##raib
##essor
margin
##ongyang
gross
finishing
insists
federation
bidding
urging
speaking
behav
treo
##news
negative
bayern
tommy
##brid
louisiana
eventually
spokeswoman
tribun
ambitions
accuses
penalties
ghraib
guerrillas
marriage
various
pyongyang
unusual
ichiro
grizzlies
berlusconi
baker
gill
mud
moss
rent
tree
##equ
##has
##works
thor
##ateral
##ita
##essing
queen
worms
incident
intense
##ubishi
declines
profession
retain
topp
holmes
holidays
addition
packed
availability
bells
overshad
inventory
attendants
belgian
soyuz
aerospace
mitsubishi
souness
damp
hague
length
pier
rena
wolf
##mad
##zn
##kok
unp
que
cloning
reput
bloc
##isse
warm
##itsch
wouldn
##atched
terry
paraly
##encia
fee
glitch
posting
grace
verge
desperate
speedway
withdrew
telecoms
bangkok
pitc
distribut
grip
madison
eliminate
massacre
centers
fis
fuj
mate
nuke
sort
zook
##armed
stays
##unction
##andan
unle
saints
serge
##ampton
##eyer
syrian
milestone
delivers
walked
standoff
clears
blackburn
eric
cycling
laboratory
negotiators
article
probes
intellect
happen
shawn
ravaged
weighed
faith
malaysian
pounded
mysterious
transportation
rapidly
coffee
aristide
valuable
fights
kel
##gets
##oa
##uals
##enham
##ality
##rocess
##ional
stal
unable
sep
##ineon
infineon
brewers
directly
##peg
santander
suggesting
psych
certainly
animals
monitoring
observers
tanks
tribunal
pitcairn
bure
fbi
pu
##rum
##arch
##acing
agric
clock
bruce
endors
remark
throws
advice
divided
aides
completing
juan
royals
earnhard
mistakes
plunged
replacing
gdp
particularly
prescription
montgomerie
earnhardt
bog
eld
mph
mumb
pd
roster
##rising
##arks
##ayer
reop
##ighter
##agn
overc
supports
120
lowe
##uja
valencia
##ippers
rankings
damasc
lifting
involvement
answers
observ
taipe
hawks
teammate
jonathan
batteries
##break
iaea
tougher
damascus
taipei
aaron
bp
fidel
hid
ske
##laim
##fr
##wire
##ql
stamp
atmos
shook
lev
##istent
alaska
clues
quoted
outcome
##uez
crunch
warplanes
schwar
misses
films
hander
aviv
##afee
##umps
metro
receiving
revive
malc
hunger
romania
upgrades
battling
venezuelan
honor
gathering
freddie
soren
uncertainty
swimming
kathmandu
belarus
tottenham
atmosphere
schwarz
eta
fake
kur
psp
qwest
rash
xm
zur
##isive
##echn
plag
click
##udh
expenses
blocks
manned
commod
downt
impl
genetic
hosts
wired
formed
pulling
fueled
purdue
hybrid
mercury
estimate
lying
jointly
indicated
pursue
govt
enhance
libraries
grabbed
sponsored
occupied
rafael
unchanged
malcolm
eases
ros
ria
##race
##iya
##aware
##anim
reass
##umber
interests
tracks
##ode
microp
soar
palms
troy
##onym
payroll
handle
actions
closest
bases
doctor
greenhouse
damages
dominance
burst
readies
squee
stayed
appealed
significantly
undis
stanford
hornets
improper
permanent
mumbai
bamb
caf
dim
erupted
hil
lam
tender
##vis
##wr
##stre
##stra
anx
##opol
frame
presid
consult
cape
##cont
fedex
linds
viacom
hitachi
rebuild
provision
latin
imminent
publicly
mcafee
qualcomm
tracking
ranging
surprised
bhp
error
catholic
necessary
suzuki
agricult
zurich
iyad
kreme
nab
von
##ram
##rical
##10
##esco
##eder
ink
sting
beer
usual
##uded
trucks
buoy
considers
##irez
fallen
charging
tradition
deton
mci
erics
junior
fifa
ramirez
diplomat
flew
vulnerability
medicine
firewall
dere
dave
ian
icon
##zed
##repr
##acts
##empt
alab
slid
assists
drama
homers
portland
embargo
tvs
silv
popularity
slowly
1990s
afford
clinched
filmmaker
disappointed
celebrated
alexander
ownership
girls
vulnerabilities
symbian
stanley
lobby
acknowledged
items
maoist
krispy
rodriguez
reputation
ericsson
bold
kiev
nad
pond
ral
rocks
sick
##card
##stam
##elie
anderson
proof
print
resh
permission
relatively
schw
scheme
##atham
##eeves
chipmaker
written
videot
contractor
##efin
equal
supermarket
barrels
negotiating
dvds
##rington
weighs
animation
houses
floor
odds
repeated
delegation
grenade
acceler
exercise
suspicion
##echnology
bash
borrow
cate
gp
jpeg
rb
##rand
##yton
thwart
theory
compound
##ucky
indo
indefin
blind
austin
undergo
belong
steep
##iffs
acquiring
basis
departure
##attan
paula
nature
bulls
sitting
meaning
pursuit
dialogue
triggered
klitsch
rossi
dhaka
tycoon
goran
sorenstam
hend
ripped
vanc
yudh
##rative
##body
##uers
##pose
##jo
##ington
##stri
##ayers
##ouver
##ouri
stable
charter
chosen
enable
ambit
appoint
soars
##oyono
releasing
bombers
bele
costly
volatile
lyon
keny
counterfe
learning
liberal
ronald
adopt
adopted
condemned
concluded
inaugural
detainees
ontario
unknown
presidency
categ
klitschko
yudhoyono
98
bah
gang
kurt
##cr
##iago
##book
##gins
##zone
##prom
##power
##ilateral
##irts
##osing
##ules
##ours
uprising
##ells
##iform
intention
ark
peyton
attach
surpass
##phones
longtime
striking
mids
acquires
harrington
drawn
skipper
blocked
temper
##aguered
siebel
##standing
sensitive
conservation
repeat
tendul
breeders
casualties
mickelson
collapsed
compromise
offshore
hedge
renault
fischer
alabama
vancouver
ambitious
beleaguered
bm
jar
riot
vari
wicket
##rants
##eers
##iy
##bucks
##ho
##irt
atp
deg
usually
fract
scen
slows
slams
slashed
parad
regions
##ultane
##oked
calend
starbucks
facilities
##offs
wells
simultane
prisoner
bali
cheer
audience
moments
exploration
telephony
bernie
magnitude
elsewhere
bloomberg
exploit
sustained
experimental
gazprom
mavericks
intellectual
bounce
mice
meyer
##part
##tv
##ja
##acular
unanim
##ardy
amate
brett
maur
suits
extreme
rivers
stepping
custody
##shire
18th
moderate
embry
graeme
please
premium
##inction
required
reader
agreeing
mlb
battery
guidance
cornerback
spurrier
multimedia
kazakh
palmsource
tendulkar
gem
lith
##eer
##bank
##fs
##omp
##utt
conrad
whales
##umi
##eller
opter
abuja
telstra
greg
batting
active
label
mcgr
clubs
panama
##weg
##resp
arrival
clinical
santiago
integrated
dreamworks
bargh
laser
physical
favourite
mahm
canceled
established
professionals
73
diet
kos
lights
luke
pill
sut
sacked
trem
##tz
##wolves
##esl
##onz
##cepts
conoc
conven
clippers
slum
carries
reduction
norweg
bankers
confront
delaware
goldman
camps
handling
violating
basic
mails
defeats
funeral
praise
jamal
wearing
sacr
culture
conglom
warriors
timberwolves
microprocess
biz
cargo
danny
eg
fold
hud
jp
kan
wimb
wimax
##hs
##itals
regr
intent
abrupt
feels
agreements
grade
vikt
southampton
antar
strongest
supported
maine
desktops
##amento
travelers
recovering
matth
crossing
##ographic
scramb
animal
neighbour
reducing
southeastern
reaction
hijack
manhattan
rupert
##stream
sacramento
wimbled
viktor
cul
fare
gat
jeeves
mats
villa
##0m
##inid
##inct
##ingly
##itable
stability
forth
##otive
##rav
asyl
uncon
unique
spots
excess
##iano
hispan
exporter
suns
sov
suing
runner
drink
refere
publishing
patient
digit
harris
mode
campaigns
journey
celebration
kingdom
dreams
awaits
bolton
ultim
veterans
lucrative
mistake
components
transactions
skept
wimbledon
asylum
nfc
pig
thinks
##ela
##rain
convers
examp
contain
europeans
parmal
trio
smooth
operate
continental
studies
specific
##afi
turmo
cellphone
tourism
purport
questionable
automotive
jeremy
audit
survival
resumed
shootout
kidnapping
virtually
illness
drought
eleph
slammed
semifinal
complaints
devastated
unfair
spectacular
jazz
rigging
abandoned
reliever
advocates
arbitration
overcame
vonage
derek
norwegian
parmalat
turmoil
denn
fm
hook
ted
##bell
##hal
##etooth
chat
##imony
spoke
abuses
disgr
##izz
##izumi
slain
electrical
dealing
glory
subur
lowers
##uctions
shortly
metal
sne
islamist
policemen
gunners
pleas
affili
flooding
rescuers
frankfur
scram
charlie
textile
dubbed
bluetooth
rwandan
achieve
durable
peterson
mcnair
##rahim
adapters
curse
crawford
encounter
haitian
plagued
calendar
amateur
aa
cri
dinos
fernand
hers
jb
mouse
none
nbc
rs
rust
waste
##rent
##rard
##mates
##icial
amelie
shared
salary
prefer
youth
ibrahim
creates
labels
empire
portal
interested
experiment
towns
circulation
bullet
koizumi
llc
sporting
sandwich
penning
absence
sidelined
disruptions
lukoil
false
lindsay
schwab
opteron
conglomerate
gators
nj
omar
vince
##mare
##isan
##olas
asb
uncover
uniform
lex
monitors
##ables
secr
##eps
geneva
talent
glass
halted
nationals
update3
porto
locust
regulations
activist
factor
negotiate
conviction
hyp
creditors
battled
troubles
##itutional
innoc
##lusion
pieces
jaguars
abandon
temporarily
delegates
correct
frankfurt
pennington
ay
cia
pierce
##rating
##rino
##ci
##isman
##eca
alum
intends
serie
101
percentage
nightmare
underw
missouri
##enne
edges
brew
owns
specif
communication
universe
treated
volc
plead
burma
affected
##uffle
shauk
ambush
switches
lucent
sparks
fatal
rebounded
primary
pharmaceuticals
cybersecurity
06
eat
ioc
nich
oreg
yush
##bird
##bron
##gun
##rows
##reh
stone
reviews
##igation
##estos
proced
shoo
##ulating
unders
##asts
wors
clou
##abb
##anted
grocer
earns
defic
delight
raw
campus
gerrard
concert
turf
collect
##neapolis
loud
wounds
televisions
weapon
identify
identification
survive
strokes
selected
willingham
errors
birthday
ruud
cartel
sprinters
withdrawn
kirk
persuade
portsmouth
cripp
asbestos
shaukat
oregon
03
cook
dup
fo
heral
pix
tum
wn
wool
##trust
##rex
##acas
##vey
##osa
##agger
lean
##apes
seize
clust
adults
truce
lav
minneapolis
highlights
declining
moqtada
served
brokers
imposs
dealt
glac
steven
eddie
wright
competitor
strain
astra
opposed
mills
blockade
duty
importance
fixes
licenses
platforms
broadcasting
skype
thomson
argentine
spreading
teenage
colombian
eccl
printers
rallies
welcomes
screensaver
looms
xinhua
accompl
incentives
tactics
wreckage
soviet
volcano
yushchenko
01
cig
ech
ess
giam
gangu
kicks
lord
mide
rings
##bul
##iton
forms
reiter
##char
incumb
##quille
resorts
twenty
coke
brink
presented
moore
counted
traged
opera
execution
strongly
campbell
afghans
labs
eastman
popul
blocking
predicts
effectively
differences
rogers
shaquille
scrut
shocked
cocaine
registered
hungary
bloomfield
gambling
keefe
gibbs
riaa
ecclestone
ganguly
mideast
aj
bump
hots
jerry
ka
nash
rib
tune
um
yes
##rimin
##nm
##mind
tox
##ilder
stages
##oli
asean
shield
##anded
##ript
leon
##apl
##endant
##ichello
reliance
##angle
generic
infected
deliber
sworn
remarks
researcher
walking
midway
alleging
barrichello
skin
gunfire
thousand
entrepr
1996
await
acquisitions
detailed
##heim
protecting
counterpart
inspired
tribal
accusations
lackl
subscription
stunned
##bourg
challenging
installed
kuzn
adviser
architecture
bombardier
slugger
aig
cds
cites
hs
hart
rss
sg
sd
sina
ual
wary
##lav
##mont
##pen
##fast
##win
##onom
todd
##iters
reorgan
cham
chicken
proc
priest
enth
conte
manip
warl
slim
##mann
mild
##ashes
businessman
schol
grim
bombed
testimony
stream
subpo
trademark
urgent
hearts
eval
shortstop
tying
listen
messenger
statements
statistics
bayer
richest
optical
connected
colleagues
burning
roads
readers
sugar
escaped
castro
mastermind
cancels
gadgets
aussies
muqtada
comfortable
##enegger
overwhelming
disappointment
schwarzenegger
detonated
kazakhstan
giambi
kuznets
sinai
jur
mmc
nist
tx
vet
yao
##11
##atures
##stad
##aco
##esty
pride
unity
leap
lebron
##occo
heels
accepts
incred
cox
pep
##itez
##ullah
partial
colgate
drinks
feds
booming
nearby
##iously
johnny
solve
130
sheff
completely
racist
shutout
berkel
discussions
causes
locker
deeper
hurdles
benitez
ancest
helicopters
nomin
clarke
component
lpga
distributor
sutton
impossible
incumbent
subpoena
kuznetsova
berkeley
aver
gut
lig
latham
mam
sin
sack
##itage
stiff
##tson
##igley
whist
spike
seal
clim
interactive
lah
highway
aires
##itsu
max
underway
economies
smugg
extinction
stockp
singer
follows
violated
australians
collins
blasted
reserv
disputes
featuring
225
combination
flee
daughter
selection
##keeper
bargain
columbus
recognition
ceasefire
luis
neighborhood
aussie
originally
blazers
hydrogen
entreprene
sheffield
aapl
banc
kum
nerv
rains
ward
##ras
##eon
##cane
##gio
##vs
ther
##ilo
##elro
stuck
##raps
sher
monopol
intercept
brid
scams
##bert
minim
muscle
regain
tale
keith
programming
middles
speak
legacy
betting
visited
basque
pitches
doublehead
purchased
displays
paink
blogs
properties
silverstone
wilkins
fulham
frozen
landslides
memorial
tumbled
ugly
bureau
variety
example
bans
cough
ditch
ji
kyle
nurs
pending
rans
tumble
##iate
##more
dean
hair
indy
superson
capped
topped
imper
##athers
profitable
pressed
emir
bats
merch
character
##link
applied
receives
revamp
regulation
grabs
skills
erp
drawing
##heed
catcher
catching
integrate
legislative
knockout
fighter
pornography
hampshire
samples
innovation
cigar
tragedy
nistelro
750
brom
cendant
dil
dug
lane
mech
nairo
tamil
tears
vig
vog
##rell
##bow
##gc
##asia
saved
##asty
compar
aging
heisman
##obb
scar
investing
carbon
shark
gloom
smoke
window
##press
midnight
peaceful
bett
radar
casey
safely
robots
speeds
valued
explosive
volley
arguments
downloading
staying
salvador
ankara
chilean
dogs
frustrated
cruise
collaboration
breath
fujitsu
astrazen
nistelrooy
nairobi
hk
hints
pod
papers
##brough
##aud
ingr
stance
whom
##oper
except
##ubs
arts
##outi
finn
manny
##avi
decisions
##ologist
banker
confusion
headlines
hitter
hosting
grey
susilo
efficient
attackers
timing
##iki
135
safer
tyler
eurozone
hunters
celebrex
introducing
lockheed
spani
dismant
hacker
beheading
plunge
nomine
demonstrated
buccane
academy
beltran
oxy
ellison
restaurant
videotape
clouds
wnba
buccaneers
cfo
din
foul
lumber
nice
rack
rober
tons
uf
uair
##care
##ienced
##nell
##fts
##sted
##ete
staged
chron
upper
expo
arlington
truth
elena
miner
professor
suisse
105
redmond
##iamen
hosted
hopkins
refusing
oldest
founders
halfway
148
fundament
mainfr
findings
defeating
cycle
cheese
attempted
automakers
bullpen
catal
nobody
register
rivera
guerrilla
benchmark
occupation
yields
sabot
satisf
hidden
doubleheader
vogts
astrazeneca
aven
cens
hi
kraft
lone
pose
pump
##bal
##uous
##around
##alom
##oted
beir
sains
enemy
agg
weis
clij
##aby
amend
brady
blues
novel
106
implant
militiamen
guys
postp
buyer
northwestern
russians
##ovan
mcg
13th
collection
##umbling
shipped
prosecution
boxes
santana
purchases
griff
deterior
creative
tribune
plotting
miracle
hanging
abdullah
administrator
biotech
alcoa
authentication
honeywell
behavior
mahmoud
deficits
sainsbury
clijsters
bj
dent
diver
hover
kost
kenter
ore
varian
ws
##kina
##edon
##itted
##ayan
##urance
##ols
##otic
##osis
dement
shower
##iang
upheld
mond
hazard
marat
arroy
containing
corps
salt
102
smoking
##oken
armstr
robb
clearly
panels
qualify
expecting
suffers
eagle
individuals
oriented
landslide
kentucky
nazi
kenyan
purported
middlesbrough
beirut
kenteris
armstrong
ayad
dair
gur
hok
kat
mbek
pda
tore
wro
##gl
##dh
##pro
##kin
anonym
stel
##amin
##osh
##osure
isol
prest
expense
peps
##ometer
corresp
killings
secured
maxim
grass
depress
attacking
20th
writers
ideas
##atories
visual
banning
array
harsh
mainstream
builds
interesting
valent
cycl
productivity
pirated
picking
improvements
widens
bobcats
verdict
wilson
derby
encouraged
sponsors
fingerprint
shaky
extradition
downtown
mbeki
correspond
bian
duke
eads
fd
kell
lor
lloy
nest
##vo
##jans
##30
stabil
neither
##aken
spurred
##ellation
twist
outbreak
outstanding
butt
##avs
carmaker
103
schro
bars
barcl
depth
calc
terrell
explore
breast
debates
writing
##ika
empty
metres
location
freestyle
eyed
richards
specialist
mounting
attorneys
jeffrey
villagers
logic
opportunities
megaw
remarkable
agriculture
indefinitely
matthew
enthus
arroyo
dale
eating
hires
jint
mouth
sank
sms
wet
##sl
##hol
##uate
##pi
##kies
shy
quant
exter
##ema
plastic
##romedia
interstate
blunk
2009
flies
##ulls
airlin
moya
surges
assum
barred
trojans
centrino
protected
detention
morris
aston
broader
##efe
appliance
embrace
macromedia
knowled
frontier
distributed
802
occurred
franklin
resolving
alien
dunhill
organizers
galax
politician
recruits
bertrand
##orpor
inaugur
ftc
biotechnology
kelly
ralph
maurice
emirates
blunkett
cement
foster
lion
lists
pk
tire
taps
wrist
##boy
##no
##pc
##orious
##ados
##agement
##essions
##tersh
##umm
acro
adams
##ogs
##ekom
manuel
minds
quarterbacks
teamed
confer
barrier
buyback
telekom
steal
roeb
turnaround
hardly
mylan
##rett
mainly
discrimin
healthday
likes
tourist
skid
currencies
laboratories
1998
spotted
##while
casinos
resolved
jimenez
municip
unsolic
enhanced
promotion
reverse
huskies
romanian
enabled
album
roughly
fuels
bambang
buoyed
silvio
conocoph
secrets
kumar
dairy
megawati
roebuck
unsolicited
09
bount
mug
nord
nose
nike
oscar
pas
tired
vin
##born
##mb
##vy
##inary
##aya
##etown
##etically
##uri
##ura
##illips
quatt
plate
haul
crater
manila
##odox
slov
suu
doors
suppl
postal
depend
showc
autonom
refund
suspends
approxim
billiton
charity
jeop
letters
balco
golfer
oversight
smartphone
creator
wrapped
branded
supercomputing
hurdle
upsets
pti
chemicals
hawai
promoting
ultra
extremely
assessment
dedicated
shattered
simultaneously
nervous
knowledge
approximately
550
bb
bury
fier
han
ki
lump
omn
pere
wat
zero
##oria
touts
##vered
##oslav
shelves
##ribe
margins
strange
structure
decisive
medics
191
territor
##prus
injures
passion
##closed
motley
investigated
sheikh
voter
successive
macedon
cyprus
obst
challenged
coul
surfers
cnet
tribute
excited
praised
kidd
rubber
76ers
interface
sample
tunnel
withdraws
emotional
hellip
barbados
rotation
paralymp
jintao
conocophillips
cited
furn
gest
jenn
jockey
lunch
pon
ri
ubs
##bro
##gie
##gary
##las
##vens
##jave
##water
##erable
nev
chose
unse
sao
##opes
aftersh
compreh
offseason
hails
intervention
arn
outfit
apps
mojave
buen
governance
104
talked
calgary
140
processes
investigations
skip
completes
difference
hospitals
grounds
##iveness
automatic
raymond
kyi
2010
miguel
encourage
enables
academic
proceedings
experiments
sachin
marcus
restrictions
##contin
bmw
essential
lackluster
acrobat
bou
cite
dang
dubl
lending
lilly
rip
riding
ucl
wpp
##match
##eri
##erb
##itary
##rained
bearing
shops
##agra
concent
apology
##riend
##asted
##aping
comply
##ortion
##ieva
incoming
incidents
incorpor
marvel
quotas
##antly
outgoing
advent
blows
blitz
##azz
colo
##encer
demon
engaged
gray
raided
searches
19th
antis
westwood
dirty
stories
evil
mainland
aster
transpl
campaigning
modified
snag
thoughts
silence
browsers
viewing
restructure
celebrates
temple
nepalese
odd
peacekeeping
congrat
p2pnet
sprinter
ramadi
thunderbird
yugoslav
kurd
referee
toxic
painkiller
supersonics
dementieva
schroeder
quattrone
02
cord
fishing
hay
keen
mention
pul
rural
sed
section
sounds
tm
wade
##pace
##inum
##rous
reh
afc
exist
##iful
##ifax
winless
orth
earl
deciding
sliding
defiant
austrian
formerly
develops
continent
restart
hometown
harder
likud
designer
skies
duties
gamble
delivering
strengthening
borders
apparel
croat
deployed
mpaa
epic
printer
influential
surprisingly
wheat
enjoyed
frequency
duo
johann
weren
dictator
shrugged
reiterated
monopoly
volleyball
oxygen
municipal
slovak
buenos
ucla
bounced
hem
hiding
mps
sinks
tips
woo
##math
##65
ing
inev
##ito
##elo
proves
##akar
##agar
sequel
enl
cler
clara
##obod
resur
blames
reloc
relax
airstri
moons
caracas
##azir
technique
boat
startup
attacker
speaks
formats
wrigley
147
useful
donovan
lara
trainer
dips
artists
artific
waited
counts
eager
declar
liberation
dismisses
stemming
undefe
initiatives
spectrum
ultimate
bosnia
havana
surrender
folks
portugal
myskina
undisclosed
gatlin
undefeated
bn
brist
ica
jpm
kit
mi
nelson
taj
yang
##gling
##uly
##zing
##test
##wave
##initi
##iture
sty
revel
##thard
unile
##ardo
##ella
abusing
grown
disab
disord
elig
wedding
slobod
##manned
infilt
demol
knight
halifax
update4
anywhere
rocky
secretly
ballistic
remainder
entr
satellites
awaiting
upgrading
crowds
briefs
mortgages
climbing
misle
marshall
unclear
fortunes
princess
sideline
laptops
extremists
wheel
obtained
transaction
sachs
coordinator
invitational
jboss
uncovered
asteroid
unilever
slobodan
4th
avert
bite
cink
fon
lg
lots
luck
oval
vow
##fare
##erately
##eli
ati
shoes
sail
queb
spare
compact
##rome
upst
clark
nod
disrupted
accur
airports
missions
testified
suse
##appers
trades
legit
hardie
divisions
transl
fares
100th
collision
tyrone
deny
cambridge
exchang
activated
sooners
hype
equipped
henin
alexand
websites
eleven
hungarian
advisers
followers
sidelines
frustration
sustain
srin
orbiting
tailback
torture
borrowing
unanimously
##stadt
coulthard
bone
bucks
cad
gs
gifts
ming
male
nam
wages
##rec
##base
##uania
##waves
##x1
##erous
##esburg
tower
shuts
shifts
monkey
aftermath
##icking
reconstr
apply
##ichiro
reluct
##ughan
militias
palmer
pointed
refuses
musicmatch
immun
detect
closure
funded
myst
personnel
corporations
stopping
earthlink
texans
augusto
obv
burund
focusing
attempting
discussed
petition
diesel
covered
mrk
ethics
apartment
reflecting
restaurants
bosnian
bellsouth
lithuania
coughlin
mondavi
wrote
disabled
quebec
aware
duel
dumped
foes
hoya
kal
mit
nbs
yuan
##here
##ls
##din
##pot
##wise
thri
##ilit
bee
unn
spencer
##alling
##ftime
monster
##udge
overl
##abi
amn
brent
brun
scat
##odom
parade
assured
coles
thirds
##athlon
halftime
pressing
110
holder
holders
conceded
keys
transist
techs
locations
caminiti
copper
preparation
preparations
utd
overture
recalling
settling
alongside
layoffs
approaches
corey
ansari
rumors
charlton
honour
throne
mls
bernard
700th
mastercard
burned
wmc
institutions
migration
recommended
maintained
sorry
separatists
grenada
ramadan
ahmed
festival
substantial
overshadowed
dennis
scrutiny
sabotage
barclays
aftershocks
comprehensive
bub
hin
mmo
sink
sasser
vp
##iac
##bast
##nn
thir
##steps
##rov
##isign
##amy
##illen
bypass
brut
##ogg
##ropri
lasting
guillen
courtroom
verisign
memo
hearings
turnovers
communities
acquitted
loaded
histor
smallest
##ittal
superb
designs
denial
kidney
arriving
junichiro
karachi
prevail
questioning
fiber
couns
widened
tighten
resulted
layer
slipping
inspector
hurting
select
dramatically
penins
publishers
float
diagn
advisory
interfax
robotic
gadget
icann
crushed
nagpur
lexmark
arnold
srinagar
amnesty
cin
diox
gona
jup
kual
qtr
rud
svet
tat
tense
##iop
##yg
##erver
##onic
##rog
##isation
##irmed
leis
##embourg
sealed
alban
interoper
cod
brill
contention
laz
warrant
redep
counties
drum
signaled
executed
stealing
centuries
115
detected
restive
##oval
transition
controlling
battleground
clubhouse
silent
coastal
captive
goalkeeper
hyn
weakened
scandals
represents
cracked
extraordin
notebooks
randolph
commanders
examine
deadlock
inches
luxembourg
soybean
routers
nicolas
unwanted
tags
bundesl
legendary
bruised
hendrick
category
lumpur
nevada
dublin
gonaives
kuala
bundesliga
dj
dumping
hb
og
sosa
tub
vick
##lana
##oop
##tles
##friend
thick
theo
##arely
stub
chasing
shakes
leaked
##astrop
seals
sebast
acting
##ifer
abid
grok
scaled
##ollah
disag
canon
##action
highbury
relent
soil
retires
symp
teaming
capri
capping
parc
paramil
britons
undergoing
barn
barrage
drift
leftist
handing
koreans
restate
walls
diving
looming
jeter
collective
hottest
simon
graham
damon
rejection
paulo
factors
entir
dipped
convince
viewers
murdered
##borough
representative
catastrop
requested
bargaining
ghost
channels
resource
hungry
dsl
bulld
medicare
cancelled
relieved
pavano
branches
doughn
saga
immigration
residential
degree
herself
innocent
shoots
climbs
ufj
mainframe
orthodox
icahn
nbsp
hynix
dill
hern
na
niss
nix
poul
rbi
sistan
##log
##oos
thier
thed
##ingham
##rek
unident
##emaker
##obile
##ansson
indict
god
adapt
trillion
blown
sciences
##ignment
##herford
##ghz
retains
carm
downs
imprison
cole
medall
swappers
##ieri
powerbook
costa
consumption
facts
##plus
judgment
robin
hotmail
unveiling
privat
clems
letting
damaging
toolbar
##onaut
roadside
focuses
revealing
birdie
checkpoint
initially
approached
jimmy
mandate
##regular
rutherford
##guard
rejecting
recruit
participate
serbia
joseph
guarantee
johansson
submitted
bashir
barghouti
ultimately
glaciers
griffin
ponting
declaration
peninsula
svetlana
nissan
unidentified
bs
bets
cay
fulf
jumping
mound
taste
wol
wann
##ray
##rence
##corp
##lig
##dled
##pam
##fa
##erts
##eds
##itting
stif
stats
reaff
##illance
atroc
shui
##agle
unmanned
##umes
heated
fren
goosen
brush
appet
aired
sybase
consulting
consequ
recorders
genetically
##ierre
irregular
otherwise
power5
bremen
patter
125
midday
francis
hardenne
canadians
turin
shortfall
listing
21st
policeman
ordering
multib
bald
oslo
surveillance
beneath
fiat
introduction
sexually
celebrating
conflicts
cooling
exclud
vaughan
assistance
projected
aggressively
tanker
commentary
dissident
roots
evacuate
jenkins
convincing
counterfeit
antarctic
scramjet
undersc
whistle
mechan
spaniard
johannesburg
inevitable
capriati
thierry
thedeal
clemson
bout
jab
liga
pile
rated
wav
yemen
##eu
##lift
##zie
##etime
##iri
concept
spree
leak
##iances
upro
##anton
recep
permit
##bery
canas
polar
broc
108
assigned
bankn
nightcl
doom
boise
##erto
countrys
mobiles
brewer
passwords
##ovich
wallace
directories
##annon
ceiling
tyson
revamped
polling
semis
bode
brien
obstr
township
1995
hunter
strengthened
routes
bullish
displaced
bronx
tackles
conventional
covering
ethiop
eliminated
recru
modestly
bradley
constitutional
orbitz
eserver
escalating
elderly
microprocessor
forthcoming
bounty
burundi
leisure
abidjan
sistani
bilateral
fing
pear
pink
tone
wip
##gart
##har
##fk
##14
##inz
##ani
##eding
##itute
reun
chal
##una
prayers
shane
saves
##ista
##alled
alarm
##iah
aged
haas
habit
trinid
##ishop
cracks
crushing
##berger
invited
annika
slalom
partly
##phi
delphi
barros
southwestern
testify
provinc
15th
athlon
billy
memories
actor
keyboard
turner
issuing
darren
finances
harrison
packages
mainten
discs
17th
revol
experienced
ski
performances
frag
osset
argument
propelled
seemingly
mountains
discussion
archae
resumes
checking
seeds
escapes
vacation
rescued
bryan
knocking
fortune
bandw
adoption
fisher
bernhard
disclose
responded
axe
gallon
innovative
mcnabb
josh
bugs
advertisement
##iability
tossed
lingering
temperatures
fernando
veto
external
mugabe
parcells
trinidad
maintenance
08
cc
hind
hutch
jaw
ker
loot
lakes
mog
nut
nail
nights
tension
uc
##rs
##pin
##ji
reeling
conqu
apec
##opic
plas
plac
##ellar
##abo
incomp
marwan
married
winn
outlined
recre
reclaim
trends
elbow
canaver
mines
marketw
slumped
desire
norodom
genome
marketplace
trav
##ctions
194
img
imam
##rupts
mergers
handful
emphas
##ugging
hamza
healthcare
universities
equival
##keyes
rejoin
replaces
furious
negotiator
mercen
badly
clashed
buddh
funk
routine
dodge
painful
indexes
amazing
lucky
anticipation
disclosure
narrowly
revolutionary
weary
tariffs
neighboring
iceland
albert
alberta
consolidation
compatible
thorough
commodity
framework
arkansas
warlord
kellogg
artificial
mmo2
extraordinary
provincial
850
bent
ct
dance
dump
g4
hod
jfk
lamp
pins
root
sql
x8
##aunch
##dling
##pad
##pack
##tel
thie
##inas
##oni
touted
##sten
##ouk
##eton
##ids
stap
##acles
##unted
shah
##agne
##essel
spate
spell
ala
compos
repay
covet
laud
lazard
meat
securing
##conn
config
undermine
underground
glimp
smashed
remind
searched
providence
developments
lawrence
motiv
violation
arrang
##rete
divide
skins
caes
burial
junta
traveling
athlete
auditors
tightening
distribute
inspectors
addresses
shifting
spirits
felix
1980s
medicines
mccain
reflect
appointment
dinosaur
underwent
dangers
bristol
entirely
multibillion
canaveral
marketwatch
glimpse
1b
cere
cous
dix
ht
kas
lis
lance
lender
misc
ned
pap
qat
sas
sinn
sister
wag
wang
##sen
##dah
##ethl
stole
chess
una
##apix
usage
##ivan
clk
sergio
recon
recip
adult
tracy
blank
peg
phen
companys
sunny
warne
decre
retiring
mega
mayer
##owski
feud
glas
payton
heritage
roethl
suspicious
113
founded
drugmaker
conclusion
##claim
speaker
devils
specification
numerous
homest
mcken
novak
engineered
poses
improves
everywhere
torr
grave
skulls
performed
##umbled
factions
arguing
fielder
combine
bellw
widen
declares
weighing
persistent
320
definitive
encouraging
condemns
contested
beauty
requirements
petersburg
crops
entrepreneur
ransom
finnish
variant
correspondent
jennifer
antispam
transplant
atrocities
roethlis
a3
aung
cater
dish
les
sz
##mu
##pet
##km
##iner
theater
##aro
inmates
anil
stom
##urry
##olved
quad
spo
cluster
adela
blacks
scour
contenders
minn
helm
annually
defl
backers
surplus
impass
boot
barrett
viagra
pressures
mobil
prototype
imaging
filip
patience
theme
concrete
chipset
walter
midst
generally
martial
collected
studying
kidnap
malone
racial
obj
1990
fraudul
mounted
taiwanese
oversee
choices
accepting
measured
croc
casting
##isticated
explodes
obsc
exciting
thrilling
flawed
jordanian
substance
generated
contributed
physic
achieved
accelerate
sophisticated
forgotten
embarrassing
convinced
teachers
imagine
principle
puerto
fidelity
provisional
affordable
attached
hudson
aluminum
woolworth
reorganization
gesture
misleading
jupiter
interoperability
hbos
banknorth
barroso
equivalent
thieves
mckenzie
adelaide
450
5m
7e
bones
burt
benson
cavs
dock
filling
hob
kumble
lung
rosen
tung
##hire
##mans
##dale
##zman
##q7
##ede
##edes
inq7
##eted
ons
##urer
##ching
##charg
chains
##vere
##iman
saint
exception
seville
##oof
upward
monaco
##ucci
clutch
overhe
braced
worldcom
contender
laugh
consulate
downward
maid
capability
parach
drinking
northrop
explan
114
debts
14th
firmly
pais
snatch
snapped
outsk
touched
torre
##umbles
davidson
raced
racism
dominates
requiring
captivity
35th
shrinking
tightened
declare
compliance
fleming
rooms
criminals
meanwhile
petrol
sounded
reacted
truckers
guerrero
libyan
clinching
##breaking
reversed
rutan
surrounded
editorial
columnist
flexible
obtaining
evacuated
poured
##rieve
glitches
enhancements
jihad
galaxy
hawaii
##elihood
relentless
paramilitary
plasma
caesars
phenom
roethlisberger
woolworths
7e7
1bn
ero
foe
gases
lies
liable
pause
sore
zoo
##bors
##tains
thumb
##icing
stated
forge
reel
##aments
proud
unear
quin
##aint
##emies
alph
heath
amban
exped
interviews
brace
blaming
##achov
##ograp
contra
dispos
thank
playboy
airwaves
attended
decides
serves
carly
downhill
maath
107
redkn
dressed
underlying
nearing
trap
reminder
deplet
rebuff
footage
senators
##ovic
strapped
directory
basra
load
loeb
watchers
distract
liter
##holders
##neft
informed
outlaw
pleased
featured
younger
lima
hospitality
withdrawing
pete
functions
crossed
kicker
javier
switching
elements
ecb
salvage
citizen
ferrero
beaut
exporting
sparking
breathing
volunteers
vitali
mulls
invitation
downgrade
greeted
cafes
hilton
pixar
wilkinson
amendment
isolated
slovakia
exchanges
paisley
outskirts
redknapp
bounc
dry
hiv
liv
lenders
mates
nys
piv
puj
sessions
tib
tapped
vander
wy
wraps
##rition
##uve
##pson
##wing
##yer
##arming
stutt
comet
shrek
whale
##opal
uphold
marred
quota
blo
perth
tea
teens
coral
presidents
slaying
commissions
recorder
insisting
irs
glance
teleg
lined
nowhere
gerhard
goodby
cream
veer
matched
failures
myd
possession
embed
values
murph
birdies
somal
biomet
marched
psv
melt
villene
websphere
georgian
thompson
indicates
landscape
epid
fatah
dying
rubens
megapix
predicting
reversing
bucs
1970s
aceh
dragged
cska
unhapp
types
immigrants
spawn
plummet
methods
scenes
abruptly
affiliate
locusts
specifically
nashville
nominee
avenue
valentino
perez
alexandria
medallist
coveted
maathai
stuttgart
07
1m
jit
lod
lady
lashed
mitch
tem
tass
tipped
vat
wachov
##col
##iors
##mi
##pes
##front
##wat
##year
##stations
##iliation
##elines
##amas
neph
plut
##aphan
heft
##ante
outright
coors
traces
##idepress
##ogen
buses
thanou
suntrust
poly
define
generate
runners
insider
smile
trains
linking
rebell
pointing
extinct
heroes
antidepress
117
walks
anyway
hears
##park
digest
mcle
##plane
discounts
watches
robson
proposes
simul
grav
volvo
pleading
rallying
multic
propri
egyptians
arabic
hpq
approaching
ferdin
honored
indicating
preventing
elev
walkman
copyrighted
strategies
burns
gearing
assassinated
rubble
interference
condemn
forums
cruised
removing
horror
frequent
##ulsion
rampant
recommendations
wrestling
dynamic
unleashed
payrolls
confrontation
elephants
jurors
vigil
fundamental
diverted
earliest
appetite
qatar
unearth
pujols
mydoom
villeneuve
wachovia
ferdinand
3com
bcc
cot
fc
fift
gotten
gonz
hernand
lenn
mental
srich
ware
##cles
##uese
##wyn
##inart
##onium
tout
##stered
##stration
rex
##irs
chant
prohib
shun
shine
##opher
spoof
lease
leinart
##aston
willis
fright
mariano
repeal
interven
finley
apprec
preserve
tee
flock
relative
stressed
suprem
consens
topping
assam
underst
glenn
fallout
headscar
195
belief
suspensions
stark
seller
##ushita
##parts
banner
maintains
##ukes
mighty
organized
frees
burden
1997
downloaded
middleware
automatically
henri
survives
upgraded
melting
shaq
bolstered
constellation
registration
enhancing
duncan
qualifiers
gallery
rouge
intensified
voluntary
sophom
understanding
fledgling
alcohol
werder
portuguese
hammered
lengthy
paradorn
matsushita
hispano
demonstration
upstart
overlook
nightclub
stomach
telegraph
nephew
srichaphan
3d
ald
bun
caz
cats
db
fence
gaug
horm
lon
munch
nal
ric
rif
wend
yor
##ews
##ii
##bh
##hop
##tes
##fb
thaks
##ora
##icas
stab
shaped
whit
##oppy
##terson
itar
segment
##ups
acts
oppose
amr
exposed
##aches
perf
##ichick
contrad
mead
synd
milk
workstations
fein
grilled
majors
finalized
calpers
belichick
palestine
edward
risen
##linary
radios
radiation
myer
portion
posed
snaps
revival
ballpark
millenn
shipment
medalist
requires
##quez
woodward
##bandian
hyper
motorcy
lightning
declaring
occasion
danish
finishes
microch
unlike
prag
prair
bae
prompts
admitting
pursuing
foxboro
doubtful
commanding
promoted
wondering
narrower
generator
demonstrators
huyg
evacuation
churches
remembered
typical
disciplinary
functionality
mcgrady
farewell
scholars
ancestor
cigarette
podium
hokies
conferencing
brutal
brilliant
dillon
##ographer
vatican
hefty
proprietary
bcci
hernandez
nalbandian
thaksin
huygens
cob
fury
fading
gol
hate
jed
jenson
jiang
lap
mason
nu
pfe
ratt
ump
##copic
##long
##mart
##mons
##oided
##uana
##pat
##kon
##5m
thigh
thorn
##esity
##arms
##eting
stu
stunt
forests
##olese
##user
##aki
convert
ape
api
lever
seas
alf
alcs
heats
##ellini
truly
acclaim
##adei
carn
desk
##aho
doomed
troun
##ronics
halts
greene
proving
##appan
boots
avoided
institutional
180
cellphones
shortages
succession
sims
ipods
obesity
trained
delaying
vieira
argued
affecting
jerm
bosses
counterparts
rumor
indicators
diseases
pipelines
printing
stretched
responding
slashes
implementation
congolese
otellini
mohammad
bakeries
reopen
anxious
midsize
procedure
ajax
ligament
kurdish
wolver
fragile
goodbye
murphy
consensus
dad
dome
fiction
lan
mes
naval
pand
rit
rah
tesco
tempt
voy
##rim
##rera
##iency
##lash
##map
##zer
##fold
##will
##wick
##word
##80
thaw
##enove
##itement
anch
##etta
##igl
##ches
##the
##estrian
##lyn
shirt
whate
sequ
seizing
enemies
##uge
mario
intim
outages
outpost
adelphia
bris
diseng
disruption
maneu
rely
stress
sla
defenses
secondary
regained
undermin
bov
boards
signaling
joey
johan
grants
telecast
refuse
roh
keane
112
bread
pats
patterson
anglo
stored
lowering
yourself
packing
posing
superstar
critically
revived
##ijuana
seekers
outlets
classified
dominating
favored
230
argue
automated
width
routed
happens
avoiding
contentious
curbs
broadcaster
excell
madd
villages
fortified
indicate
prompt
bandit
linksys
bargains
neighbors
savvy
safeway
slew
iii
ignored
molik
sacrif
deserved
##uanet
railway
oxford
ordinary
disarmament
xinhuanet
queens
pdas
echo
##stedt
riyad
lazio
quincy
unhappy
sophomore
cazenove
prairie
stuart
whatever
3m
a9
bend
bunch
dol
dates
dash
diab
ea
hr
hors
nnn
outer
sull
viz
wings
##run
##sey
##note
##inge
tow
##itated
##eta
##reen
stack
##olo
coma
dept
proclaim
isps
shoe
##ulous
sprained
##ucting
frat
intact
gogh
orch
adwords
peers
notting
notorious
contained
contacts
sovere
builder
##grim
sharman
salmon
consoles
colour
reggie
triangle
rematch
depos
powerhouse
lately
refusal
goldwyn
solberg
##play
##anna
drast
contractors
broaden
loose
100m
promo
pitchers
bowden
opposing
purpose
pilgrim
1992
predec
montoya
matters
##uffled
protesting
cabrera
tenure
hacking
wakefield
colombo
sandisk
conducting
jammu
babies
appoints
##ofts
hangs
##othes
precious
molson
ryanair
lehmann
poisoning
advertisers
##uthor
multimillion
kilomet
keegan
faulty
navig
simplify
punishment
foiled
sgi
furniture
hemis
consequences
ossetia
riyadh
sovereign
5bn
bree
dating
fert
gent
krist
nasty
tam
vault
xstr
zv
zafi
##rin
##sson
##iap
##lif
##uum
##vals
##ycle
##54
##eno
##atement
inex
##acters
revered
##illes
neut
##owell
chev
spat
##emn
seag
byrd
alger
##iper
##elli
##ifi
interception
abused
tricks
noon
crus
butter
preser
##actic
##icting
strict
stranded
consc
governors
runoff
##ierra
glax
gran
operative
edging
roaming
musicians
characters
idaho
solo
solved
arrington
##afe
transmit
grain
trek
lethal
eyeing
##erring
tripled
jerome
funny
##what
kickoff
couples
##iaries
bloggers
subscriber
foxborough
definitely
eliminating
spinning
environmentalists
absor
absent
crowned
bulk
contribute
821
ruth
gardner
pioneering
buckeyes
berti
bonus
exclus
trims
confirmation
guaranteed
objections
nanot
satisfact
mysql
observatory
ronaldo
regrets
suburban
gutierre
minimum
uairq
cyclist
disorder
eligible
wannstedt
x86
unauthor
bellwether
impasse
tungsten
ambani
beautiful
veerappan
embedded
megapixel
jeddah
xstrata
gutierrez
bour
bio
fnm
gps
kpm
lj
laps
mittal
pard
pumm
renter
sectors
vib
vert
wels
yus
##rel
##cot
##iated
##nop
##hand
##vian
##onare
##oro
##arre
toler
##itan
##stro
##ouf
##idth
##iration
##utri
chest
chiron
##imo
unite
saban
monarch
##abs
##abit
amounts
intensive
lawn
##ictions
stricken
backman
sharks
prevention
tally
medley
##elsen
pressured
makeover
shouldn
evans
lovers
forecasters
speedy
listings
politically
lessons
##ecoming
announcements
discussing
steelmaker
deeply
##perform
distributing
pennant
selig
surprises
pounding
praises
lankan
jewel
alternatives
tendon
corrected
normally
garciap
paving
pinch
lauren
colonial
michelle
gillette
squeeze
mcgrath
grocery
katie
prestigious
pepsico
sponsorship
richardson
obvious
bandwidth
explanation
pivot
plutonium
millennium
disengagement
kpmg
##noputri
2q
2bn
fantas
gav
jess
pes
rouse
rowing
rift
sierra
tuc
tiss
vic
wolves
yum
##ei
##mate
##mcs
##och
##oons
##uf
##poin
##xon
##ori
##alf
##itation
##asch
##isys
stent
staging
##unts
##unting
unlim
spies
leagues
exxon
##emble
seg
##ipher
clay
##abeth
incurs
indeed
recons
peaks
crick
elbar
flurry
airplane
slides
sourav
musical
colony
swung
doj
produces
drilling
guer
belfast
roared
##apper
starters
passport
keynote
restored
145
directed
communic
videos
##intosh
transf
judicial
alleges
massu
##arko
listening
everybody
behalf
210
lesson
volcan
karl
1994
##hanouk
spying
shrimp
flyby
celebrity
griev
inspection
shaun
brandon
sihanouk
tackling
motorsports
blogging
spreads
prevented
teenagers
flags
##haust
ecu
43a
bernabe
spinner
bhopal
destroying
succeeded
triggering
determination
marriott
horizon
bundle
csco
laura
nanometer
incentive
bogus
bahamas
embryonic
dinner
robbie
discrimination
suppliers
grokster
disagre
doughnuts
cayman
hutchison
heathrow
gauge
nottingham
seagate
garciaparra
unlimited
elbaradei
bernabeu
4bn
bart
batch
bath
bother
cure
creek
dorm
fumble
gn
ja
mm
mia
ner
nathan
paus
rico
ti
tunes
tata
wgc
##iat
##gow
##hoo
##mast
##instein
##aria
toe
anfield
##ayev
stam
stellar
rewards
neu
nebr
##raig
deaf
shore
shev
##agan
apache
unac
quakes
exhaust
##emin
##emma
##umman
willie
monty
marijuana
resemb
indec
org
##anta
##antile
outlines
adul
##ometers
script
perm
conting
elusive
flows
attitude
brook
##ango
##erald
topics
underdog
glad
smok
grind
grumman
emi
bags
putt
debris
subd
detection
lawmaker
geico
homeless
homecoming
turbul
transmission
sentences
receivers
wanting
macintosh
qualified
fueling
dominican
cheers
cheered
##bane
captures
artist
browsing
mercantile
benefited
dismal
choosing
poorest
owes
broadcasters
persist
misery
inventor
jacob
achilles
elimination
cleaning
mcdowell
liquor
recognize
exploits
enjoying
deserter
tarn
borland
victorious
shaken
dwind
padraig
sergei
endorsed
chartered
embryos
kahn
evalu
robertson
wsj
sebastien
depleted
epidemic
brisbane
hemisphere
zvonare
zvonareva
collar
dl
erupt
fend
ferry
ivers
kay
kerr
mb
mn
mum
packs
rattled
sons
wazir
yaw
zd
##bold
##group
##hem
##dome
##fth
##few
##200
##inations
##aren
inner
inched
##icles
##ecd
##ader
##adic
##olive
prizes
##asting
bye
fray
fruit
abortion
coinc
brig
noted
##epper
warren
attending
decap
syl
nextwave
10m
impair
confron
fever
salesforce
netware
glen
guess
trailing
explains
windfall
risky
passage
midwest
pci
retailing
keeper
restoring
desperately
geoff
##iko
matching
breakaway
frenchman
donors
denmark
denying
greenberg
completion
richmond
cube
roadmap
appearing
utilities
##getown
christopher
wildcats
probing
eagerly
auditor
archri
resuming
circum
environments
exploring
smartphones
suggestions
vacuum
inspections
booked
missteps
khal
hurts
ringers
dismissal
wrongdo
lifestyle
capsules
randall
ghz
fanning
ousts
sleek
physics
rutgers
citizenship
cultural
beltre
poisoned
concession
fireworks
rhet
downgraded
households
cosmic
thorpe
commodities
ayat
delighted
clusters
##heimer
chamber
comparison
hovered
maximum
lloyds
buttigl
autonomy
clerics
reconstruction
reluctant
thirty
dioxide
bulldogs
ethiopia
tibet
mitchell
motorcycle
intimid
neutral
nebraska
buttiglione
3bn
4q
cant
dive
dens
eind
eruption
erupts
hare
sf
tain
tds
welf
wifi
##rn
##cal
##cro
##iques
##hous
##mitt
##kie
##yes
##asan
##iser
reed
chand
beware
shina
##rible
##orted
heir
heights
heinz
##endered
##arez
##olds
##owners
teacher
phish
##adega
buick
defer
lied
##grade
sukar
capit
##urring
strife
nationally
presses
pointer
batman
steals
sanjay
himal
advancing
billing
losers
franco
144
morocco
loves
voices
voiced
metals
litigation
appliances
employed
240
poach
bowler
colleges
requests
waits
guarded
combines
treatments
automobile
downing
reviewing
complained
nhlpa
celebrations
palmolive
curfew
crazy
optimization
scratch
element
projection
trusted
devastation
narrowed
ratified
ratification
taba
participants
talladega
methane
apologized
flexibility
riots
pierre
puzz
repeatedly
##hoven
bizarre
regret
unconst
incredible
stockpiles
purportedly
healthdaynews
territories
frenzy
revolt
buddhist
pinsent
configur
glasgow
expedition
waziristan
ayatollah
eindhoven
welfare
shinawat
sukarnoputri
aere
benn
bike
dak
dimin
gannon
hes
hog
kro
kend
mere
pest
peng
pitt
uae
wan
wield
zee
##eiro
##sa
##ser
##nc
##gic
##mith
##pots
thabo
##onics
towers
anast
##eco
sticks
reigning
##usp
cher
dear
withhold
leeds
plo
enact
firmer
amit
expires
indication
outrage
covent
##ogp
eliz
lava
phon
##urned
microsofts
slumping
millionaire
##ibles
terrif
dealer
##urray
linda
knowing
takers
operates
nowitz
belgrade
edmon
##prints
sellers
arabs
speakers
legs
timet
motogp
##ersonic
forever
visible
martins
metrop
safeg
##ucker
spray
bowling
opposes
televised
photographer
cheating
italians
1991
hospitalized
thinkpad
appealing
funai
complicated
murdering
melvin
sonics
illust
340
penny
splash
lifetime
animated
girlfriend
disasters
checked
conservatives
dunn
describes
ignore
ignoring
abduction
bosox
fitting
worrying
licensed
feeds
gdt
malls
administrators
terminate
##walt
certific
lieber
heightened
tearing
intrud
squeezed
indoors
eggs
culp
elephant
disgraced
hypersonic
accomplish
hsbc
lahore
imperial
jeopardy
entrance
redeploy
imprisoned
brock
wangari
fraudulent
maiden
contrast
bovina
ecuador
shevchenko
zdnet
unconstitutional
shinawatra
coventry
edmonton
safegu
bai
dazz
goss
istan
jn
kle
lid
loft
mans
muk
mapping
mikh
nerve
ouster
rc
vw
zh
##sburg
##bone
##nett
##gence
##hr
##zi
##pid
##pine
##figer
##erning
##inces
##orous
##rot
##idt
foray
rewr
prnews
shines
newman
##andro
whis
apes
uni
##riers
quinn
spoken
alv
##uma
compiled
##ugu
overst
marino
##ubar
induce
outd
##acho
crashing
notables
manner
flown
minaya
reliable
soap
slice
defra
impending
talented
businessweek
champagne
somewhat
schal
dress
boasts
glaus
smell
##ernic
profitability
spacewal
autumn
steering
##poses
injunction
gerry
singled
anymore
ide
africans
moth
136
farms
farming
taxp
loved
170
severely
embrac
designated
##scale
located
regulate
semin
employer
childhood
clement
outlooks
optic
copernic
premature
inflated
middleweight
discusses
tournaments
toughest
measuring
rogge
refuge
supercomputers
cooperate
rumours
mourners
disastrous
installing
beaches
odys
nomination
rigged
anthem
weightlif
primarily
clarett
roof
liquidation
cambodian
dwight
hijacked
uganda
havoc
arbitr
exceeded
compatri
wolfsburg
hilfiger
leaning
hartford
##115
pepper
merchand
##abyte
postpone
stelco
enthusi
inauguration
hinted
cousin
html
somalia
gravity
satisfaction
adultery
##croft
dakota
anastasia
elizabeth
nowitzki
timetable
culpepper
istanbul
mikhail
prnewswire
1x1
bison
brib
cem
hans
iet
jake
lays
nit
nukes
oecd
pubs
q4
rite
##cord
##list
##pages
##fan
##04
##0115
##xy
##esville
##atis
##atics
inac
##elect
##ecided
##reated
sto
##ige
##illery
##oween
##christ
chenn
prod
shear
whip
une
unarmed
unisys
spart
plague
alh
compu
clamp
##aba
marx
resulting
##uber
contains
##berra
canberra
flip
##eping
coron
airlift
retained
commons
carr
downer
softbank
soup
topic
##aze
assurance
britains
guidel
technological
headline
headache
ifw
costco
bagle
concerning
##rupting
forming
brave
turnout
financier
beth
violate
geographic
homem
directv
16th
sheet
portra
superior
springs
designers
opposite
volumes
balanced
candy
credibility
entit
artillery
diebold
halloween
20030115
stere
netsky
painting
ps2
surfing
surfaced
khat
kidnappings
jefferson
addressing
planetary
narrows
undecided
norton
quitting
ghana
steadily
pharmac
confidential
1980
bhut
examined
predictions
defendants
attractive
nickel
particles
tricky
##illermo
src
roofs
quarterfinal
sophos
advertisements
kilometers
gilchrist
synch
tasks
lieut
accelerated
surpassed
conservationists
kosovo
##onzo
scrambled
scrambling
crippled
herald
dilemma
airliners
fiery
bubble
##ropriate
reception
##1450
quadrup
maneuver
diabet
renteria
tissue
incursion
cricke
rhetoric
odyssey
ietf
chennai
200301151450
bac
cros
eid
fij
ket
locks
mold
mubar
rarely
sask
sizz
tide
##sink
##hole
##li
##kov
##fn
thus
##orian
##enz
##enza
inh
##roads
##asco
reid
reyn
##chi
##child
##tham
beagle
shia
shame
unoff
##ocation
enrn
##ucted
cla
##quit
indig
recount
trent
traction
brisk
blowing
##iley
invade
flushing
helsink
##osex
sof
buchar
slapped
slashing
carling
sharers
salaries
##iseum
softball
workplace
coliseum
genu
glove
guillermo
##onso
telem
bidders
baton
reference
stevens
golds
effic
update5
armored
subway
merely
restra
firef
associate
severance
literal
donations
hotly
likelihood
panic
spammer
##entials
##bren
confirming
obasan
oswalt
credentials
rollout
travels
potent
properly
involves
wentworth
identifying
treasurer
routing
viewed
circulating
settler
tightens
kicking
catches
priorities
madden
mourn
sanders
installation
spectators
multiplex
reinfor
phillips
impressed
contributions
primera
achievement
galactic
aeronaut
lynn
photography
converted
gradual
ridic
altria
ahmad
buckingham
overturned
##laught
moody
nielsen
accelerating
niche
deliberately
mamm
smuggling
gloomy
satisfied
anonymous
showcase
1918
paralympic
archaeologists
torrential
onslaught
warehouse
hormone
wolverines
sullivan
unauthorized
pivotal
fantasy
reconsider
communicator
grievance
iverson
pengu
compuware
khatami
mubarak
enrnq
bucharest
bakar
coo
dor
duck
fet
kon
lama
ment
mack
mend
muss
murray
naming
pess
piz
sod
uz
uconn
vaz
yas
##rates
##eve
##oven
##tive
##jected
##orate
##arn
inade
##icity
##idal
##erse
##ravel
##unken
prud
shaking
newf
newcom
##riy
##empl
seiz
hail
marqu
reprieve
##ansk
quotes
outdo
##onged
trash
noticed
sunw
retreated
slot
slap
pref
prey
coleman
##ahee
swatch
swings
caller
drunken
guided
smb
travis
payout
olympia
explicit
provinces
##ennial
stein
protester
holtz
waltham
vera
verify
netegr
avian
francona
morph
basel
##shed
humili
equestrian
touches
organize
managerial
grapp
skating
celest
##nez
germans
consideration
purposes
emerges
faction
furcal
envoys
somali
expressing
jumper
rainy
surviving
santos
criticised
criticizes
witnessed
trafficking
garage
connectivity
federated
ringing
excitement
commonwe
smithfield
constant
sandy
kidde
felony
registry
jackpot
azn
azeri
sensor
venue
floating
tentatively
influenza
virtualization
megson
generating
examining
clinches
contribution
admission
reflects
participation
ashcroft
peruvian
enabling
dusty
mallor
tumbles
consolidate
lagos
washed
taser
deportation
plugged
recommendation
diversified
mohamed
substantially
yugansk
toppled
rebuilding
skeptical
conversion
preferred
##charge
therap
bettis
bettman
ingred
postpones
mcgahee
guru
airstrike
jpmorgan
catastrophe
fingers
staples
objects
rebellion
unearthed
stamford
wrongdoing
himalayan
shearer
marxist
guidelines
bhutto
helsinki
obasanjo
pessim
inadequ
netegrity
awe
bacter
bishop
cache
dire
diana
famed
gi
gand
hood
hatch
kk
kiss
ln
lak
mish
nd
oq
pont
pave
rab
t5
wob
wally
##rics
##range
##game
##mie
##drop
##pill
##puted
##van
##vant
##fish
##onet
touting
##icia
ofcom
##isons
##omin
##ente
##urst
##olk
##aman
##osur
proxy
newton
spade
##emed
usher
heal
##iferation
expire
repurch
intrig
outing
groin
peek
scans
200m
invented
##asses
laos
flames
##derstadt
stride
slog
defying
endless
carb
##angled
partially
downpl
parks
techniques
trips
irrit
boge
justine
smbs
barney
lineman
operated
latter
extensive
editors
filderstadt
brees
everett
mercy
121
urugu
formation
idf
footballer
myers
martnez
broadly
185
florid
cardinal
snub
speeding
valve
balls
organic
respected
informal
shuttles
domination
capturing
argos
mortars
couch
pickup
bellamy
##marks
automation
bloodshed
circle
purchasing
describe
##borg
inspire
integrity
explode
siber
easyjet
answ
motorsport
handhelds
penet
databases
summoned
tenth
diouf
philly
emails
heaven
minded
ultras
routs
mahal
conclude
fashioned
trimmed
ordeal
bolstering
shelters
deportivo
adjusted
disappeared
intrusion
jolted
undisputed
pigs
sneak
leonid
procure
catalog
kiwis
watson
obstacle
adventure
croatia
demolition
gsm
scattered
indictment
reaffirmed
caterpill
biometric
henrik
prague
apiece
anchor
contingent
subdued
circumst
tainted
vazquez
commonwealth
mallorca
caterpillar
5th
aux
bits
bung
baff
cb
cree
cave
dart
dashed
fas
fant
gore
hut
hicks
j2
limb
moo
mba
mask
pup
pipp
rider
sits
vowing
wbc
zig
##rations
##gro
##hz
##zes
##kus
##try
##yard
thrust
##esy
##inges
##terror
stoked
##uttering
chol
beam
quell
spoil
##embers
alonzo
offences
fres
clam
clothes
overcoming
twx
twicken
##icker
braces
blad
##achel
##ogle
contamin
presents
minors
earning
##anked
relig
endorse
##ussion
soul
parker
pregn
medication
champs
insects
guides
baron
barber
barnes
barca
removal
lining
bidder
193
belo
edt
streaming
nasd
holdout
leaderboard
howe
##alyst
patern
advised
legally
##ueling
publicity
mcne
harbor
diva
##shot
broadcom
void
departments
sniff
outsp
proposing
erdog
freely
cope
radioactive
##usegun
screening
imported
tripoli
biological
fried
widening
resumption
positioning
patriot
paint
garner
curtain
skyroc
favorites
accuser
liberia
sammy
bangladeshi
reduces
attendance
absol
bleak
tendered
olusegun
extremist
collaborate
bonuses
darkness
sticking
voluntarily
graduate
douglas
shelter
wealthy
akron
sergeant
cafe
reshuffle
indoor
microprocessors
kirkuk
populations
bromwich
kostas
vincent
macedonia
legitimate
mystics
cinema
carmelo
rosenborg
multicore
ricardo
jnj
merchandise
cemex
reynolds
spadea
twickenham
erdogan
ahold
bast
cass
fib
fior
gree
hoy
jag
lb
mul
mardy
porter
rage
rational
rale
sage
sacks
saks
tin
vit
vcr
zomb
##rt
##books
##watch
##500
##orr
##enous
##rouj
anal
reef
##olve
##olitan
neil
comed
##unately
##ima
proven
prized
sham
shores
afx
spill
##istry
##ocated
plough
usb
##ellers
aces
hab
##qual
reck
covers
trull
bras
noise
scal
perks
iraqs
##esterol
allied
background
milton
consistent
##ibilities
terps
reductions
assa
assistan
##aires
somewhere
##athina
bots
economics
guests
smarter
remn
lincol
knocks
190
ibook
concussion
passports
ruler
handic
charts
brag
brains
aval
facilit
publication
homosex
wallets
jews
metre
barring
revital
revises
organizing
panathina
stormy
performing
greenback
doubling
negl
silva
sharper
connor
500m
traveled
youngest
weakening
prediction
chipsets
involve
probation
shrink
sanction
##rusted
contentguard
intelligent
cracking
cattle
feroc
excuse
deploying
logistics
380
honors
samuel
okla
430
##ships
sensors
sensational
difficulties
reactor
assassinate
reinst
reinforce
magnetic
oliver
router
chaotic
opinions
sabote
laurent
scrapped
pockets
typically
julius
gilber
topple
implications
excessive
lavish
accomplished
roberts
fdi
##piece
airliner
##brook
transistor
albanian
recruiting
homestead
jitters
jermaine
##points
guerrouj
decapitated
capitol
bennett
martinsville
metropolitan
schalke
lieuten
unofficial
genuine
inadequate
procurement
pippen
cholesterol
raleigh
assistants
lincoln
bic
dull
dont
ethern
fug
fade
fung
fitness
gears
g20
jv
lamb
lope
liability
miz
maps
oao
pors
roles
ridge
rocco
sober
tb
till
##center
##bable
##aurs
##awn
##low
##matory
##vi
##fax
##22
##eria
toled
##eled
##elve
##oms
##rees
stung
reilly
neill
chants
##raged
##unia
prost
shining
leaf
##ocal
##emia
alz
enfor
upt
clive
opel
residence
recy
scales
crim
elabor
laure
##odo
corn
corrupt
retief
slated
defy
defect
defied
brok
downed
imposing
daylight
feb
underc
##iov
boil
boats
glow
gloria
smiling
nationalist
pointers
suspending
leftwich
ideal
westfield
149
##enched
##parc
morale
##ovs
philos
harare
transc
judging
sheep
meta
distant
masses
forecasting
denounced
skel
##weights
larsson
humanity
indonesians
manufactured
##ickson
proper
propose
propulsion
hyun
pirate
mercedes
biologists
worthy
projections
vacant
broadcasts
reneg
noble
penney
prospective
greensboro
thriller
viab
stuns
epa
epis
kmrt
mistaken
venerable
cnnfn
hawk
vaccines
##iasm
abandoning
bulgar
languages
fergie
oceans
tablo
hampton
presentation
hoax
molec
wheels
abdul
erik
loyalty
exercised
scoop
memorable
gilbert
wishes
derailed
gilles
reassure
consultant
nader
antarct
dinosaurs
brewing
chambers
implantable
corpses
enthusiasm
quantum
paso
namib
immunity
obstruction
mogul
misconduct
intervene
headscarves
horses
welsh
literally
laksh
fantastic
skyrocket
trulli
saboteurs
ethernet
lopez
toledo
166
ail
bows
cue
cock
dumps
hoo
icy
kern
lip
lend
lover
lark
nw
nud
ole
pure
riley
sid
sarko
ubi
xs
yhoo
zen
zemin
##rus
##gones
##law
##kind
##wall
##xx
##aragu
##eness
inher
##iciary
staunch
reins
##olia
##amount
##illo
chass
##ested
shade
##agbo
newer
unified
spor
plain
alcat
compare
compelling
enorm
acer
clog
##anyon
outwe
cogn
finest
##ishes
##acht
peres
disgu
##amps
##odes
flatt
cornell
relating
##itedown
polio
supers
slack
defens
defined
libel
carson
whenever
suic
109
parking
muscles
impover
insight
justices
signature
raft
courtesy
explained
steer
editing
rochester
rojo
trader
url
memos
angl
writedown
specul
sole
portr
revision
valid
improbable
georgetown
gunpoint
surveys
woodgate
specialists
figured
deliveries
montana
scream
265
probable
boxer
restricted
garnett
renews
sixt
feeley
legislature
logging
fairly
adopting
harmful
textiles
536
sensation
floated
swisscom
##htar
unfort
enhances
riggs
demonstrations
grabbing
deadlocked
sponsor
enjoys
stalls
longhorns
grenades
swimmer
nicaragu
sacred
telescopes
froogle
serbian
horrif
apologizes
photographers
administrative
##paid
dalai
improperly
blaze
suspicions
navigation
highlighted
transformation
dictators
gbagbo
pdf
fractured
neighbouring
conversation
suburb
procedures
overwhelmingly
intercepted
refunds
obstacles
revelations
yemeni
mercenaries
simulator
yorke
leverkus
predecessor
unaccept
kroger
uzbek
kkd
floridians
porsche
antarctica
sarkozy
chassis
alcatel
outweigh
impoverished
3b
ale
bil
doses
fid
fied
gab
hinder
jiri
lans
lacks
lords
mash
macy
nh
nou
p5
pub
purn
sigh
##sy
##bu
##bot
##nom
##hu
##hon
##hurst
##lp
##mor
##uer
##diman
##page
##person
##pike
##tra
##inx
inks
##roe
##ecure
##entech
stagn
stagger
forged
rear
##adena
##irect
##utter
chuck
##imm
prayer
shelf
shirts
unravel
sper
spilled
exile
##emption
placing
alam
alpine
##upp
##ourt
monza
fret
clip
clone
clough
overth
oprah
inciting
expired
marry
marse
marbury
##quest
##antic
##keters
adware
advers
adequ
##outing
blades
##ails
disl
elan
##assault
launder
flowing
flint
attrib
slick
backpack
suv
terdiman
norwich
genentech
infonet
swall
technic
releg
undert
justify
barriers
joel
##orne
raj
knife
##ronic
execute
refr
edgar
nascent
putnam
129
##racted
anybody
turnpike
goodwill
digging
realize
drav
marty
##aterina
emph
portis
distur
wellington
snatched
##flight
mosley
organizer
experiences
camcord
louise
dispatch
blueprint
condol
manufacture
dominion
jungle
captives
italia
waterford
grounded
combining
##gae
boycot
santini
commercials
streaking
##zza
creators
booking
nlcs
catalyst
tiebreaking
legislators
epson
ghaz
jackets
socialist
rebounding
cybercr
1986
multipl
demonstrate
photoshop
##ascular
reversal
axa
ceremon
cruises
feeding
intensity
ellis
unharmed
kuwaiti
rhode
stirs
permanently
mathem
discipline
michelin
lobbying
tremors
intentions
matsui
tumor
populous
context
banco
chronic
anonymity
lloyd
pasadena
congratul
wheaton
enlarg
cereal
filipino
cotton
microchip
sacrifice
proclaimed
kendall
mothers
entitled
diabetes
circumstances
outspoken
greeks
remnants
lakshmi
leverkusen
unacceptable
fiedler
aided
boll
derr
docked
ek
g7
giber
hank
jub
kin
kins
kbr
katerina
lur
mtv
punt
rous
rages
rips
rolen
sis
wre
yale
##iour
##iere
##girl
##aq
##mic
##pective
##tc
##function
##yip
##erre
##inity
##eday
##itre
##itek
##ecenter
##etz
##etcher
chi
atlas
bext
prone
##uling
conj
newmont
##opping
exits
alike
ages
upscale
clout
amman
expelled
marad
intels
##geoning
indemn
orton
arra
peirs
scuffle
apprent
contempl
discontin
invite
##hern
airing
decent
anne
reth
default
backe
commem
secures
previews
seasonal
genius
infam
demise
schm
triathlon
ministerial
tragic
lind
protects
bagg
windies
kewell
fightback
actual
restated
communicate
moral
morrison
bottle
directions
loos
##uctive
careful
campaigners
robbed
greatly
authorized
clearance
graves
skate
cauc
eritre
malaria
tomb
sooner
gainesville
oblig
burgeoning
util
artisan
convictions
gamec
monteneg
rode
reviewed
bloodiest
ranges
descended
flooded
fleeing
suggestion
vacancy
owed
curry
integrates
embassies
casts
miserable
hurry
commitments
shocking
swede
kyodo
interviewed
addressed
random
drafted
regularly
holyfield
holland
chechens
nomar
substitute
mclaren
attracting
varitek
deserves
implementing
tayyip
contacted
detainee
boris
victoria
buzzer
emotion
overwhelmed
compatibility
surrendered
jenin
proliferation
sleeping
ponders
midsession
premiums
egg
bumpy
umass
nominated
bridges
dismantle
jeopard
fierc
unseeded
mentioned
ogden
stubborn
poultry
recreational
composite
literature
upholds
radiosh
conscious
exclusively
##stroke
archrival
taxpayers
arbitrator
prudential
bogey
auxerre
bladecenter
mcnealy
dravid
bextra
peirsol
montenegro
1q
bib
dose
fax
fasc
hos
hag
mant
mock
nk
rats
sard
sarg
sorts
tut
tiff
tighter
vessel
wipe
xml
##cke
##bled
##brew
##hou
##oh
##des
##don
##zny
##kline
##vale
##tronic
##64
##erity
inz
inactive
##ingo
##stars
##ilia
##ele
##isd
##ecked
stamped
chinas
asc
beverage
##osmith
pron
##aget
uneas
unilateral
spraw
leander
excel
exempt
##kshire
seism
usd
alg
overpower
ops
intros
serial
twink
outage
grozny
fincke
brune
bracing
peril
applying
invites
mann
##icester
##assee
tepid
accuse
airplanes
soaked
retali
backlash
americas
##ughters
terrible
rede
##aha
infection
inflam
swoop
dover
engulf
insist
smol
getty
halting
##uchi
stealth
roaring
addiction
singing
aragones
legg
##liners
scoreless
morg
moroc
institution
veget
geek
##ikos
hardest
rockstar
myth
martian
menu
looph
investigates
authors
cardiov
mosques
bowed
premiere
balk
magna
replay
conditional
personality
1993
berkshire
hyatt
clinic
someday
golfers
bellhorn
400m
ranch
destination
##egren
sterling
briefing
sometime
ventures
##nau
##boards
favorable
daughters
feelings
##cheduled
subsidiaries
adopts
besides
geared
hdtv
cameroon
graphic
hassel
curtis
olive
repairs
965
tankers
kenny
orbiter
##rock
esa
scrapping
casualty
angered
albion
stirring
##aliya
renown
emotions
tasman
suzuka
tipping
warrior
shrugs
dampen
manipulation
txn
subpoenaed
sacking
lahoud
interceptions
aggrav
pepsi
depression
unnamed
brunell
tatiana
pattern
habitat
reconc
meltdown
tempe
antidepressants
mcleish
chanting
wendy
kilometres
kristen
ljub
nerves
tarnished
##quitous
celestial
ultrasparc
fresno
analog
alzheimer
bulgaria
larkin
ubiquitous
marseille
gibernau
maradona
##osmithkline
brunei
cardiovascular
5b
aqu
ahern
bore
ces
cio
canyon
deng
eug
giz
gerald
hint
ion
jeb
klins
lull
lighter
lesl
mim
mear
om
pamp
pumped
rend
rica
righth
racked
rmc
sided
tn
tug
tav
vid
##eff
##ski
##call
##iety
##how
##maz
##uite
##kas
##kos
##fly
##wi
##wind
##6m
##3m
##eror
##orig
##orus
##orrent
##itis
##itomo
##roen
stim
##aca
##igo
##rax
##imedia
isp
shin
shaping
spite
leuk
leiter
leaks
leicester
exagger
##iani
byron
offs
acted
amir
interp
aborig
twe
winfs
indications
ard
brighter
blink
blunt
sci
scots
##oga
contests
presum
invesco
laf
##esterners
flour
flav
flesh
##epp
warmer
deck
sloppy
hadn
europes
10g
redes
prefect
swamped
schwart
##athy
gram
webc
webster
bombay
batters
herat
foothold
midrange
seniors
needing
scorer
##comes
shoulders
geforce
wallet
customs
harrah
basayev
schoolgirl
165
module
##redo
sumitomo
cardiac
1000
collections
authorize
boardroom
locals
aiding
californians
foodland
erickson
##bao
freesc
##ettes
bribery
##onauts
shutdown
appearances
utter
cheat
karmaz
propag
limiting
spotlights
badgers
heavyweights
sweat
treating
citroen
youngsters
biology
romp
happening
deepens
chooses
protestant
laying
misled
exposure
faults
semiconductors
thrashing
ladies
lucas
modeling
pharmacy
##escu
roberto
reactions
migrants
anthrax
wisdom
substances
aerial
organisers
tankan
ashore
concludes
tallest
ramsey
proceeds
dissidents
dragging
photographs
fenerb
converged
crushes
princeton
compromised
scanning
deported
maverick
plummer
establishing
establishment
embarrassment
##battle
mohammed
refinery
dynamics
sarah
rewarded
staley
psychological
anxiety
nadal
rbis
belonging
counterfeiting
degrees
skeptics
scramble
hotspots
procter
scholar
stockpile
##abytes
paralympics
airstrikes
accurate
transistors
vpn
counsel
waving
pearl
wagner
crocod
slaughter
vizquel
sovereignty
glaxosmithkline
pardon
phishers
synchron
woburn
panathinaikos
elaborate
dictatorship
sperm
klinsmann
leslie
schwartz
freescale
karmazin
9th
950
cfl
fitz
fizz
jc
jard
jong
kor
kap
mired
nanny
nudge
q2
sect
sip
sinking
tant
tame
westerners
xer
##eur
##sb
##boston
##gard
##zhn
##fits
thum
##onia
##orox
##store
stave
forfe
##acious
##amam
chitt
##unce
deion
deemed
##agong
univ
unsp
##rix
##ainson
exod
plots
seam
seizes
alk
alerts
alicia
algae
agony
clob
cliff
claud
clorox
marvin
resil
abn
twelve
##kebox
grouse
adri
nog
perc
notable
disqual
##assed
laug
flared
phr
phnom
ears
micron
soot
poles
defiance
ameris
##ibank
newslet
surcharge
parcel
paramount
assume
colors
delray
sway
swainson
schem
glut
economist
guest
guzman
grit
raul
courtney
homeowners
operational
depri
192
susan
extent
mobility
streams
debacle
##lete
subse
approving
netted
aspir
solic
141
dirt
betrusted
crews
realm
realized
hardline
booster
nova
transpar
judo
ceos
snapping
##lessly
bowa
baylor
gunned
gunbattle
jukebox
clinics
arabiya
discovering
jails
citibank
tightly
descend
rogue
nonpro
sweeps
hacked
perspective
subsidy
386
conflicting
thrilled
fairfax
rookies
epstein
cocoa
penh
beset
venues
granting
plunging
chemistry
babe
symbolic
predictable
recognized
brighton
mccaw
favourites
hamper
strongholds
shadows
fleetboston
gradually
terminal
tumbling
altitude
julian
highlighting
disciplined
tortured
levi
##onymous
consultants
agricultural
stinging
jarno
unanimous
koskie
specifications
worsening
crippling
tumult
reservations
merchants
territorial
diagnosed
irregularities
looting
ctia
motivated
sunnyvale
overseeing
umpire
mukesh
indigenous
softer
efficiency
mussina
newfound
uruguay
bragging
laureate
brokered
undercut
apprentice
infamous
radioshack
uneasy
renowned
eugene
chittagong
exodus
8bn
bitt
cops
dign
danc
duff
fits
gis
gle
gag
gust
hast
hap
jes
kw
kier
nast
pork
pund
rbc
rudi
tc
tuss
tones
uala
vist
winger
zap
##rary
##eins
##cester
##green
##hawks
##matic
##uished
##uzz
##pri
##poen
##kh
##kowski
##fia
##xia
##73
##esley
##onna
##anek
##arity
##arians
##inging
##itively
##icz
##icic
##icom
##elon
##ecks
forty
##amax
##check
chill
##raid
##imi
bever
beard
##ceived
savers
spider
##istans
##iane
sew
agon
##ardi
claw
##uda
##ifications
inclusion
gta
ammun
reply
##uba
outperform
trus
noah
scared
notified
busiest
fletcher
accession
moyes
annoy
salem
makesh
mafia
workstation
##ahce
russell
australias
guang
joke
remed
remembers
##onson
linz
youzhn
##erty
spaceflight
stefan
155
subpoen
wwf
freezing
midland
keyhole
turnover
darling
populated
martyn
transmet
shea
carefully
equities
##hamoni
ivorian
simms
skir
germain
expectation
stata
malware
freight
gunships
accountant
juniper
propel
bowlers
cpu
monti
triples
probed
looksmart
separated
deepening
destiny
planted
kashmiri
encry
sihamoni
tribes
tributes
royalty
cooler
tszy
scoreboard
fanfare
speeches
advanta
adsense
colder
punished
cyberonics
plunges
1988
freder
phillip
contributing
magnific
mountainous
succeeds
attracted
clarify
##guards
organisations
participating
compensate
discounted
nicot
conspiring
warsaw
beefs
architectures
intensify
intensifies
stretches
adjour
wonderful
cautioned
lagging
guarantees
montgomery
gigabit
greeting
principal
observations
paradise
convened
sluman
neighbours
hijackers
smoothly
rsa
hotspur
ancestors
##obbled
ingram
chronicle
stabilize
nordic
drifted
poulter
##logic
excluding
wiped
fishermen
nutrition
lisa
a350
##nefteg
bounces
plummeted
supremacy
excellent
maddux
##5400
volcanic
dwindling
configuration
rewrite
seminoles
homemade
crosby
##brenner
yugansknefteg
bacteria
contaminated
religion
zombie
ferocious
tabloid
enormous
laundering
smoltz
moroccan
fenerbahce
clobber
percival
bittorrent
ualaq
##uzzi
makeshift
youzhny
subpoenas
transmeta
ci
ced
cah
gator
hoon
jock
kitch
koval
lured
lashes
oas
pab
panda
pumping
q1
ratch
rides
tong
wart
wise
woe
wasted
##hist
##auc
##million
##making
##vard
##tic
##f6
##inter
##anor
##anova
##atum
##alt
##aliation
anhe
anbar
##ilis
##asp
##asive
##oup
onboard
##otr
##lements
devers
shamil
##andered
unim
afraid
##oca
##ocus
alarming
enig
wasser
healing
weir
fron
##udes
##endous
resigning
rept
orph
recept
tril
scler
firstcall
##achim
##roscopic
disks
manpower
warhead
warfare
retaliation
endured
endurance
##grily
carroll
mayfield
partisan
sundays
redef
prehist
countdown
assert
##ahu
##ahan
regiment
runaway
infert
swarms
saturdays
supporter
drc
signalled
joachim
grud
grands
webb
calories
belmont
holiest
howell
armitage
studied
##bev
pakistanis
globally
westbrook
devoted
actress
keywords
darlington
yanuk
taxing
builders
flores
embro
arafats
battlefield
touching
arresting
respects
bowled
messina
clever
camacho
considerable
##ysis
utes
woody
nyc
karol
specialty
affects
surveyed
hunts
hunted
weaken
hugely
guardian
lightweight
bias
biomed
biogen
bodyguards
effectiveness
bullets
##uffles
acceptable
grief
diplomacy
telephones
##unte
bolsters
##mune
namesake
benign
extrav
mourns
lacking
drog
atoms
switched
shifted
ecst
##outhi
salvaged
spiral
taught
zimbabwean
floors
unfold
wondered
dyn
referred
dialysis
dogged
maintaining
ratify
illini
nickn
frustrating
exploited
sparkling
expertise
klm
exhibit
spiritual
photographic
bundled
converting
survivor
comfortably
stirred
coordinated
barbara
extradited
swiftly
prolific
refineries
mediators
teaching
hideout
mudsl
##hasa
toppling
faithful
stamps
lamy
scenario
barghouthi
disgrace
warlords
entrepreneurs
nominees
deteriorating
fdx
supplied
resurgent
monkeys
brushed
patterns
nedbank
##manship
stabbed
evaluating
safeguard
spartans
fiji
kettle
claude
steinbrenner
pregnant
alamos
overthrow
cybercrime
multiplayer
intelsat
ljubicic
sectarian
claudio
newsletter
schemes
subsequ
ammunition
pablo
sclerosis
biomedical
7th
bbi
colog
dos
fog
fusion
gucci
heck
hanson
hinges
jel
kolk
lens
linger
nun
pie
pens
tier
vc
vint
wen
wig
wore
zoom
##build
##nik
##hall
##lech
##most
##zar
##pies
##tran
theories
##arts
##araval
##enon
inapp
##itar
##etica
##omon
##entin
stint
stumps
##otion
##uties
chin
asaraval
isa
sho
##agraph
##earing
affl
exiled
sevens
hey
fran
##iei
amph
interrog
aber
indias
arbor
##onds
adb
brigh
blake
blessing
perpet
cruel
disband
elin
flop
tuts
accomm
##tones
strang
##urns
supern
retrial
defuse
meal
backward
openworld
##xture
##ibb
premin
norman
##azed
assignment
##ahassee
tales
mediation
medtronic
infant
swir
schering
glorious
smack
smash
trailed
telef
strikers
thrott
deputies
finalists
olympians
provisions
concord
footing
movements
billed
anytime
solana
dirk
lowell
pricey
radicals
videog
ipass
customized
breakdown
##she
judiciary
sentencing
raceway
mailing
reviving
energ
treason
millar
considerably
shutting
colleague
piled
roadbl
articles
specially
propon
tracked
##anean
##ricts
cpi
260
totally
circles
criticize
netsuite
chelsfield
oakville
disappoints
tempered
welcoming
3000
daiei
nobr
khin
royalties
villar
dismissing
tsb
displayed
origins
upside
petrova
besie
bottles
venetica
springfield
hubs
promotional
arthroscopic
mirr
mirror
generous
examination
buffett
kimber
axim
mandra
reflected
hoops
observer
1973
tallahassee
tuning
balloting
implemented
gambro
loyalists
evacuations
unusually
gaud
shelved
nagging
tactic
downgrades
transformed
philipkos
grossman
distributors
stalem
endorsement
reopened
undergoes
belonged
bahrain
geminid
lithuan
hispanic
ultimatum
dupont
incredibles
dismantling
nordegren
omnimedia
macedonian
concentrate
rehabil
existence
historical
tube
underscoring
conquer
arrangements
parachute
parachutes
reelection
fifty
spoofing
alderson
meadow
undermined
queensland
preserved
jewelry
paused
smokers
##houses
lofty
compatriot
pharmacies
mammoth
pizza
mishap
repurchase
limbo
bicycle
##ovsky
episode
xserve
sporadic
sisler
inzamam
prefecture
propaganda
xerox
thumbs
nicotine
yuganskneftegaz
kitchen
anheuser
fronts
prehistoric
drogba
kolkata
asaravala
accommod
preminet
philipkoski
2m
azz
auctions
bowing
cto
daly
diction
eleg
fia
hano
jor
mri
mens
nhs
ou
ogo
pic
pits
rue
sak
sul
ub
uribe
vel
vangu
wander
yu
yam
##rama
##bie
##bred
##gold
##hid
##len
##lop
##oaded
##uish
##uven
##wo
##wana
##yane
##89
##qi
##58
thread
##inia
##inational
theat
##enberg
tooth
##iterr
##itiveness
##still
##storm
##roys
angrily
##elle
##isa
##ido
stumbling
ching
chunk
##thy
##throp
##estrial
atari
deer
shocks
shoa
##ulk
##esset
##rio
saud
quiz
query
afar
spit
spun
sparta
leverage
##ainen
exists
##emics
##emoth
##oured
offenses
worn
##000
weird
mong
monument
clips
haz
haq
overcomes
##gee
##ansa
outline
recession
recovers
cram
crises
##ogy
flower
allan
sunk
lasted
dece
softening
surely
paragraph
redwood
##ahy
mediterr
dressing
insuff
feathers
underest
irving
pale
smiles
trails
headlined
webber
knuck
knesset
##eeks
rebu
olympian
calf
##ennas
editions
ante
immers
filings
filtering
winding
founding
##hdi
##leton
verbal
programmer
urg
specter
brakes
aspects
solving
gooden
crept
motive
arrays
##player
emperor
novar
hamburg
loa
moder
disting
distances
capitalists
embr
collecting
##flow
##holder
##peed
behemoth
stoppage
williamson
macc
macau
erad
qualification
neglig
freel
classes
optus
arsen
multan
multinational
juve
juice
obl
credited
nyunt
birdied
mercosur
courage
fiasco
rodney
##forth
congressman
overtake
separation
destroys
avoids
acceptance
sendo
noneth
pledging
creature
creatures
daunte
mushroom
vanished
uncle
benazir
330
charlest
capacities
paperwork
complaining
educational
environmentalist
wmd
mirage
ratifies
ruins
pretax
hampered
lufth
swimmers
collaborating
columnists
yielded
csfb
frequently
fleetcenter
slumps
buzzing
dwyane
sagging
bailey
collapses
necessarily
disappearance
cosmetic
colonel
pouring
behaviour
rentals
sergey
elder
downturn
bursts
nablus
thwarted
fraction
simultaneous
culmin
skeptic
uniforms
bancorp
nursing
dugout
gurk
sustainable
nixon
stifling
whistlebl
skiing
overheat
overlooking
syndrome
thornton
carnival
fratello
drastic
inexper
pesky
##iatric
density
seizure
humiliating
giul
gandhi
hutu
fiorina
habits
homosexual
fugitive
crimson
namibia
kernel
uzbekistan
flintoff
emphatic
jubil
schmidt
twinkies
righthander
tussle
trusecure
tszyu
cologne
amphib
brigham
stalemate
hanoi
jorge
vanguard
shoaib
saudis
mediterranean
insufficient
nonetheless
lufthansa
8th
bare
bros
bands
ceme
dia
fy
fades
fills
faded
hich
ire
iam
lm
lec
lore
lash
mt
naked
rower
rused
raging
sj
sic
sig
sial
vhs
zach
##rack
##rise
##hafi
##pany
##ference
##010
##xi
##99
##inely
##esome
##atter
##alay
##alid
toil
tours
##itate
##roduc
##ayette
##ouch
##isal
stumble
##acon
reeb
##irms
##olics
##amis
##igata
##otes
nem
neur
chorus
##estation
comic
proport
isle
withstand
##aga
congest
uncom
quentin
seh
alou
altered
offens
upped
climax
opts
resurr
intend
interact
##outimi
trace
tressel
brend
brick
blist
perennial
contend
disrupting
teeth
canucks
##hertz
##issa
struct
decept
killers
slate
sloven
defoe
backdrop
carmakers
consent
parma
assail
meddling
swarm
insiders
statehood
irans
neared
smog
fallon
headaches
manages
depending
explaining
steered
edu
edgb
antib
antennas
holed
imbal
bagwell
kezman
armor
chipper
merri
sportsview
freeing
##eban
charm
wrath
##liner
goodyear
financed
##media
competitiveness
evolved
harness
133
packaging
breakfast
256
modem
financially
wellpoint
equals
chicoutimi
##itte
applies
##keys
snack
valder
balloon
respective
##alez
macs
macworld
messier
##ipple
##etti
rejuven
janet
accounted
negotiated
##burst
bowls
hyped
policymakers
gamma
machin
predators
spokesperson
petter
sexson
kingpin
overtaken
henkel
ranieri
deepen
briefed
debuted
##health
patriarch
koh
gripped
copying
welch
abuzz
branding
dani
significance
persons
sonoma
airborne
khmer
ferenc
hurled
ringtones
liberals
troubling
venezuelans
blogger
allegiance
jackie
pipe
taunts
partnerships
punter
burnett
unsure
425
##monds
instantly
spectator
jonny
rapids
describing
mountaineers
defenders
gallacher
mandelson
astronomy
sternum
ruined
cancellation
exploiting
postponement
transferred
eclips
tuned
dragon
volunteer
swinging
7100
awful
awesome
mulling
cdma
supposedly
kazmir
certification
accompany
coordinate
fuelled
authenticity
dynamo
niigata
unleashes
ponder
indefinite
meaningful
surpassing
worsened
aggreg
hazardous
assumed
##continental
legitim
thriving
codes
recruited
hindu
travelling
mercenary
bentley
kasuri
rebuffed
distraction
lodged
understood
rifles
echoed
algeria
butterfly
8217
nanotechnology
vicente
turbulent
dazzling
yasir
##terrorism
botswana
skeleton
nicaragua
##builder
kinshasa
baggage
tiffany
crocodile
forfeit
laughing
tongue
embroiled
proponents
villarreal
kimberly
giuliani
rusedski
reebok
edgbaston
bip
bind
bites
cv
cian
cmcs
dd
dope
eup
fist
gid
graft
hq
ig
jug
jasch
lund
lops
lula
mell
mct
mik
mesh
nip
nxt
pok
pumps
ss
tink
ud
vm
vars
ye
zo
##cope
##ais
##oks
##uy
##uites
##pit
##put
##kot
##kick
##vision
##fg
##orch
##orated
##arion
inbox
anarch
##terra
##ecified
andriy
stard
stenson
##amation
##uttle
neville
##usa
##usic
chop
chilly
churned
##thur
##esta
##unu
##unate
atm
##imon
##immune
##osys
apoll
unab
##essors
##rip
afl
spared
spinal
##istical
##ocre
excer
exotic
seo
worship
heid
##ipeg
framing
acid
cloned
overcharg
incorr
amat
marie
intuit
interpr
intercontinental
abram
coy
peuge
scraps
##mph
perp
perception
butch
notch
invaded
canal
cores
relaunch
airtran
##asonic
whoever
##gression
suvs
topix
seasonally
workout
infecting
delio
swath
cours
somehow
##balls
underlined
signatures
##ultan
raik
##oko
olympique
referring
centres
costing
starring
stockholders
consuming
126
walgreen
beatles
programmes
darwin
standstill
violates
instability
geiber
strait
mcm
mccar
harbh
##afa
emptive
##uki
faroo
farther
farina
moderately
distress
criteria
departing
##mington
clearwire
denounc
semp
simmer
skg
poe
poet
panasonic
camden
malfunction
classmates
richter
accessible
activate
##oids
inflict
entice
rollins
sufficient
berk
##ajan
squarely
practical
powder
christians
wildly
##arma
rodgers
buddy
budgets
dreamed
archiving
mature
criticizing
planting
gmt
didnt
##untled
hatred
castle
wrapping
danforth
persia
blowout
certainty
andrews
vanunu
benj
illicit
tsv
logo
throng
thrash
thrashed
pairing
salvo
lottery
installations
wilmington
attendees
cybertrust
initiated
commandos
arthur
stansted
outsource
generations
abandons
axed
mandatory
crypt
pioneers
precision
tapes
hoop
immort
removes
motherboard
1972
cartoon
regardless
bertuzzi
adriano
tailored
steamy
terminated
harvest
wholesal
havas
renov
synonymous
accompan
diversity
foley
masri
guardsmen
mediocre
1960s
overshadow
piero
unpro
levy
bambino
convenience
illnesses
hooked
tedford
disgruntled
fernandez
youths
bulletins
cooking
heralded
glacier
sgt
batsman
scarves
census
incorporated
relaxed
yangon
uprooted
winnipeg
lauder
scourge
phenomenon
gonzalez
rifle
meadows
##konen
pilgrims
bothered
brooklyn
intimidation
waning
wielding
certificates
klein
rcmp
embraces
bribes
cricketers
outdoor
pluggedin
therapy
answered
recycling
ghazi
hasselb
lafayette
unspecified
noguchi
phrase
amerisuites
sewage
wasserstein
supernova
dictionary
cemetery
hicham
sehwag
valderrama
cmcsa
jaschan
mcteer
nxtl
vmware
apollo
incorrect
peugeot
raikkonen
harbhajan
6th
bax
cush
cott
crist
cbi
dt
eco
ejected
fey
fiance
fancy
gaston
hust
harg
jd
jia
kv
mous
npr
pasc
raz
rato
tilt
tapping
tiki
vand
vary
vector
wont
yom
##rid
##eus
##bound
##bee
##garian
##lt
##lets
##uiver
##uably
##kia
##kens
##via
##8m
##95
##70
##75
##35400
##arc
##aran
ineff
##alie
##strom
##ilak
##idlp
##id010
##urge
##urally
##urances
rekind
nemes
##oway
##chem
chim
##theon
##osition
prad
##agos
thats
unher
unpaid
##essy
sauber
##opular
spear
spins
spends
##alless
alarmed
##umat
##orea
##ustomed
##ughn
##ifa
amro
amended
marcel
resid
goalless
orang
arter
arson
admir
brin
brack
bled
scope
apples
notion
contents
##odrome
flush
##etsk
##iza
sunsh
relies
##issance
warcraft
wariner
helmet
servants
defamation
liked
suitor
termed
capitals
redemption
##covers
infections
dealings
swamp
drm
feast
feather
irre
glo
glam
nearer
guitar
webex
vient
##okil
depends
finalist
testifies
emile
coached
extract
extensions
roar
##kyb
addict
119
sellout
lefty
vermont
handled
handover
devote
lawless
keyword
davies
restitution
solely
solicit
storied
packaged
divor
divisive
domen
domains
distill
distinct
districts
analyt
applaud
tyr
designate
giveaway
locate
earths
skater
reserved
ern
erased
##spotr
cleans
landover
classroom
vols
##brand
##ettles
dispel
readying
heartbeat
popularly
cheated
argues
awarding
401
natwest
##alded
shrinks
archb
destined
retirees
entertaining
##ssfe
dodd
dodger
##boks
inspiration
melee
battal
ulmer
sonic
daunting
mourned
commonly
sbcspotr
##warts
baqu
ousting
shells
tae
earnest
savage
nepali
publishes
springboard
springboks
punitive
hubie
perfectly
craigsl
##lusive
diary
wonders
migrate
bulgarian
mayorga
impression
ensuring
recognizes
abduct
faltering
990
responds
rattle
instructions
tables
pioneered
relieve
ashes
kluiver
concluding
stringent
regarded
unrel
rugged
trimming
rooft
breeding
ordin
unhurt
documentary
lpid010
escalated
advocacy
bcn
giggs
disappearing
diverse
reigns
simpler
wolfpack
unpopular
bogota
bpd
rashid
rosy
iconic
equaliser
categories
gangs
kanpur
hijacking
affiliates
bulletin
leonard
ligue
deteriorated
hokka
dependence
essentially
congratulated
resurf
fonterra
sailors
thrive
rudy
bskyb
looted
thoroughbred
lauds
reminded
decreased
spoiled
vanderb
voyage
gentle
##enoord
gavin
impaired
poaching
spacewalk
weightlifter
stereo
moldova
restraint
slogan
beloved
paterno
brasilia
handicap
lieutenant
fungus
anglican
outweighed
indemnification
caucas
reconciliation
leukemia
encryption
magnificent
##sheet
besieged
embraced
iamgold
sialkot
geiberger
benjamin
baxter
feyenoord
unheralded
##ssfeed
sbcspotrssfeed
craigslist
kluivert
2b
4x1
boring
docks
dancing
fond
fitch
fargo
fathers
gail
gund
gaps
hort
hca
i5
iger
jens
lager
mism
nke
oj
omin
pim
panc
qass
rus
rost
rhy
ripe
socks
sara
seneg
tins
vz
vind
vinc
wik
zam
zones
##cor
##court
##bles
##hot
##lings
##mets
##mex
##db
##zel
##zak
##pie
##town
##fight
##frey
##ym
##40
##25
##edo
##arked
##atur
##atoes
##icable
oft
##rove
##asy
##elin
##isimo
##etter
stol
stitch
static
forr
##aci
##ambi
##uttered
chel
comets
atkins
beit
beaver
unins
unsc
unfor
unocal
splin
sprew
spitz
sputtering
leh
##ocity
##aph
##allis
alta
alvin
##uming
encl
aggression
##ivans
weed
uphill
clad
##uges
incomes
intermitt
interbrew
arrow
outcl
outfits
recap
trich
scra
perry
##rose
contrace
invading
elton
lax
flir
flot
##aving
oilfield
accidents
sunset
sungard
warring
strides
dechy
retake
defies
liu
##alsh
##gren
sharm
consist
setbacks
fours
newsom
newsday
surg
terrain
parall
assad
assure
recordings
##ahl
infosys
confeder
demilit
engage
engaging
schu
suppress
insol
underpin
irna
bof
guessing
barge
growers
trot
header
000th
knot
hitch
provoked
ticked
herman
eden
156
centrif
##aijan
roars
holm
imcl
sixers
##alya
##awar
merged
128
unionized
midfield
angola
wrecked
##enching
stephon
##ovable
straits
mcgee
harass
harper
harbour
harvey
turtles
humble
164
175
sheets
shortened
voeller
capitalize
supervis
robby
robbery
torch
respite
215
24th
pullback
gunman
cyn
actively
mustang
magical
magpies
racially
pacts
divisional
wooden
arguably
madras
berg
280
readiness
waterhouse
expresses
weakens
christina
screaming
natwar
pitting
raines
routinely
henan
tonnes
protested
painted
layoff
siri
pseries
##anche
connecting
cnbc
ulster
villanova
tsmc
honest
honours
mozambi
indicator
baird
pairs
viable
renewal
challengers
sanderson
watchdogs
pursues
registers
solidarity
azerb
fatig
mysteries
promotes
demonstrates
recommends
infringed
curtail
friendship
multiyear
correction
dcx
deserted
architects
arenas
cultiv
tunis
intensifying
poweredge
relationships
apologize
##abilia
dhabi
convergence
alberts
memorabilia
boro
cooperative
lagged
deduct
renounce
certified
exceeds
585
plummets
respectively
embarrassed
masked
bearish
rentokil
bureauc
anxiously
temperature
gemstar
conoco
pleasant
achievements
scrutin
batsmen
cigarettes
censors
hovering
##proof
calcul
kiwi
snags
relocate
redeployment
catastrophic
obstructing
placement
incompet
emphasis
hobby
alpharma
outlawed
toutatis
lonard
perfection
scholarship
rahul
undermining
dolly
drastically
tucson
gnome
permits
kahney
kayak
brockton
outdated
airlifted
soder
newcomers
siberian
ziggy
##grown
facilitate
dulles
renegade
clogged
cognos
superspeed
suicidal
portrayed
unfortunately
##upply
backpacker
ceremonies
nonprofit
tumultuous
cedric
mudslides
lithuanian
elegant
freelance
skepticism
whistleblower
slovenia
euph
lopsided
nemesis
sunshine
vientiane
archbishop
baquba
hokkaido
4x100
rhyth
senegal
sprewell
trichet
demilitar
mozambique
azerbaijan
bureaucr
superspeedway
a1
ain
bass
biting
dented
dwell
fx
fts
faking
foil
gum
henson
hmcs
kr
kuch
kde
lv
mello
mhz
ns
nitt
pine
rix
raps
rnc
rachel
sikh
vr
vil
vuel
wong
woos
walsh
xia
zab
zayed
##rans
##case
##cade
##cash
##nals
##gi
##laze
##oz
##dell
##dafi
##kg
##kit
##wed
##wah
##yder
##2m
##erun
##ertion
##inis
##anza
##arin
##aris
##arie
##atri
##atlant
inters
inability
##aland
toast
##stable
anew
##enth
##enture
stoud
stumbles
rey
reimb
##aders
##irai
##utely
##chin
##chair
chick
chased
##ighters
##earns
##andi
##ando
##essels
##essandro
##rians
sabre
quart
spansion
spitting
spurring
exanta
##emire
byu
alonso
alessandro
worcester
heap
##artis
amex
##quist
serbs
winky
winston
indirect
quoting
##antown
outraged
outburst
adt
blunder
peac
crest
crate
contrary
##ageo
mang
flap
##ounded
##ounding
##avier
##derabad
relying
warrick
##ancies
strand
stranger
airasia
anna
carp
caret
##ashenko
sete
setup
maz
parked
assurances
colvin
medimmune
confused
swagger
justified
baring
rauc
##eee
rebuke
updating
belts
refining
edmonds
1500
costas
filter
debated
merit
singtel
122
##clair
programmers
charism
netany
loser
actors
davie
restatement
143
darrell
futility
betamax
standout
crematory
##ovin
botched
succ
directing
harley
basescu
discard
astro
novo
transit
transatlant
humiliation
30th
menace
sheer
winslow
careers
portions
digitally
equalling
superher
secretive
embark
collided
50m
gasp
erasing
exchanged
damien
multif
connects
fragment
janj
paced
brazen
creditor
nymex
stationed
karstadt
##dez
symonds
schedules
hyderabad
practically
arabian
naturally
identities
kingston
treasure
400gb
boyfriend
prosecute
audits
muted
raping
destabil
represented
60gb
countering
mwd
inflationary
bollywood
occur
siro
raytheon
crafts
persisted
41st
scrimm
committing
madonna
rumored
periods
flashes
undated
lashing
cosmet
ethical
530
unbeatable
1989
jamie
2011
diageo
demonstrating
splitting
ensured
brightened
olow
assembled
astronomer
ruiz
tabs
cruz
offsetting
czar
molina
ashley
rfk
deserve
liquidity
fossils
miniature
vivisimo
shakeup
catholics
cropp
vastly
breakthroughs
domainkeys
snapshot
lukashenko
ntl
ntp
offshoring
patrols
cyberspace
rodrigo
refinancing
festive
1965
dampened
unpatched
belongs
##iyah
labeled
tremendous
convenient
rusty
troublesome
brewery
nominations
neighborhoods
nurses
satisfy
nestle
ripping
pulse
relocation
accuracy
sympt
privatization
stifle
permitting
chalabi
lisbon
decrease
filipinos
obscure
docking
hobbit
overheating
livest
antidepressant
rattay
ritual
fertil
yusuf
jesse
intruder
defrauded
clampdown
portrait
j2ee
gilberto
skyrocketing
ailment
adequate
rethink
sardinia
sprawling
pampling
tavarez
gritty
pundits
visteon
frederick
subsequent
sevenspace
gaudio
negligence
arsenals
charleston
congestion
blistering
deceptive
merriam
machinery
daniels
framingham
abramovich
tsvang
hasselbeck
hargrove
pradesh
arteries
domenech
distillate
rooftops
vanderbilt
forrester
fatigue
albertsons
soderling
kuchma
vuelta
stoudemire
reimburs
transatlantic
4m
aq
burr
bests
cic
cisse
dud
dives
dhl
ducks
dui
ebers
einstein
f5
geeks
hant
holog
hann
hello
iome
ieee
jog
kite
kinder
lect
lub
liz
nm
noc
ounce
pall
pills
sultan
tah
vern
wism
wlan
xom
yon
yel
##sed
##cies
##ielder
##iencing
##bollah
##gement
##aign
##lock
##uh
##uity
##v6
##father
##firmed
##with
##waters
##wamy
##inform
##onk
##onkey
##oration
##anke
##atieri
inked
inroads
##itaries
##ilcott
##terior
ander
andover
stumbled
forging
##acent
reap
chilling
chilcott
comr
##imated
promin
proxim
unify
queries
spikes
sprain
exiles
exelon
plains
alto
comparing
envelop
agni
weeping
upright
fruits
acute
acres
##uding
yearly
##obiles
incon
incons
##ensed
##ensing
marit
marble
##quarie
interrupted
ababa
winfrey
gods
orion
outpl
grove
covert
adel
bred
brass
scout
notched
invention
fluct
minivans
coruna
##avers
accustomed
wares
weekends
polo
profound
carpet
openers
unitedhealth
newsweek
souven
maui
terrap
fullback
coloss
##ahar
runway
infect
infielder
confusing
courth
schr
booth
russias
guat
postwar
telemark
knox
##okandi
deposed
1950
paych
begged
olympi
edonkey
proteins
sanche
addis
111
companion
drugstore
armen
footsteps
##awah
##aweed
password
singel
rulers
urb
devised
resting
timely
morales
ipv6
##iking
realistic
strains
arranged
evident
yours
commissioned
divest
##rowing
##soe
equally
carded
hotter
sno
simmons
213
grail
angelos
macquarie
panhand
erase
spamming
morningstar
##bres
productive
dispatched
janeiro
heartbreak
arrivals
roller
cheet
cheek
waived
goalt
reads
readied
pires
somer
expression
biod
counters
tellier
dreaded
##markets
295
archive
detailing
licence
kickbacks
protective
marches
psg
inspires
integrating
boliv
exploding
misd
415
ambul
unlaw
337
prosperity
fortnight
logan
jimmie
barges
cruciate
piper
walkout
beside
unsafe
spinoff
1981
cleaner
cleanup
construct
advisors
magnet
ignited
soros
pornographic
falcon
crying
bitterly
preca
romanians
thinner
determining
triumphant
dividends
breather
bono
railroad
##blue
complexity
curbing
acknowledges
alberto
fingerprints
coffin
altoids
juliet
retreats
lukas
weaknesses
scanner
rampage
flowers
adapter
hydroelect
mitsui
gibson
gigabyte
maoists
ukrainians
jennings
prolonged
haitians
breaching
hideki
hideouts
principles
rashard
lamar
boldly
ronaldinho
attachments
unfairly
sandwiches
kirkland
clusty
evaluation
evaluate
##1165
indymedia
rackete
galaxies
inaugurated
conferences
vinatieri
##broker
pulitzer
obviously
mechanics
uproar
hoddle
arrangement
cereals
erode
supremo
db2
pandemic
fertility
tolerance
##master
resembling
indecency
sylvania
elementary
phonographic
terrified
baikon
paintings
sizzling
reinforced
penguin
##arnation
marquee
ingredient
downplays
argosy
bastion
neglect
purnomo
staggering
refresh
conjunction
seismic
9651165
tippingpoint
aspirations
wartime
trilogy
inappropriate
azzam
inexperienced
diaz
rejuvenated
varsity
excerpts
kvault
marcelo
bledsoe
caucasus
lagerfeld
confederations
ftse
raucous
netanyahu
janjaweed
cosmetics
olowokandi
symptoms
iomega
wismilak
telemarketing
sanchez
panhandle
hydroelectric
racketeering
ai
cull
dant
duce
dining
dasch
dassault
eto
ecos
fencing
faint
hl
h5
henn
kand
kast
kate
kios
lut
lice
lanc
lang
liab
lippi
mounts
meps
mavs
mumm
nig
nuts
ncs
pg
puls
ration
rapper
sop
sake
scept
silly
tir
testers
vu
vna
vying
wack
waf
x50
xaver
xavier
yak
zid
##ewan
##iott
##bies
##bons
##gp
##hana
##hara
##mian
##mines
##dm
##vine
##wear
##42
##24
##32
##erica
##inqu
##inburgh
##esa
##aned
##arazz
##enary
inland
##alas
##alone
##elcome
##isle
##idable
##omy
stup
stearns
forens
forman
##leader
nept
##usc
chan
chast
##estre
ispat
prius
prisons
shalom
unb
unre
sailing
quarant
##astes
##apest
offenders
upi
fracas
overdue
ames
##quer
abund
##anto
recapt
adolph
adweek
peach
##ishops
scutt
cres
##orkina
appropriate
disbel
invalid
elects
laund
cannes
flick
flocked
reliability
reloaded
##herty
microscope
##unders
enduring
backyard
salle
planners
downfall
##atchewan
pared
preps
##azers
imposes
regina
infocus
swat
swit
swapped
demons
somebody
schny
##athi
supplement
insights
tribe
irrel
boos
boone
glowing
startling
internationally
traian
homegrown
liners
strips
showers
emin
emlyn
belated
edger
edinburgh
centric
protracted
accords
suspense
sanford
116
debit
rounded
tradem
##beans
##ebra
formidable
wracked
peacefully
francois
appleby
solomon
dirrell
storing
firmed
daring
standalone
forex
eastley
harr
harb
commissioners
##shaw
broadhurst
hamish
##office
controller
massively
collide
mailed
revisions
semit
experiencing
##ribed
grap
trev
bankruptcies
spammed
##umbo
richer
riches
tomas
tomlins
accessories
copied
baltic
gainers
didier
inflate
furl
burd
credits
convoys
downloaders
fraudsters
squash
sidekick
practiced
weakest
guarding
eventual
40th
okay
lockyer
budapest
strengthens
decidedly
ramon
explorers
ventura
marching
celebrities
grie
palmeiro
curious
bookings
surfer
leary
patching
khorkina
cools
vanish
uncond
unlock
lacked
fao
wrongly
jetblue
##ophers
abbott
emergence
spirited
bernanke
registering
kufa
titanic
spinach
odp
1984
absa
unfazed
dunlop
repeats
##rolled
benched
##aurus
triggers
abductors
uncertainties
##breaks
6758
corrects
luiz
lynx
gaddafi
observed
575
bertie
beefed
marriages
725
unwelcome
dissent
acknowledge
exercises
pyram
cathed
terminals
escalate
ridden
mickey
cooperating
iaaf
collapsing
advocate
exceeding
extradite
##track
folk
fabr
mediacom
350th
nazis
queue
unleash
kurds
implicated
##writer
nabs
traditionally
nadia
reshape
eaten
clustering
lavrov
bumper
deliberate
smugglers
scarce
spaniards
stelmar
depressed
nestor
quantities
assumption
astonishing
cordless
croatian
eligibility
historically
dioxin
fulfilled
jabalya
##lifting
hodge
dixon
nedved
paparazz
physicist
disposal
bloated
lenny
frightened
contradicting
golovin
excellence
orchest
breeze
tamada
algerian
crusade
absentee
vertical
tucked
clayton
turbulence
chandra
phonak
zhang
enthusiasts
saskatchewan
##children
firefighters
lnr
##vantage
absolutely
fibre
reefs
transcript
defenseman
sixteen
attributed
##micro
hosni
algor
overpowered
presumed
redesigned
resilient
soliciting
duffield
annoying
##lecht
roadblock
rehabilitation
loaiza
sempron
accompanied
divorce
battalion
vrts
quartet
caretaker
scrimmage
tsvangirai
ebersol
anderlecht
courthouse
guatem
daschle
liabilities
xaverian
stupid
neptune
schnyder
irrelev
tomlinson
7bn
aet
bick
bates
bmc
bishops
dors
dated
dumb
dys
fah
fuming
gays
gaff
goli
hak
hens
hides
henne
jere
kou
kut
kits
keller
kettles
lud
luster
nf
nost
ost
ogun
pel
pia
pesh
pomp
raged
sque
tang
uri
vt
vicious
vouch
wada
yacht
##rared
##si
##cur
##n1
##nut
##gear
##gone
##giant
##hg
##hir
##mund
##mese
##ofi
##uations
##dl
##dock
##zo
##pable
##prow
##tale
##ybe
##02
##88
##ermo
thales
##inting
##esn
##esth
##oraro
theor
##anthrop
##arat
##arro
##atu
##alith
##alka
tok
##icating
ofdm
##rox
anz
anterior
##isy
##isers
##isoft
##ecy
andres
stur
stating
stacked
stoking
reacts
##olly
##amal
##ammar
##amination
neo
nex
##unct
##imori
beet
dew
ism
shuffled
shimon
##ulus
convey
unused
unex
##esses
saver
sabres
qure
quint
##ople
spells
plaint
seiko
uss
##umented
compress
compuls
agere
ageing
##ardell
##uccess
clue
overhead
overrun
##abies
opted
##oba
ambev
secunia
expiration
mari
marco
marketers
##quo
rescheduled
ablaze
##ube
##ubbing
rechar
recoup
##keter
cohen
blower
bluff
pew
cray
crumbling
##oussis
invests
##izable
mineral
corus
corning
##aved
tufts
##heric
invested
mokt
annus
microscopic
##vency
##undai
endure
##grine
carc
##vely
grouping
hadji
makybe
todays
asserts
regains
dayton
becks
infrared
swirl
swelled
swipe
engagement
drilled
insecurity
undercover
##iots
palo
palermo
boch
billionaires
glit
guwah
smucker
grin
remot
removable
halkia
hitler
countrywide
autos
calvin
ibrox
refiners
refueling
157
roche
protein
holoca
goldcorp
sanofi
selloff
conceding
merging
returner
rulon
midweek
braun
avon
despair
stephan
instance
acquittal
ips
strauss
mccl
mcgu
hariri
harrowing
popping
discoura
novartis
hummer
loving
buildup
sheik
metz
campaigner
supermarkets
##ucket
centered
snyder
outsc
authoritarian
revis
blackmail
everyday
blasting
panther
storming
privile
landmine
landfall
cyt
##brano
coping
mustafa
facto
##affected
blueprints
candl
##incts
accountability
burger
burlington
burmese
entries
artif
specialized
candidacy
hyundai
crisp
figuring
fiesta
staffing
importing
lighting
biased
shrugging
separately
audiot
audiences
archives
totmian
circling
destinations
##perfect
complications
floodwaters
protections
turkeys
coupled
koalas
totaling
philippoussis
reasonable
##askar
rescind
owls
curbed
surfaces
skydome
brokerages
exposes
andrei
liberties
tsx
faisal
pacificare
lifeline
thrill
constantly
##keeping
renewable
toshack
pursued
90s
pharma
spiraling
wordperfect
printed
wilder
simpson
advantages
optional
unsuccess
jammed
slept
wasnt
765
recommending
contribut
paths
pathan
interfering
defendant
succeeding
heavens
galloway
mandated
instrument
particle
mccardell
ruin
hoos
durham
durban
collaborative
canceling
bonanza
pavel
apologise
elliott
consolation
esk
converts
albany
cautiously
jayas
escalation
riddled
ugandan
lags
tosses
loomed
forgive
nagaland
persuading
padalka
##quelle
cosmonaut
meteorological
matchups
dimension
consultancy
ralf
intentionally
bmg
tremor
unconfirmed
digitize
hersh
hypert
innocence
ambushed
heralds
ribs
listeners
jurisd
mammal
minimal
implanted
deterioration
variants
assuming
bbdb
peregrine
incorporate
hayes
hayden
infiltration
translation
immune
thirst
sebastian
imprisonment
fulfill
mechanical
waved
mobilesoft
reunion
dixons
kasprow
recipients
pegoraro
trapping
blooming
mclean
elevated
condemnation
cobalt
carnage
8212
yusgiant
gavaskar
transfers
dormant
yawar
diminished
##electronics
##enzo
telemar
aeronautic
penguins
pessimistic
barneys
dartmouth
jags
assaults
avalanche
boiler
urlacher
speculative
horrific
camcorder
boycotted
lindows
obligations
stubbornly
fascin
jebaliya
meari
blinkx
tantal
tcu
cahill
gurkhas
homosexuality
stardust
unabated
farooqi
berkman
cushion
spearhead
analytics
tyrann
horton
mismatch
zambrano
stolz
flotation
centrifuges
censorship
multifunction
karstadtquelle
vernon
maritime
schrder
baikonur
dantz
h5n1
kandahar
kastor
laundry
switkowski
edgerrin
harrigan
cathedral
paparazzi
algorith
goliath
jerez
recharge
moktada
guwahati
holocaust
audiotape
totmianina
kasprowicz
yusgiantoro
1gb
6bn
7m
8m
awar
bne
cj
cries
doss
dwar
danton
duma
eh
fb
fsu
fumes
faget
gud
iz
jt
jing
jas
kc
lom
lures
lugg
lapse
mund
nano
ngc
neri
oled
ome
rp
rund
rhe
roth
sb
sind
sift
siding
tac
tires
uw
zawah
##eons
##eenth
##santo
##cm
##cers
##cell
##bag
##bling
##gos
##hare
##hma
##horse
##aqu
##lu
##miller
##zapper
##je
##jad
##jandro
##wives
##4m
##inness
##esda
##orable
##anic
##aram
##eny
##atus
inexp
input
touring
##stor
##icular
##asbourg
##asuna
##ouched
##etics
##etrack
stones
fores
##acons
##acola
##uriya
neb
ate
dexia
shro
shep
shwe
shuffle
##eard
whamp
unav
##essa
##rials
spi
spice
spears
spurt
spurns
leop
leagu
leapt
lefth
##aster
##astown
##emaking
ploy
##fta
heed
monsanto
##uced
##artisan
frills
clicks
hauled
overd
amzn
marl
resellers
intermedi
twisted
arc
arrog
outback
outstri
outbreaks
##ondo
##outed
bliz
screw
scaling
scuttle
##ailable
cranes
##berus
lauded
flan
flare
flares
strasbourg
defective
commuter
sally
##angel
##ookers
soften
noranda
##ahi
genn
confessed
swelling
courting
supplements
##msford
underage
guiding
joanna
internationals
grueling
grasp
getafe
000m
##uchova
hostilities
throat
nationalists
greed
finalize
presse
payoffs
rebates
ibms
emmitt
belted
##onte
batista
edvard
antig
publications
cutcliffe
additions
addicted
##opsy
patt
202
2020
concede
chipped
wiret
##leye
detract
billboard
handlers
midmarket
netratings
anglers
koreas
wrang
rested
timed
stepanek
##ismo
##comings
forefront
##iker
competes
straining
wallabies
basement
schoolchildren
turismo
housewives
##shell
##shots
182
181
procession
##agoza
##eshold
possibilities
177
healthier
techies
shortcomings
metcash
analyze
donor
snar
snip
snare
barrera
revs
clearer
tories
217
skull
bowe
socied
amidst
eyeb
coasts
toolkit
volt
##ospheric
frazar
colorful
factbox
inflicted
disperse
janus
stadiums
favors
personalized
cheats
travelocity
potatoes
dipping
waive
waivers
supplying
journals
squir
sidewal
screamed
socceroos
combating
citrus
automobiles
captaincy
romance
reviewer
widow
boxers
circuits
mutine
deepened
raped
senders
complains
cashing
grips
deterrent
doesnt
suitors
garb
inspect
owl
cabin
bolt
learns
300m
dolphin
craven
dreaming
livermore
tsn
faulk
logs
jetliners
splits
requesting
praising
threshold
necked
constit
preventive
screeners
anticipates
purse
scotia
munis
savor
519
600m
disclaim
trusts
burner
kinds
440
cerberus
willingness
migrant
rigs
mp3s
koda
762
outsourced
examines
liquef
zaragoza
encourages
buffer
250m
weightless
gymnasts
infringing
kimi
mandalay
borne
famer
mccull
cruising
precise
accidentally
participated
resistant
espn2
observe
922
frost
##iliatory
academics
pinpoint
sabmiller
awash
##iably
shakhtar
escalates
muller
consolidates
consolidating
plugs
shattering
functional
encountered
prolong
rupt
fabric
greetings
breaches
jolts
fujimori
stalking
reassuring
buoyant
reshuffled
bashar
rioting
pigeons
rsquo
glasses
alumni
shooter
loudon
txu
averting
reservation
nursery
comparable
minerals
##produc
stabilizing
##pieces
albums
dependent
resurgence
infiltrated
reluctance
bruno
scathing
drummond
groklaw
disagree
ghosts
ghostzapper
doughnut
baldini
lampard
reciproc
blanket
##charges
rebuffs
polycom
fifteen
frightening
appreciate
lonely
microchips
vizc
deposit
navigate
jessica
confronted
puzzle
cherkas
certificate
weightlifters
bethesda
aeronautics
ingredients
intriguing
mistakenly
sidest
alejandro
lansing
dislocated
technician
engulfed
loopholes
flourish
univision
descendants
dancer
tribesmen
oasis
reptile
grandson
dynasty
pensacola
mongolia
crammed
knuckle
goodenow
brendan
giddy
jiabao
chelmsford
holmgren
rhythm
hantuchova
comrades
terrapins
colossal
wacky
zidane
trevor
koubek
ogunleye
peshawar
tokage
bochum
jayasuriya
boilermakers
awareness
bnei
luggage
inexpensive
whampoa
blizzard
cherkasky
aon
ather
avent
aka
ahman
ainge
bible
bumped
bapt
cans
cake
cuff
cios
cusp
dm
eur
fta
gome
gagne
gophers
hated
hath
hbo
izz
jid
jema
jinx
ks
kb
kad
kraw
kroll
lac
lame
lidge
mord
nester
o2
och
oath
pence
paw
pestic
rn
rican
rumbling
sang
seld
tand
tate
tucker
ux
vx
vfb
wreat
wana
wilt
woke
wiki
yun
yawn
yoko
##cap
##crew
##iens
##bx
##bra
##hum
##aid
##auded
##uw
##di
##fest
##fors
##jev
##wiki
##erus
##erting
thirt
theaters
##step
##stands
##asley
sti
ston
stade
forges
forsy
##acs
##uras
rever
##uti
neagle
chocol
chaba
##estones
##raham
ascent
deere
deacons
shod
shai
shannon
shouting
whiz
unesco
##ripts
sped
leasing
plight
usda
alley
##umental
agra
##0000
weaver
upping
fratt
clung
clutter
opium
##obi
amgen
amanda
reson
reprim
abst
abide
twists
oral
coat
bls
blago
blessed
peaked
perceived
contamination
disarming
##ffarin
##eption
internally
##actice
##hnetworks
allay
allstate
allardy
allocation
accum
##anco
deception
theyre
##etwork
soa
servic
retrieve
slaps
yesterdays
backfield
milky
milestones
brode
mayhem
parting
softened
suited
capello
paragu
pregame
regaining
##elsa
deluge
swaps
demo
demos
drunk
relevant
barometer
grades
grower
travers
raffarin
trough
homework
telcos
majerus
hitters
hostility
departs
spaceport
greets
countryman
cups
rebate
ibc
terrestrial
latvia
extortion
heras
roam
11b
olds
##practice
quicker
debating
injection
gerard
themes
conciliatory
rounder
##ushu
advising
##beau
wirelessly
handy
handles
unionist
idec
idiots
speculate
goodale
afghanistans
communists
darius
firebrand
womens
radler
publicized
footballers
banners
mck
evander
evangel
discord
360
sevenfold
broadsheet
188
186
humor
farce
taxus
loosen
modify
investigator
jeans
controllers
safari
donetsk
capitalizing
cardiff
applauded
receip
##flower
authorization
revise
##echai
valuation
locally
balloons
denounce
proposition
tread
sket
skill
##negy
cao
richie
purge
purvey
juven
cubans
bribe
osi
22nd
envy
envision
roadway
argonauts
resignations
islanders
goalie
specializing
murders
groundwork
bondholders
predator
wildcard
asianews
benefiting
bielsa
shrank
tellabs
dutchman
sugiy
overtures
rainer
rainbow
mutil
dismay
oversupply
tonights
##kesoft
differently
environmentally
oaks
koose
##hyd
##panz
alexei
outpace
craze
persie
khurs
isnt
kyushu
thomastown
enriched
selecting
##opharm
vaunted
displaying
scottie
epo
flagging
livingston
fisheries
steadied
munro
partnered
bottler
punta
beheadings
reacting
advisor
dynegy
rubin
761
generals
gorda
ignores
falter
gallons
brightest
mccants
achieving
cancun
precar
repaired
repairing
diamonds
durango
naples
breathe
unwilling
innovations
pavil
trumps
horna
apologises
dhs
acknowledging
czechs
punched
punching
heroics
destructive
etc
bailout
winged
synth
submarines
tasr
bruins
joyo
scammers
busted
busting
lingered
970
##fitable
lengths
reopening
implants
##content
nabbed
firewalls
pondering
accelerates
mahmud
folded
affiliated
secrecy
underwater
deliberations
manipulate
streamline
averted
averaging
sinclair
reservist
sherman
mainframes
satisfying
robbins
##3035400
showcases
autonomous
hawaiian
hanover
passionate
unseat
bouake
incorporates
sedan
stym
diagnosis
incompat
dixie
crocker
disposable
jittery
digested
overlooked
rattles
alfred
trounced
meshnetworks
maddox
promoter
kilometre
breezed
chevy
preserving
glaxo
absorb
vertebra
segments
##2004
impairment
intruders
embracing
inacio
stoops
prodi
portraits
quadruple
reinforcing
mentally
oqo
bungie
absolute
comedy
assaulting
sanctioned
jvc
prostitute
gillespie
condolences
enlargement
derrick
wreak
arraigned
commemorate
fiercest
nkorea
aboriginal
fitzg
adrift
disqualified
transparency
hapless
##730000
adjourned
receptions
gruden
jelena
tutsi
##8975
immersion
eradicate
bipartisan
poker
anarchy
heidfeld
coyotes
denounces
unprofitable
pascal
chimpanz
lpid0103035400
ominous
qassam
intermittent
contracept
succumb
misdeme
forensic
disbelief
piazza
##curate
unexpl
faisalabad
dossier
rundown
sbux
zawahri
spiked
sociedad
mutineers
muniswamy
9228975
aventis
gomez
jemaah
krawcheck
mordechai
nesterenko
pesticides
##jevich
thirteen
forsyth
blagojevich
brodeur
sugiyama
##730000idlp
lpid0103035400730000idlp
4b
6m
ahl
ayl
cu
crom
cairn
dus
dans
daw
eiff
fost
fse
faw
foma
fsb
giga
gwr
gathers
jams
kg
kra
kop
nath
nude
oats
pops
pains
rol
rerun
ses
sce
sock
sands
ssl
taw
tpc
wc
wb
waging
wesley
xil
xeon
##sons
##cuff
##bital
##gars
##aul
##lie
##mell
##dot
##pole
##tech
##fares
##wash
##yland
##47
##ergy
thief
thumping
##inist
##orbital
##eni
inver
inmate
##alon
##itudes
##icates
##ilian
##elt
##ecess
##ecycle
##idest
##omer
andr
##acaf
reit
reaping
reagan
##lei
##owers
##change
chun
chores
beers
beast
ismail
##ako
shorth
conce
whirl
whopping
unct
##ophy
aflo
spim
spills
##isters
plugging
sebl
aloft
compass
complement
hasina
##ustre
offence
##ighting
wills
monroe
frid
##ellan
clo
clocks
clinging
##ugen
haunt
haunted
overr
overf
##endicular
inca
expose
expensing
marries
maraud
##quet
resemble
reproduc
interl
abound
wines
winamp
winemaker
orger
##ickers
arun
outk
recipe
reclusive
trinity
brits
scary
##aching
perv
crimp
butler
noting
##olls
presiding
dispar
discontent
##ods
##hnin
##hnsen
alliances
sunrise
sunflower
relics
##eye
##ptions
defects
meals
commuters
carref
softness
workflow
impat
regis
marketed
champaign
confined
schia
drill
japans
relev
underperform
irl
boerse
takeoff
guinness
smoot
smashing
##gerna
joaqu
longs
postage
grinstein
gretz
searchable
telco
hale
##oka
herb
##printing
campuses
armoured
inject
patty
themed
concacaf
suborbital
merry
merrim
singlet
walpole
handcuff
midship
legends
idle
davita
futur
betis
motions
veil
visions
realignment
competitions
##amiliar
mcen
pau
myself
##afl
basics
drained
packet
asthma
254
##ukh
metlife
donate
##itti
superc
superman
collisions
collectors
ivy
barren
revives
revoke
valuing
##people
denis
regulated
torri
employing
eighteen
2100
skipped
doubted
euro1
millwall
malpractice
freak
gunning
##brella
almunia
believing
stadler
jane
trainers
personalities
personalization
shopper
222
piles
junque
cheering
##banes
untouched
nyt
captains
slowest
symc
squandered
scheduling
birdstone
monte
banged
combo
##hani
budd
##former
pitfall
sexton
bordering
293
rained
rainfall
auditing
##arrazi
arche
positioned
troph
checkpoints
deepest
forwards
rocketed
plantation
fearing
fluke
shiites
sanctuary
counterterrorism
psa
inspiron
wrapup
misgu
misunder
catz
ambition
kharrazi
cooled
andrea
tackled
villain
swedes
rumble
333
tsa
logged
logger
paired
flashpoint
assisted
englishman
harmison
rushes
steadies
textbooks
flawless
wilkens
taek
sparc
deriv
sounding
strategists
punishing
masterpiece
difficulty
monitored
2015
unfamiliar
minorities
migrating
preliminaries
megi
reinv
800m
mirac
battering
magnate
weightlifting
recognise
falters
cannon
nicky
mccart
cowboy
tablets
gardens
suggs
precurs
relievers
accidental
triumphs
##ync
1975
chapel
abdication
745
pavin
requirement
sticker
orbital
gamblers
rafah
pinned
hopefuls
visionary
termination
eti
clouded
ironport
persuaded
farmland
restricting
manhunt
sheds
transforming
lingers
cosmodrome
philippe
sarbanes
marginally
reopens
observation
bpi
metrostars
rashad
rasheed
lambeau
henderson
##johnsen
kenyon
fracture
folders
worsens
woolmer
umbrella
vetoes
leapf
nominate
bridgest
revamps
##obbling
dismantled
aggies
mcgill
bjorn
kostya
plateau
bearingpoint
pulp
bnp
entrenched
sailor
accurately
caddie
unnecess
hinting
##ropriately
albanians
barnier
herniated
underscored
ccia
nutr
incomplete
spoils
livelihood
biometrics
spawned
vigilant
headscarf
whitney
vibrant
exhausted
mummy
##groups
coincidence
khalil
tibetan
poachers
withholding
overstated
farmington
whiplash
unease
cricketer
ridiculous
newcomer
penetration
anchorage
pupils
friedgen
avalon
viability
scooped
rousing
gamecocks
redeem
exaggerated
soothe
kieren
yanukovich
ecstasy
unfolding
nickname
disgraceful
mandrakesoft
accommodate
sakhnin
ubisoft
maccabi
lmt
lecce
eclipsed
accompanying
juggerna
perpendicular
courses
tinsley
splinter
parallel
nitties
mangled
charismatic
discarded
knoxville
1950s
goaltender
kiosks
crescent
grieving
guatemala
irrelevant
dorsey
nostal
mariucci
remotely
jurisdiction
gudjohnsen
wrangling
frattini
allardyce
khurshid
aylwin
eiffel
gigahertz
inverness
##idestory
unctad
afloat
orgeron
carrefour
gretzky
merrimack
midshipmen
junqueira
unnecessary
4ghz
8ghz
bould
bolog
biff
bender
bpo
bachel
cm
cag
cage
cvs
caci
dort
dice
dole
dung
ewood
fou
gin
gus
gine
gug
gough
hush
hats
hhg
io
iw
ios
jumbo
kipp
ler
lour
mow
muj
nino
nosed
oy
pax
puff
qw
qan
qcom
rude
sog
ssh
tul
vap
vets
vista
wigley
wemble
xi
xms
yorks
ze
zard
zamb
##rators
##eter
##cake
##iating
##nl
##nick
##ndez
##gado
##hap
##aux
##lich
##liot
##mh
##muda
##deen
##zic
##zhou
##var
##vation
##tone
##fir
##jak
##jects
##wondo
##yir
##1v
##15
##ergen
thump
##online
##orf
##orating
##anas
##arthe
##enh
##atements
##stmann
##icem
anat
##aser
##elan
##elcom
##elabs
##ecca
##ecipher
##etus
##omero
anders
##enting
starg
stoke
statham
forstmann
##acchi
reub
##igs
##othy
##usanne
chiss
cherry
asem
asda
asyir
beacon
beasley
prostate
isv
iseries
isvs
isiah
pronged
shall
shorter
##agen
##ulo
conagra
whar
aparthe
##river
sainz
spc
spx
spas
spook
spurned
##istar
existed
##alla
us1
compares
compaq
enroll
##ooter
##ouring
offline
##iph
clause
##ieu
##obar
incarnation
amjad
expel
expend
expans
##iceps
mare
repris
abraham
outings
outlet
trb
trud
tract
brushing
bronson
##achen
crum
crore
crumbled
notches
leadoff
contending
invis
inviting
invinc
eluded
lausanne
##oded
##odra
canes
canoe
flame
flier
fliers
flamb
flipped
flarion
oneill
minus
##avan
highways
##ulla
##osei
stray
stressing
airfares
##oodle
lastmin
slur
##ptv
electrol
backer
##inawa
brooks
##angie
##angular
surcharges
preacher
countless
impot
imposition
regroup
medications
conform
swell
technically
drenched
insults
feist
irvine
boon
glim
##ombat
guj
israels
barbar
jokes
##eldon
grate
headwind
searchers
lindh
citywide
weblogic
taker
strive
##eezza
##aimi
spacey
payday
payouts
begs
autopsy
powerhouses
ibf
batted
mobs
eddy
antenna
centenary
sanpa
cutbacks
continuous
##pressed
update6
##ventions
injected
risking
stockbroker
wires
wwe
##beit
virender
123
verhe
verme
detecting
detaining
generali
specs
braw
brake
francorch
lowly
englands
mora
radically
geologists
ipaq
realplayer
pop3
baseline
draining
drags
drafts
137
dividing
contracting
turb
turtle
##atero
novl
menlo
possessing
farmer
##atherine
shortlist
voicem
campaigned
applause
superst
supergen
robinho
greats
greatness
esteban
outsiders
revising
boarding
speedier
##exaco
##kerman
simulated
californian
skilling
poise
chairs
bowen
laredo
islamonline
##psy
cashman
activision
muster
balancing
##loads
235
credible
freshmen
freshwater
specializes
suffocated
bermuda
propels
liftoff
younis
downloadable
275
mortal
figo
gamer
stripes
handsh
badawi
staffers
##error
okinawa
discoveries
biologist
nok1v
petrino
petacchi
sexy
strengths
reviewers
dismayed
santomero
forwarding
310
commercially
fearful
rammed
##ranos
descending
##heit
crossroads
dodging
escorted
nonstop
llodra
countered
##nyi
cracker
bolted
##innie
patched
cnf
auctioned
obsession
scrub
ringtone
excuses
deployments
websidestory
faa
enriching
penthouse
selects
fairy
banda
typhoons
##dington
antiterror
upsetting
90nm
silverman
upsurge
installment
gyur
strategist
unsett
diy
dye
replacements
freddy
cameraman
dubious
anthrop
mirnyi
alternate
repeating
##rolling
bulger
##ofrio
errone
forbid
999
apartments
attraction
cannons
brightens
clarity
frustrations
hampering
ashburn
mahar
feedback
feedster
cartrid
frogs
overhauled
sustaining
horr
747
horns
oxley
apologised
dickau
gambhir
##rontexaco
fingerprinting
lcds
duque
maple
borg
awake
jaynes
rhino
sagem
sagged
renamed
sweetened
forgot
forgiven
navistar
cursing
adjustment
doting
shatner
surrenders
shedding
005
symbols
refinance
intrusive
nazar
marginal
mateja
endorses
endorsing
##iyo
paradox
gregg
huddle
scrambles
neighbourhood
referees
chatter
dupl
lavar
hotspot
lacklustre
airespace
smuggled
sheriff
vigor
bjp
preston
calculated
nordstrom
skipping
disorders
prevailing
djib
hernndez
nixes
recruitment
##haran
kerik
lampert
motivation
cousins
bouncing
vanderlei
shunned
##patrol
alfonso
daddy
pandas
slaugh
orchard
deposits
chevrontexaco
exclusivity
nanotech
monarchs
segway
disagreement
mm02
coincide
glenmor
enthusiastic
inaccurate
stojak
morpheus
aznar
pontiac
siberia
reinstated
tbilis
uptick
disguised
mashburn
fretted
relegation
condoleezza
boller
derrida
eritrea
fiercely
pronounced
vegetables
aggravated
flavor
webcam
jesus
zapatero
beverly
orphan
warheads
vintage
aberdeen
swirling
throttling
videogame
wanderers
yamaha
rebuilt
distinguished
jubilant
assailants
antibiot
kohler
legitimacy
atmospheric
worshippers
immortal
gloves
addictive
ernst
rusher
vinci
surgical
harassment
euphoria
lvmh
burress
prominence
souvenir
snooping
pulsating
sopranos
quarantine
bickering
pompey
cytec
hershey
tyrannos
dwarf
omega
gennady
pattani
eyebrows
squirrel
liquefied
reciprocal
sidestep
hathaway
seldom
tandem
stonecipher
chocolate
shoddy
pavilion
cromwell
nathalie
outkast
singletary
mcenroe
##aflops
misguided
taekwondo
leapfrog
nutritional
juggernaut
bologna
bachelor
ginepri
gugliot
kippur
lourdes
soggy
wembley
xmsr
chissano
apartheid
flamboy
lastminute
sanpaolo
verheugen
francorchamps
cartridges
glenmorangie
stojakovic
tbilisi
gugliotta
9bn
bav
bhd
bumps
cf
cun
dold
dana
dashing
dakar
ely
fec
fanc
fated
fending
fences
fumbles
g8
gul
gob
gird
gmo
gfi
hn
hord
hull
ith
ipos
jost
jib
kun
kag
kane
kallis
kamal
loo
lester
lament
lenses
mersey
nift
ours
pina
qbs
r2
racks
rabb
rumbles
sia
sany
sib
tory
t42
vessels
wow
wtc
xxx
zim
##eav
##sian
##south
##iree
##iator
##bach
##nan
##network
##hm
##hes
##aay
##lain
##mire
##oel
##uated
##dc
##vone
##tree
##ttle
##tex
##fam
##jada
##400
##21
##55
##74
##inty
##esi
##arco
##arthur
##atility
##inged
##stown
##stood
anel
##ionage
##elar
##elands
##idamb
stod
stents
stmicro
reint
##lee
##lev
##leen
chef
chidamb
coms
comtex
##raj
asx
##imael
bean
##osures
##osphere
isot
##akos
shamb
##agt
##agal
newborn
whipped
unres
##essen
saharan
##opec
spro
leather
leaps
leaking
##istically
##apagal
alo
alters
albeit
compounds
##iao
agi
##ourse
##ivities
uphe
frantic
clint
clashing
##ugs
##obil
amher
expulsion
##quette
resent
resisted
intif
intrad
abort
abusive
abkh
oracles
##antom
##oute
peeping
scsi
peripher
cran
notably
##ogether
disrupts
discovers
##eka
200th
manif
tejada
##ffiti
floy
##izzy
wedg
alltel
sund
sunlight
markdown
attends
decries
soas
yorkers
retool
retaining
retiree
slurs
defib
defused
defectors
defunct
endeav
backf
backstroke
commands
carne
sharemark
salutes
##reating
fourt
maier
mahdi
biggio
terabyte
##ahid
delux
delicate
swearing
doha
suppan
drone
drills
druy
underlining
boe
takeovers
##omba
nearest
guo
guilt
smic
##ulty
grady
homebuilder
throttle
industrials
finalizing
countrymen
cald
emmons
emusic
latrell
herm
heroin
steak
strongman
holt
imoh
11i
putter
debian
starwood
deadlines
patil
stockland
concoc
subm
viral
sportsmanship
rulings
booed
insured
billups
##owingly
charities
netgear
wrangle
closures
restoration
##ifford
solemn
directs
##atorium
scorp
radke
##ikov
sucked
##pler
##plan
packer
associations
257
transitional
187
humbled
##uka
farc
##efr
investigative
linuxworld
portals
distinction
allev
safeco
summed
##hama
##arket
departed
departures
personally
snake
snubs
snoop
outsh
outsider
pollen
##exion
simona
##ijn
respir
graffiti
241
skips
macapagal
panis
policing
humana
##spin
mald
eyet
focal
coastline
atlantis
accessing
administered
sharpen
sharpest
##ettable
rejo
premarket
juergen
connexion
balcon
fraught
colored
manually
racers
osdl
233
piling
envisions
civic
brazilians
muralith
270
squibb
practicing
predomin
fixture
natick
lightest
lightly
parkinson
treats
golfing
responsibilities
journalism
##marked
bodyguard
controversies
taihe
separating
mattered
matrix
totals
circulated
santoro
criticises
oversees
##uffling
debutant
licences
smarty
koch
grieve
situations
platinum
flext
garret
sadler
curve
progressive
cables
occurs
misrepr
indexing
exposing
microcell
espionage
scratched
andreessen
logical
vaio
##ethers
allegation
renewing
emergencies
altering
appease
jacket
saturnian
discloses
masterpieces
reactors
hawkins
spectacle
dunk
bleeding
bleidt
dialing
examinations
appointing
bully
similarly
franchises
impresses
hangover
tenders
faltered
physically
pageant
condemning
famously
mccown
bosh
delegate
favoured
thinning
1978
nicole
leno
unwrap
777
slashdot
stickers
stretching
oxfam
overhauls
6800
awak
jamaal
muham
etr
consolidated
altogether
reno
shelton
bruising
ramping
crafted
cursed
patrolled
rotator
junkies
bombardment
001
yellowpages
refinanc
overturns
unknowingly
imagined
imagination
sarat
overshadows
sorting
psychiatric
##rums
clicking
stingy
nadu
reshuffles
equalizer
categor
jaret
gemini
huddled
matthews
patiently
conversations
nicholas
undersea
cookie
echoes
manipur
manipulated
sinopec
maxis
reservists
nurse
efficiently
racket
fundamentally
censure
stelios
cemented
vinny
omnicom
watert
sedans
relocated
stylish
translate
kalam
thrives
prevailed
tubes
stubble
sympathy
indictments
baldoni
excluded
uproot
vacationing
vetoed
conquering
travelled
minnows
bootleg
fraudulently
phenomenal
eroding
carlyle
wyatt
lennox
appreciation
yoran
occasionally
convertible
jermain
predecessors
transmitted
ruthless
bourque
pummeled
lawns
transferring
mmm
miaa
neurom
##aganza
underdogs
eruptions
sylv
confronting
pestpatrol
accomplishment
accomplishments
safeguards
baiji
alvaro
hansen
uneven
coronary
carrion
mentor
soda
grappling
j2se
gilbertson
enforced
philosophy
gabba
relegated
disturbing
camcorders
congratulates
arraignment
gamecube
bibby
balkan
tasmania
webcams
newfoundland
kwame
skirm
ciena
enigmatic
asserted
infertility
extravaganza
rueter
theatre
moderates
mellon
mccarthy
wholesaler
lauderdale
pancreat
flirted
bofra
xiaoping
reyna
chickens
mazda
astrobi
superhero
fertilizer
adelq
bolivia
grapefr
carcasses
hoosiers
telemarketers
sindelar
foresee
shrouded
unavailable
leopard
xilinx
schiavone
trophies
bridgestone
biffle
leroy
paxil
reuben
wharf
crumpler
electrolux
feisty
gujarat
vermeil
voicemail
flamboyant
doldrums
nifty
anelka
chidambaram
amherst
intraday
abkhaz
floyd
defibrill
sharemarket
deluxe
druyun
muralitharan
taiheiyo
misrepres
266
6b
6f6
auck
biss
cms
cures
cobb
canton
dul
dund
dense
eil
eolas
ferv
foud
gull
gau
iptv
jj
jal
jung
kry
kens
kga
kinks
lly
lse
lnm
mansion
miy
nand
null
nws
nipp
nacho
owe
pare
pals
pants
pnc
rj
rar
roc
ranc
rij
rumbled
sx
sidn
tid
tides
vail
vague
vuit
vett
vimp
wv
waged
yoga
zetter
##ege
##eira
##san
##corn
##bb
##bil
##gene
##het
##harg
##hati
##lical
##mus
##mother
##dong
##zhan
##pd
##pv
##pf
##vb
##vous
##vyn
##fu
##fore
##ju
##just
##jack
##jab
##jagt
##warm
##90
##inst
##inth
##inished
##onica
##ormer
##anu
##aru
##aric
##enet
##aton
##atec
ingen
##alis
toms
##itical
##stead
##rod
ants
angle
##iland
##asek
##oust
##isms
##etitive
##rep
stacks
stinger
fork
##acio
##acete
##acerb
##urg
rehn
reyes
reeve
##aday
##adas
##irth
##olson
##olete
##ottle
##utta
##vein
##users
##chen
##thro
##vering
##uno
##unya
bees
beams
beaming
beavers
isg
iscs
withheld
shank
shorts
shaw
shred
shamed
shiny
shipper
##agh
##ulator
unload
unbel
unstop
saic
saab
sailed
quez
leaped
levein
##aino
##ocap
exams
exacerb
##ounge
##emann
alcan
alarms
complim
enzo
hashem
agp
heyer
monk
##arti
frito
overboard
gtw
amare
amassed
secular
expatri
reseller
interaction
abimael
artery
aramis
##anyol
outfield
receded
coden
coding
adoles
finns
tram
tramp
traced
briny
bludge
blatter
no1
scant
crane
##imeter
##ollen
##ousy
manc
##assie
teher
teix
##odies
minardi
##aven
##avian
##hne
relied
strat
decry
deconstr
sohu
profiles
slender
carved
##manuel
openoffice
salis
conseco
##ashtra
##ussian
##usscan
makaay
suha
teresa
redist
##conference
assertion
impetus
regent
infin
confession
delgado
swip
dems
demographic
dok
scha
callvantage
drubbing
insures
feas
statewide
undergone
irin
irina
##wson
smacked
poster
gris
grues
traw
remon
remake
reminis
youhana
viking
##erted
##ertino
striving
hostess
cupertino
powerless
caliber
##otherap
emil
emerson
##ontin
whats
refrain
ticking
herd
herbert
154
153
antic
rox
costello
quicken
quickest
staring
armchair
studded
thereby
risked
patric
submer
subjects
virusscan
sportsnetwork
handoff
urls
charitable
netcom
##indy
evenly
closet
aspen
aspiring
##iffer
timor
darin
moratorium
geopol
homo
homicide
visas
labeling
realign
realty
realtors
mcnam
philanthrop
versatile
hartson
##eval
basically
turks
mainst
astana
##shirt
broadens
167
menacing
hammers
taxi
taxation
174
healthsouth
severity
portability
safina
donofrio
positively
capitalist
massed
embarked
forecaster
collateral
snocap
mailbox
authoring
clearest
blackhawks
organised
torii
grains
treacher
grandfather
performs
performers
lesser
stature
outlasted
malnut
classy
cypri
tomjan
##bride
##ettler
magist
bluegene
osu
osasuna
accountable
colleg
burks
232
220
utc
untapped
legality
civilization
berdy
prevents
squads
watering
groundbreaking
huns
browse
264
rods
introduct
identical
responses
automate
halls
halladay
shrines
romped
drawings
bloodied
happier
##uffy
rapes
choke
499
protestors
streaks
netsolve
kashmiris
reforming
poorly
llp
garen
telephoned
80gb
owning
outpitch
cabir
ebookers
occurring
favoring
411
dreamliner
obsolete
microb
espanyol
hurriy
unlv
surgeons
livewire
##ilingual
fortunately
honoring
bait
baig
fairfield
epc
friendster
ecological
penenberg
gym
sparring
512
burnout
spinners
unfit
promotions
##zyme
megast
reinvent
reinstate
bharti
##roller
mayoral
franchitti
ignor
primed
gaping
##breaker
instruct
trailbl
hui
tablet
699
combatants
organisms
slugging
wheeling
desertion
intensely
letterman
wizard
backups
ovation
ellen
rafik
calmly
pinstri
fleeting
beds
bedroom
graduation
duval
punches
##vicius
812
jamaican
albacete
##folk
rimm
googles
kilometer
marcello
##ezvous
faulted
cloudy
gibbons
gigabytes
diversify
913
akin
akhtar
lingu
falsifying
cosmonauts
breached
1963
unleashing
psychologist
pdt
reassess
lindsey
gpu
surpasses
##hofer
lukewarm
kaneb
pleasantly
jbpm
cripple
leaping
incredibly
coxless
mechassault
fundamentals
catalunya
avenge
griffith
isolation
prestige
visualization
loretta
breaststroke
discriminated
furnish
rehab
infiltrate
demolished
exchanging
gsk
mystic
kalou
historians
sympath
nafta
reaffirms
frenz
underscores
wipro
bandwagon
ucb
winnick
travellers
recipient
lesb
deflate
physicians
thumbn
literary
vanderjagt
perfigo
contradict
occasional
sequence
sequential
promoters
strictly
absorbed
vibrating
disagreed
jaws
resembled
brigades
sfd
enacted
illustrated
rcn
spacewalks
compatriots
coronation
eidur
inhabit
fetch
marquis
pessimism
answering
fasher
sobering
nudged
mathematics
enlarged
roush
contemplating
jeopardize
biblical
faxes
sargsian
inflammatory
loophole
rendezvous
viduka
interpre
nastase
guangdong
remedies
##f6f
unimpressed
enigma
infertile
extravag
perpetual
underestimated
paleont
urgency
neurontin
proportions
uncomfort
offensives
interpret
simmering
moussa
razor
cleansing
ojiya
schuettler
bureaucracy
carpenter
livestock
aqsa
yonhap
paychecks
urbina
ambulance
luther
fahren
nfld
compulsory
discourage
candlest
bloomington
shepher
overdose
disclaimers
mccullum
ruptured
vizcaino
ochoa
yokohama
servicemen
paraguay
juvenile
fitzgerald
misdemeanor
interlagos
futuristic
pitfalls
dortmund
qwerty
stargazers
impotence
grateful
headwinds
maharashtra
duplicate
tyrannosaurus
hordes
stmicroelectronics
wedgwood
carnegie
fourteen
respiratory
balcony
flextronics
muhammad
refinancings
saratoga
stubblefield
astrobiology
6f6f6f
auckland
bissau
dundee
eilat
foudy
gauhati
kgaa
nippon
sidney
vuitton
##zhanenko
rehnquist
iscsi
unstoppable
quezon
codenamed
teheran
teixeira
gruesome
mcnamara
treacherous
malnutrition
tomjanovich
berdych
5gb
bd
bum
bmy
cign
cary
dime
diod
ead
fs
fuss
guts
hoss
hatt
hemp
hiking
iter
iata
jared
jeline
kue
kady
kana
lends
lille
lousy
mey
mellor
nac
nug
nile
nass
nock
nons
ngu
nesn
oz
pell
pets
pench
pett
ponson
qlt
rm
r3
rade
rath
rosed
ripple
sre
sings
sars
til
tice
tek
tatt
tuls
tidal
tastes
uh
vain
wit
wich
wern
waking
wamb
wagon
yuri
zag
##rams
##rada
##cled
##ih
##iology
##bill
##nier
##gra
##gem
##hed
##lton
##lane
##mm
##mation
##dler
##zig
##pac
##pear
##pect
##kke
##kets
##kenn
##kova
##vre
##vir
##vol
##top
##tucket
##fano
##jour
##jaz
##wered
##wald
##930
thwarts
##onious
##onholm
##atan
##atable
inad
inund
inhib
##itech
##icc
##icy
ana
anad
##ilms
##asions
##asium
##oub
##elight
##elift
##isance
##ething
##etano
##omph
##reira
stove
stottle
fors
##adors
##adoes
##irming
##oly
##amer
##lem
##league
neat
##usions
##chal
##chkov
chore
chats
churning
##imos
bemo
beasts
##osium
shenz
shosei
unm
unans
unaffected
##riel
##rika
saul
sahara
quir
sp1
spra
leyland
##oco
exor
exting
seym
us50
##umin
encomp
enraged
##oots
##ivier
##ighted
hee
hex
heine
heather
monica
moniker
frig
acton
cling
clich
clings
claus
haar
##ryl
opting
amends
expedia
marketer
rests
resisting
abol
##ubu
outgun
groove
coin
coated
cozy
finuc
finjan
triton
##ameter
bray
brunt
pean
peas
peja
noel
scent
scint
scoff
scouting
scrip
perkins
perched
perimeter
##ilepsy
appreh
##oller
contempt
disarr
##assing
laury
lazy
##oding
flops
##izations
corv
corners
##avo
##hness
allure
playground
accredo
earmarked
##ankovic
relat
strings
airs
attracts
decider
corpse
moose
moises
annals
sooth
retri
sliced
defor
defected
carve
carney
##xtor
##angelo
governmental
planemaker
teraflops
##pedo
10bn
##ologically
redund
redshirt
assemble
confisc
austrians
sche
scholes
insult
feats
irb
irresp
salesman
boj
boff
boister
boasting
glitz
##inski
smiled
posture
gronholm
##urrent
linemen
weblog
knees
halve
halved
halves
majestic
testaver
payless
paypass
powering
olympus
calder
networked
edgy
eddington
roe
costume
continents
continually
filesh
filemaker
118
everest
armando
patina
patented
stocked
204
20gb
20km
concedes
subaru
chipmakers
##awk
booby
billerica
angers
idol
devin
devolution
##uxhall
iranians
despicable
storaget
goodrich
##forma
dared
globalization
digits
facelift
vex
homage
politicking
mcbride
directive
paes
##annah
marta
##retch
breaker
novost
transm
308
163
wherever
loong
modular
shortc
fielding
allege
analyzing
digitalnet
safest
donation
##byte
100gb
collects
hotbed
502
sprints
##peace
antiqu
electronically
torres
torval
torrent
skilled
blaster
championed
grandmother
winningest
caetano
messy
eras
greenpeace
eurostar
landon
statue
malabo
leveled
gunfight
tomor
accessed
whitewash
blocker
magma
influx
racer
racetrack
candles
shutt
burton
burgl
228
negotiation
junction
entity
rollback
saleh
chew
chewing
traveler
potato
civility
##valued
karen
##ajima
28th
##vertently
watery
motorists
hugs
cougars
262
26th
parkhead
benefic
citation
biopharm
identifies
tourney
knowles
dread
290
overtakes
circus
circled
mutt
flyi
bullies
scandin
sterne
313
victimized
explores
poorer
templeton
tolls
##naissance
garam
garrison
##maar
sadness
welter
##untlet
rescuing
kabila
caborn
tenet
ravine
crewman
frankel
khaled
322
326
coolest
ringleader
strol
stroll
excite
335
droughn
fortress
fortunate
logistical
plotters
splashing
industrialized
lifecycle
pentathlon
vauxhall
baer
vulgar
ladder
narcot
flashy
eleanor
epilepsy
ronnie
anticipating
salvaging
slamming
drafting
##myre
munitions
mrs
fani
fanned
pipes
wilco
priceline
petrochem
advantest
savannah
telecommunication
##otypes
disclosing
disclosures
jacqu
defining
bottling
bottlen
##jani
##ourable
##htaking
unsusp
unscheduled
plunder
unfinished
diameter
babson
##kaard
mirab
gymnasium
bullying
pathmark
birthplace
axis
mandates
mandaric
8220
olivier
clarification
trailer
mattel
frustrates
surrounds
tornadoes
reflection
brawls
preced
extremism
##workers
bridgewater
gadhafi
napa
observing
taller
570
breathtaking
unranked
conspired
pilotless
fashionable
commentators
sticky
democratically
btx
limitations
lobbed
dragons
icq
tanz
bundles
hopefully
gorge
assessing
assessments
awami
muammar
cdn
fledged
rhp
dwp
kilog
kilkenn
julia
julie
gauntlet
mdt
ambassadors
##aeff
daniela
danielle
ironman
adjusts
gigantic
courtship
encounters
buckling
berths
##ddi
belarussian
fabio
meteorologists
colonies
wrestler
830
sleepy
imagery
muddy
damper
dampier
metrodome
honorary
rosneft
dimarco
provisioning
lobbyists
pondered
jarvis
variations
fractures
hispanics
container
denny
denney
suburbs
sneakers
pleasure
ayman
nicholson
tumors
reiterates
shields
hsien
masterminding
averaged
bridis
merchant
diluted
comparisons
ingres
dinara
racking
weisel
amendments
valentin
lori
calculate
calcutta
cementing
skidded
autonomic
jockeys
jockeying
keenan
epicenter
enlisted
mixture
tajik
styles
revelation
mislead
translator
cadill
cadbury
detectives
codec
warranty
shakespear
symposium
barnstable
privatize
recruiters
jabaliya
brocade
fingert
pearson
reunite
hutchinson
nails
buddhists
icelandair
thoroughly
hodg
staple
reconnaissance
blacksburg
obscurity
physician
lungs
eroded
temasek
rebellious
simulations
gonzaga
prohibiting
nuisance
trounce
mesa
tempting
grantsdale
promptly
towel
peso
dormitory
##masters
permata
dwindle
deferred
scratching
hesitate
pesticide
terrific
bribing
maneuvering
seizures
humiliated
therapies
carbide
baffled
sniffer
sniffing
cassell
mulder
rationale
reinforcements
lieutenants
##222
molecular
molecule
cockpit
bilbao
purnell
stagnant
swallow
refriger
congratulations
emotionally
consciousness
sargis
retaliate
retaliatory
gizmo
korzhanenko
alkmaar
dignity
dignitaries
guangzhou
kovalev
kovalainen
telefilms
concorde
mirrors
meadowlands
hazards
amphibians
imbalances
ferencvar
binding
ddos
lundberg
yeah
renovation
fiancee
##umatoid
glamour
arrowhead
insolvent
imclone
dcxgn
cultivation
calculations
peacemaking
cicadas
olympiakos
ecosystems
hennessy
sceptical
trademarks
unconditional
pyramid
hakim
hensley
sturrock
qureia
plaintiffs
privilege
artifacts
wilderness
tantalizing
rheumatoid
leaguers
antigua
sidewalks
garbage
baptist
pawtucket
shaik
precarious
unexplained
dusk
fridman
pervasive
impatient
relevance
derivatives
reinvig
boulder
zardari
##first
invisible
005930
vigorously
pinault
hermanson
maldives
grapefruit
abkhazia
kenseth
rijkaard
vettori
geopolitical
hunsicker
hurriyat
furnishings
frenzied
inhabitants
candlestick
cigna
jelinek
kuehne
kadyrov
nugent
penchant
rosedale
tulsa
wambach
inadvertently
stottlemyre
unanswered
seymour
heineken
disarray
lauryn
boisterous
testaverde
storagetek
torvalds
biopharmaceut
droughns
unsuspecting
kilkenny
ferencvaros
4x
aaa
bk
bak
bce
bally
bby
bsc
bgp
cern
dn
dion
dess
ee
eich
fries
gel
gast
gpr
gao
gbyte
hugg
hoff
hobbled
iq
icons
jds
kombat
lil
mlad
mbn
masc
mforma
ng
nah
nurt
ninet
nune
nabil
osh
oler
ought
por
ply
pome
pse
pota
pizz
pouti
rows
riders
s2
sall
sob
sections
sisters
tft
tik
tangled
uda
vip
vans
vocal
wand
wax
wasting
yank
za
zy
zanu
##rater
##swick
##cry
##czy
##creen
##bath
##bands
##nu
##nat
##gang
##lb
##liss
##lio
##laus
##llier
##dart
##zl
##zoo
##ple
##pton
##path
##vill
##vial
##tn
##fp
##xpo
##9m
##100
##33
thess
thumped
##onville
##orie
##antha
##arium
ingers
##alanta
##itoba
##start
##strous
##stellar
##icter
##robe
##elong
##isely
##econ
##idi
##idan
##idas
##reach
andean
##entz
staking
staked
stanton
##acity
##uritz
reinc
##adot
##adze
##oticed
##utam
##illating
neon
neiman
##owl
##owitz
##chool
##chhofer
chis
chester
chili
atah
atrac
atalanta
##imura
progn
prowl
pray
prist
pratt
prayed
shing
shiv
shud
shib
shimb
##agi
##agelabs
##ulin
##earm
unorth
unicom
##rik
##riad
##rious
##rief
spiders
lefors
##istication
##ainian
##ocating
exited
exiting
itv
pla
plaza
plucky
sealing
seething
bytes
alain
alps
aljaz
##ivision
##ostar
weathers
monrov
monstrous
afterth
clocked
hazy
hauritz
##abouts
opforce
##obal
##ifier
amus
amves
expir
intran
interstellar
sergin
goose
orl
orin
outrun
##ordination
coordination
trumped
brat
blush
scorn
cron
crumble
disables
##berries
invasive
elvis
mania
manitoba
##asset
##oda
canter
flashed
minh
corks
phony
phantom
accenture
reliant
warrants
stricter
attrition
slay
whooping
defines
electing
electroc
electrif
mehdi
backwards
backbone
commence
commute
##gran
carbo
descent
desha
##asha
satan
uniteds
maxtor
paras
parap
parry
preempt
norfolk
fuller
assessed
genre
##elsmann
delights
swo
swan
swiv
swollen
demoral
schl
schne
insect
russa
barbs
signalling
longstanding
postgame
buybacks
buyouts
grill
traine
rave
trousers
heady
headset
##ooting
##cture
kne
##ronts
operatives
strives
depp
gregan
finalizes
payback
payoff
##linger
nowak
powerpc
emitting
belly
provoking
extras
extrater
centrist
##ientes
streamed
federally
makeup
imlogic
nasas
wayward
effice
11g
howling
##venth
starved
therefore
patr
patron
conclus
footwear
dried
singulus
moveon
1220
pakistans
walchhofer
doulton
##claw
approvals
charms
netapp
wrink
##uxan
actu
closings
keyboards
restrained
restatements
desperation
timeline
morientes
digs
facial
radek
geologist
##ovych
realities
strahan
evid
paerson
##annou
##annett
popped
popcorn
myriad
bashing
divides
broadening
transco
humph
179
modules
shorten
jeers
fieldhouse
distaff
donated
superv
robbers
robredo
successes
snec
eston
50th
fastow
revved
##scrap
##peak
listened
listless
doctr
energet
simulation
##ija
torment
torched
shotgun
##dais
##unga
messagelabs
millau
statistical
malt
malik
malden
##ceptible
houllier
coasted
##oona
sharpens
believers
differing
juices
inflows
dispers
osborn
heartland
227
entities
pottery
artistic
affirms
murky
274
squared
mortality
expressions
cpus
ivanov
royce
##gaard
rodman
youngster
##forge
pitted
withdrawals
spanning
hallowed
funner
frontiers
romano
299
widelo
bloodbath
archer
archie
happiness
happily
boxboro
##posts
overseer
311
316
toughen
kohl
griese
tempers
paints
verdasco
layup
encirc
carolinas
weathered
progressed
progressing
songda
croom
ebbers
tenuous
occasions
representation
skyscrap
crab
persists
misman
auctioning
catap
optimized
325
excav
madness
deploys
nikol
virtues
334
339
drown
commonplace
459
388
momentous
holdsclaw
landsc
ladainian
origami
eleventh
ronin
toymakers
seventy
alterc
munc
niners
wilbur
savior
socialists
fatally
##genband
bottled
misty
venge
attendant
punters
aliens
trustworth
bookseller
magazines
prelude
eliminates
donaldson
unsold
educated
chemotherap
inquiries
trucking
institutes
rubb
pistol
gordo
bulging
impressions
encouragement
sponsoring
reverses
axes
ratio
heaviest
nicklaus
375
solaris10
contesting
shanahan
##pyware
gala
gardena
corrid
norms
precisely
boomer
presentations
remembering
taped
discounting
1974
1979
postponing
frog
bertelsmann
piloted
tunn
varied
horrible
dustin
tagged
acceleration
swingman
9500
converge
scoops
bedford
fools
foolish
sophistication
documentation
evolutionary
micky
rhat
otc
prescribed
blazing
prospectus
gautam
sync
objectives
bruise
portfolios
certance
certify
scanned
ramps
matheny
wealthiest
stuffed
adjusting
patrolling
immigrant
busts
bustling
fuelling
bombarded
noticeable
proliant
yellowstone
fabled
simplified
1969
bakery
topples
feehan
stalinist
aviva
hybrids
squeezing
nabi
inkjet
silvan
silvestre
videotaped
appointments
gangsters
maurit
riverside
convene
unconsc
purporting
pleasanton
correctly
nichols
collectively
reorganize
slimmer
sheridan
revamping
dugway
scarred
salvadoran
breathed
podsed
105500
105222
sabotaged
hiked
loren
stabilizes
depths
morrisons
alienware
boucher
concentrations
antispyware
rehire
##6599
dueling
unnoticed
brunswick
ruddock
##oopers
bulldo
bsx
boutique
jabs
ethiopian
archaeologist
hindi
conquered
recreates
reclaimed
bentonville
shaheen
a380
obscen
##charged
reeled
bloomba
lodging
##ogenics
vigilante
lennar
shuns
appreciated
starkville
bunker
pragmatic
acclaimed
rituxan
echoing
towering
bourdais
lapses
volcanoes
pausing
deafening
gladly
grinds
confronts
archrivals
khalifa
densely
hogan
pittman
illustrious
redeployed
defraud
homemaking
mammals
preference
grapple
garageband
ponte
downplayed
1216599
1855
cbms
creep
zigbee
##grove
neglected
lambasted
mizuki
mizuno
upturn
ailments
hoogenband
inherit
suicides
speculators
unfortunate
swallowed
discontinue
discontinued
morgantown
interpol
utterly
scholarly
transparent
remedy
skirted
ratchet
yanukovych
wiggins
##building
chinadot
structures
imbalance
udinese
inboxes
cryptic
hustle
ineffective
applauds
resurfaced
pimco
uninsp
unforg
consistency
supervisory
incompetent
tahoe
envelope
armenia
cheetham
unlawful
precautions
chastised
fabrice
aetna
vouchers
beetles
overruns
daytona
mcclaren
unsuccessful
contributor
eskimos
algorithms
nebula
lefthander
arrogant
detractors
voltchkov
atherogenics
kadhafi
wiltord
receipts
purveyors
mutilated
chimpanzees
##4780
beersh
reproductive
underperforming
tulane
enrollment
gyurcs
dotinga
kagame
sanyo
stoddart
unresolved
upheaval
intifada
manifest
markdowns
alleviate
krypton
vimpelcom
unbeliev
bludgeoned
salisbury
grisly
reminiscent
mainstay
cypriot
pinstripes
thumbnail
interpreter
fahrenheit
pettitte
radeon
wichita
anadarko
finucane
deforestation
novosti
muttiah
garamendi
welterweight
narcotics
mirabelli
gprs
mbna
nunez
olerud
pomegran
poutiainen
tikrit
##czyk
ingersoll
aljazeera
monrovia
amvescap
intranet
serginho
carbohyd
extraterr
conclusions
12204780
doctrine
wideload
chemotherapy
podsednik
10550054
10522295
12165994
chinadotcom
kryptonite
aus
aunt
aisle
bies
bard
bere
bose
bpl
baked
bpm
bitten
bugging
cort
dare
dah
dents
dough
dude
dmit
danced
dpa
dizzy
eter
eure
eps
fn
fom
fended
gir
gup
giv
gins
geb
gwal
gabe
ginter
hect
hiz
hals
hines
hds
hicc
iro
ike
jm
jil
jill
jaff
jankovic
kre
kig
kip
kamp
kang
kild
kinn
kvs
kddi
lent
lup
lite
lual
lips
lcs
lcos
nld
nate
nasser
nips
nforce
naimi
oo
oven
pam
pong
pcl
pne
picket
paves
pager
ppc
rd
rant
ripp
rented
rifts
ropes
rendered
sich
sizes
sfa
sierre
tian
tcs
tadic
uml
vor
vest
vag
vass
vorn
wail
weld
wears
wapping
yr
yo
yul
zhol
##eid
##ck
##city
##count
##comb
##bin
##bots
##bara
##nis
##now
##nment
##git
##hra
##hive
##hub
##lind
##mil
##mill
##mem
##mount
##moon
##miya
##oan
##ohn
##uously
##dr
##zon
##zbollah
##pile
##pping
##kward
##vara
##ti
##tas
##tok
##far
##fix
##fried
##fronts
##wk
##wilder
##yr
##8th
##16
##63
##erman
##ergaard
thais
##inj
##anon
##anity
##anxi
##edge
##atical
##atta
##atunga
inns
##alen
toff
##itives
##ilh
##iona
##eliver
##isite
##ecc
##ecq
##ecured
##ecret
##eties
##enthal
stair
stump
stink
stokes
stoning
stosur
forc
##uru
##adel
##olving
##tsdale
##leas
##utive
neergaard
##cho
##chner
##chitz
##chino
##chka
chrome
chiao
##thia
##rages
##raught
asu
asians
ashe
atlet
beaks
bekel
bewilder
deja
pritz
shir
shack
shapes
##ulously
conceived
##andum
##andwo
whips
unth
unites
unde
uneth
unjust
##rive
sax
sails
quash
spiel
leip
leahy
##ocese
exh
##ems
pluck
plume
##apatt
sev
sepp
bystand
byproduc
usp
useless
align
##umonia
compil
enm
##uppl
agence
##oree
##rombie
##ostic
wording
hezbollah
upends
##ipov
frant
##ellick
##ials
acre
clu
cloth
ltte
##abis
##abble
##abody
incap
incitement
amending
amcor
secession
##ensen
##ensohn
resounding
reps
interrupt
abys
aberc
##ubon
indeb
inducted
induced
##icky
arise
arnes
aruba
gros
cove
finder
trench
peabody
noor
noisy
sc2004
firsthand
perrig
performer
crans
crpf
##orkman
##orkovsky
##ideband
##ichi
contended
presided
disable
disability
disabilities
teem
##oder
##odorkovsky
canned
floppy
minut
minmet
minivan
corel
php
allergy
playback
sunil
##anki
relishing
relinqu
microw
warms
warburg
helen
helix
weeklong
##adeh
strzel
airsp
attitudes
investcorp
moy
moor
retros
retrie
slots
slapping
endow
meek
meager
sys
syner
backcourt
commits
carlo
carphone
openly
sharipov
salute
designing
conserve
brow
brooke
planner
suites
##ughts
##azion
##azaki
impart
impacts
regents
regards
daylong
infield
infighting
confection
schiller
callaway
dres
drenching
triangular
irfan
iressa
boasted
boingo
systematic
smear
israelnn
longwell
##ernity
grat
grudge
traps
traumat
headfirst
chiefly
##auskas
webmail
helpful
ifx
##eeter
depaul
grebb
##tedly
finalise
payload
calorie
emulate
emmanuel
bellev
johnston
herring
stewards
edison
holly
imi
filters
windy
11a
foundations
drugmakers
##heads
quicktime
patel
20m
208
footprint
subt
subjected
##awei
passive
mercer
mervyn
advises
lookout
127
##clusive
detains
handwr
urine
netline
netbeans
##inda
seng
westward
devotion
avid
avaya
aspect
solanki
storability
goodison
timothy
steppes
firepower
womack
instincts
visually
banana
suck
mcman
phils
boosters
evap
evolve
pawn
harmed
poppy
##after
martz
discred
breakup
breakout
domecq
25m
25th
183
162
169
161
judged
##esha
loop
financials
severed
mettle
distort
florent
wellesley
safm
chicks
superf
superdome
embold
numbered
ledee
colliding
sprink
authorizing
touchy
polluted
pollsters
valero
##goers
blackout
ballet
documented
employs
##ikevicius
stoppages
216
gravely
macdon
islamists
orderly
caff
cautions
messman
##ippo
greenland
camar
camara
silenced
malisse
freire
damb
coaster
toolbox
volatility
cycles
pleasing
purple
##brun
##ooni
copenh
##attacks
frail
##rawideband
furor
favourable
238
226
woodson
woodbridge
untested
potter
karnat
flightless
waist
waugh
convicts
##ajev
squel
figur
birding
machimura
screams
wildfire
eventful
budding
hallmarks
treasures
frontbridge
romney
29th
audubon
mutiny
flyer
flyers
vsnl
crowton
traffickers
ramanna
complicate
##zzy
reformed
reformist
crosses
pictured
marchers
mixing
shootings
platoon
nonpart
inspected
integral
shaath
shaanxi
castilla
problematic
siena
persian
persecut
auctioneer
4100
sonny
##eryl
khodorkovsky
ringed
madh
benz
dangerously
droughts
logitech
resolutions
plotted
splend
splashed
lifelong
yardage
gatherings
coward
pedestrian
beckons
scottsdale
lotus
silverstein
materialize
beachings
taunting
partnering
ethic
sensit
cyberc
francesco
unseen
1985
420
hawking
hawkeyes
diets
inquirer
sleeve
truckload
dungy
ruben
transported
hdd
migra
referral
crowns
jonas
substit
mirant
revolutionized
dogwood
erratic
igniting
ignites
660
recognised
lineups
jerseys
cannabis
occupying
instructed
instrumental
8221
mccoy
fitted
astronomical
huawei
tornado
ultrawideband
czr
molestation
ashado
measurement
560
##hadov
unruly
beefing
sprinting
sprinted
bonn
unwind
unwitting
loyola
dissolve
cambodians
lobster
lobbies
tagmast
ovarian
apologies
elliss
photographed
joschka
loyalist
lauran
bedou
memorandum
firewire
scrappy
awkward
escalade
riddick
watershed
rhodes
dwango
hijacks
prescript
bosnians
havens
julio
retreating
dedication
##walk
forgeard
bruandwo
overwhelm
unchar
coordinating
barbec
barbie
adjustments
adamant
trooper
buttons
dotted
ichat
disciplines
functioning
fuzzy
911
9300
masks
masood
masquer
festivities
mediate
pours
honeymoon
intruded
jolt
dampening
renaissance
wolfensohn
unpre
queues
paralyzed
gripping
intellectuals
sepang
elders
overcrow
observance
reassured
consultations
videotapes
gems
culinary
pigeon
examples
sneaker
lexington
stonehill
foam
foils
echostar
populist
umts
toxins
skinny
streamcast
masterminded
whistles
interceptor
ditching
supersonic
characterized
vigorous
hiatus
pumpkin
bjorkman
robben
wrought
##global
harshest
cyclists
kellen
lorenzo
barclay
transplanted
municipalities
clergy
artificially
kitajima
reconstruct
kalu
beehive
honoured
counseling
tatters
drifting
privatisation
caymans
excludes
permitted
reunification
ossetian
kerber
placid
reclaims
emphasize
shahab
composition
miscues
papua
feuding
glasner
dishes
scouring
physicists
exceptional
alpha
wyoming
plummeting
gonzales
prohibit
prohibition
intervened
understands
stabbing
hyperion
rattling
umpires
trounces
tempted
voyager
stresses
gentler
absorbs
ljung
pummeling
bartolo
neuros
grinding
kahne
mbps
brigand
puzzled
whisky
spartan
coroner
quadrupled
fijian
trenton
firefight
##brenica
ridiculed
prefers
snubbed
penetrate
baffling
creeping
creeps
maskhadov
hoyas
jagr
vcrs
##watchers
reckons
scalp
reinstatement
nwac
sixty
gabriel
unraveled
undertaking
contextual
ascension
opsware
mannheim
cesare
mimics
videsh
stimul
aborigines
grammy
jardine
beverages
agonizing
woeful
ecstatic
nicknamed
pieter
##builders
franz
interrogation
infantry
swirled
videogames
##storms
rebuked
urgently
distinguish
amphibian
sicilian
offensively
aggregate
zoellick
overcharging
hoopla
rekindled
residences
orangut
irrepar
abductions
rosters
uninsured
consistently
cynthia
incompetence
hobbyist
hologram
lecture
outplayed
somerfield
culled
unreason
recaptured
eminem
belatedly
dyslex
nexen
hypertension
jasikevicius
intermediate
rnwk
reprimanded
contraceptive
danske
fosters
##aloniki
chunks
overfishing
archeologists
miraculous
fouled
ioannou
iwata
qanooni
zambia
expenditure
barbaric
handshake
djibril
antibiotic
cunning
merseyside
rabbis
shambles
watertown
fervor
jungles
miyazaki
trammell
mancini
deconstruction
redistrib
anticomp
collegiate
lesbian
uncomfortable
shepherd
hempstead
kanaan
srebrenica
haaretz
scintillating
scripps
relativity
retrieval
confiscated
irrespons
tomorrows
beneficiaries
vulgarity
jacqueline
shakespeare
plymouth
sallie
thessaloniki
shimbun
unorthodox
amusement
orlovsky
efficeon
snecma
energetic
altercation
muncie
vengeance
mauritania
carbohydrate
gwalia
halsey
pneumonia
sichuan
vornado
zholtok
atletico
bekele
pritzker
bystanders
frantically
abercrombie
indebted
arnesen
perrigo
minmetals
strzelczyk
airspace
bellevue
macdonald
copenhagen
karnataka
tagmastore
aur
aiy
boc
berry
besh
cx
cly
cide
cav
cib
cech
cooks
dwa
dns
dla
ej
eut
eman
ego
eweek
fay
fester
gc
gue
gels
gimm
gannett
hig
hock
hooks
hobb
hinge
iea
jou
jbl
kol
kud
ld
mce
mocks
mular
mocked
mecca
nil
naw
nahy
npd
osc
p4
pec
pant
penc
pony
pbs
pinc
pinn
pbh
qur
rv
rag
rents
rapped
sizable
sifford
tk
tpv
uks
vom
vfl
vogue
v10
voller
wu
wives
wishing
wyn
wobb
waca
xpress
yass
yelling
zing
zito
z500
##rish
##ridge
##sk
##search
##cu
##core
##cence
##coring
##iom
##iets
##iencies
##bus
##bble
##gt
##gust
##haus
##hooting
##augh
##aels
##aws
##lit
##like
##liest
##mull
##mona
##oit
##oitte
##uels
##uhl
##uho
##urous
##uatu
##zine
##zier
##pida
##korian
##vest
##vail
##fell
##fied
##fica
##fner
##jury
##yaf
##6000
##7m
thes
thud
##inable
##inement
##onimo
##oriously
##anis
##atie
##atica
##alan
##aluation
tol
toon
toured
##itism
##stant
##staking
##sticker
##icensed
##roid
anom
##ilenko
##elassie
##isel
##ecard
##etical
##reb
stout
stale
forgo
forearm
reay
##olar
##amity
##amine
##utaka
390
neum
##usable
##chan
##cherty
choo
chern
chapp
chases
chides
chees
chvez
chimp
cherie
chanted
##estop
##estine
asa
aslan
asahi
##unit
##unas
##unet
atapatt
##imer
##iments
##imming
beige
prow
prover
isuppl
prays
prong
prso
praying
shave
shockey
shuja
shepp
shouted
##agmire
##ceva
##uld
conund
##andled
whacked
wholly
unice
unint
uniting
unda
unification
unreal
unaware
##riere
saur
quetta
quagmire
##terswe
sph
##ocs
##ocera
exuber
exeter
##astair
itxpo
##emon
plates
plagues
usability
alst
alge
alamed
aligning
alastair
##umns
compr
compt
compute
composure
##upathi
hash
##ighton
heik
upwards
upstate
monter
monks
##uca
##ucked
fry
frisk
fraser
afterward
acura
clan
clab
haj
haired
haji
haunts
overp
overload
overweight
firestone
amy
marid
marquez
intimate
interm
winnings
indices
induct
arco
##antnam
outlining
outcry
recounts
recreating
groves
coh
coch
coax
adage
adew
adnan
tresc
brash
blan
bliss
blument
pekerman
scold
##achan
##achal
##achines
##achows
##achuk
perch
perjury
crust
crank
append
appropriately
moreover
disconn
disgust
elia
elaine
mankind
##odulation
canwest
corzine
##activity
##avit
##aventure
oils
allison
thanked
playmaker
playlist
accred
accoona
##ulloch
relation
micah
warmed
##mert
strachan
markko
decker
decorated
moe
moet
mohan
buena
##ointed
defection
defroc
lib
liech
endanger
mehm
caravan
##mania
openings
openpower
sharons
securely
brouss
##ussia
makoto
monthlong
##ibo
plano
downp
downtime
softens
souls
mauling
parrish
redman
norils
ministries
workman
workings
columns
gencorp
genetics
taleban
businessmen
##cots
median
meddle
infects
confinement
delh
deloitte
nightmar
sword
swaz
dove
docherty
##hips
announcer
schiz
callahan
inserted
##msong
irwin
irelands
boast
boils
guantnam
smother
smashes
##ultimate
greco
sayyaf
trauma
profiting
giancar
headway
telecon
linear
webcast
vii
##iams
hitman
computerized
##wayne
deports
deprec
nationality
finalised
countryside
testifying
rebrand
calamity
susceptible
goof
hopkin
herron
costliest
##sex
cutter
brews
brekke
everquest
putts
injure
injecting
octop
geronimo
tito
stockton
subtle
drizz
rounding
merits
wwii
advise
12bn
verb
verified
verifying
##sonian
detectors
billboards
unionists
##eba
##iversity
angles
anguish
angulo
wrenching
ids
speculating
avis
davanon
reston
despatie
solich
solvency
##minster
lowry
##pared
betr
betty
steppe
michaels
scorching
fundra
geiger
geological
videoc
##ovis
footballs
labonte
sudans
realise
##downe
rocking
mcgin
arrange
evan
evaded
evoked
paige
##dsvb
failings
harold
drain
draped
131
divul
##inko
##inkable
turbo
domachows
broadway
transp
184
humve
30m
processed
whereabouts
sourceforge
possessions
frenchwoman
jewell
portray
watchful
distraught
litres
posh
posada
successors
collector
tyres
msu
sniper
estates
fasting
[...]
