[PAD]
[UNK]
[CLS]
[SEP]
[MASK]
!
"
#
$
%
&
'
(
)
*
+
,
-
.
/
0
1
2
3
4
5
6
7
8
9
:
;
<
=
>
?
@
[
\
]
^
_
`
a
b
c
d
e
f
g
h
i
j
k
l
m
n
o
p
q
r
s
t
u
v
w
x
y
z
{
|
}
~
¯
°
´
¿
à
á
â
ç
é
ê
í
ñ
ó
ô
ú
ü
ā
ō
–
—
‘
’
“
”
•
…
➡
ツ
️
##m
##e
##r
##g
##n
##c
##i
##s
##q
##o
##l
##u
##t
##f
##a
##d
##p
##h
##b
##v
##6
##0
##1
##7
##8
##x
##9
##3
##y
##z
##k
##j
##2
##w
##4
##5
##í
##ñ
##á
##ú
##é
##ó
##ü
##ç
##â
##️
##ō
##°
##ā
##´
##ê
##ô
th
##er
the
##in
##on
##at
##en
##es
##ed
##or
##an
##ing
to
##al
##ar
in
##it
an
##ou
##is
##ic
of
##as
##ion
and
##ent
##id
re
##om
##il
##re
##le
##ot
wh
be
on
pr
##ut
that
##ly
for
##st
##mp
##ve
st
##ur
##ac
##ay
##ig
tr
##ad
is
##ers
##ol
he
##ow
##et
##ation
##se
##ct
de
it
##am
##ter
##im
##ld
##ate
##ir
##ill
sa
##ce
con
as
##ver
##ump
##ith
was
al
##ment
trump
##th
said
##us
with
##op
sh
##est
##el
fr
##ch
ne
se
at
com
##ist
ch
##ess
##ere
un
##ul
##pp
ha
##ould
##oc
we
##oun
##ort
##ak
rep
##and
su
##ge
his
by
not
##ain
##os
has
##ia
##un
le
##ial
##art
##iv
##ity
have
##igh
pres
##ore
from
##ident
go
ab
this
are
##ies
who
##ican
ex
##ack
##ub
cl
##ive
president
sp
##mer
##ie
##ant
20
##out
or
##our
they
##ary
pro
##ust
##ud
ag
me
pol
##ab
##ight
##tr
en
##all
##if
but
##ear
ad
off
##day
##ubl
##der
new
##ign
af
would
##ice
##ction
##ton
##gh
##ian
##ast
##ost
##end
will
##cc
##mb
cr
wor
##ok
##ich
do
all
ar
don
ca
about
##ome
br
##od
##ag
201
pe
##ib
out
state
you
##ence
##ik
their
gr
had
##ect
part
tw
##ell
res
##ally
pl
##iz
##aw
##ates
##ard
ob
##ous
##age
been
##ople
people
##ip
year
##ong
##her
##gr
##ations
republ
##ite
coun
no
were
inc
##ald
more
republican
##hing
she
amer
int
her
dis
##ated
after
dem
##ee
which
up
##ough
##ire
man
sec
one
##vern
acc
say
##ide
ele
##man
govern
##ap
##ake
mon
##ike
so
##itic
can
comm
##ther
if
over
##au
us
##ions
inter
ev
##ail
##act
sen
##uss
##ure
just
exp
##ding
##ime
im
##ey
what
att
##ace
##rat
##ue
##pt
app
##ass
##em
bec
when
law
##ose
##ff
there
bl
##so
any
vot
obam
##ob
per
comp
##ile
also
some
him
its
##ited
##ound
democ
clin
##own
supp
government
##uters
clinton
##ks
##ouse
co
offic
reuters
inv
like
dec
##ine
again
##ict
##ans
##eral
than
##ree
democrat
report
##ade
donald
house
obama
our
##itt
##for
camp
rec
fir
te
min
##uc
##ame
fe
call
##ied
##qu
##are
##ec
##ish
##ens
states
##one
##erv
cons
russ
how
##ition
sc
other
##mber
mar
##ational
str
kn
could
countr
##oll
american
them
##ors
##enc
lead
election
get
qu
##av
##istr
##ance
act
politic
ind
right
##aign
campaign
##king
##ra
##ked
news
support
##ase
bill
##ert
united
##ro
mo
##reat
told
med
into
did
cour
##ult
white
imp
##00
dep
##ause
##oup
back
pre
under
##ook
##um
sy
##ory
reg
##oss
##ang
official
against
##oin
##lud
##min
##err
two
ever
##ues
because
##ious
dr
last
now
am
time
fl
cont
##gress
war
fin
def
party
ass
ref
##iss
##ning
##og
##ilit
may
##uring
nor
op
includ
conf
##ach
##ond
##able
##ments
wee
ta
want
first
##ned
group
invest
##iew
even
only
##lear
washing
hill
washington
rel
should
day
bel
bet
##ative
##ince
former
prot
country
resp
##oy
##leg
car
publ
##ons
contr
##fore
while
##form
most
##ives
see
being
##ica
##ep
leg
milit
##ty
national
##aking
##oint
##ents
##sel
des
##ft
hillary
court
during
imm
##ery
before
show
##cr
##dr
secur
years
##ings
mill
##vel
my
many
##ret
##ru
rem
know
gen
##we
##cent
every
hel
##ick
thin
media
tax
bus
par
security
attack
##atur
sch
##anc
week
##old
##ope
##erson
congress
##itter
admin
##ating
##ah
##li
made
wat
need
ins
##arg
accor
##ual
##orn
##wn
##ina
political
wom
percent
##ful
police
those
##igr
ph
work
public
ban
##ists
fun
mu
where
##other
tur
make
ir
ma
way
thr
down
##ities
##ork
month
##istration
since
gu
wr
tal
##ting
##ism
iss
2016
##ency
twitter
opp
investig
##ying
##ath
##air
according
russia
republicans
##ower
does
end
terr
these
ro
fed
put
##ased
administration
going
##ood
##ved
then
here
##way
presidential
very
vi
##ible
america
cent
ear
north
polic
##ug
plan
##omin
via
##oth
##ise
##ief
2017
democratic
##con
##ds
##urr
help
adv
called
dire
##res
senate
##ior
cor
prov
##eign
##ical
depart
##view
mat
##gan
bar
well
det
world
long
high
##ange
19
post
secret
think
eff
##alth
##ween
vote
##ution
##led
between
cand
##urs
##ister
including
##ether
take
committ
officials
conc
##uth
##ected
candid
id
##lim
col
fam
prop
##iff
meet
isl
##ator
deal
office
serv
##io
##ants
##ily
##ision
federal
military
##ind
direct
such
russian
##ently
##nes
foreign
spok
jo
own
syr
disc
em
viol
million
cla
statement
##rem
bu
department
##ces
ser
sign
##ts
000
##iness
let
kore
mus
lat
through
immigr
run
look
##ady
inst
##imes
contin
maj
##az
##ward
fact
##hn
prob
##ctions
##ern
ret
saying
major
intern
##hip
commun
##ands
##osed
fo
##uesday
tuesday
##xt
business
econ
your
econom
add
##mbers
##ry
ann
big
##lin
requ
trans
black
sou
##ized
spe
##iday
##owing
eur
##son
##ility
claim
##vers
person
hu
much
wed
bo
ra
##used
both
point
ve
vide
says
still
press
critic
##ock
##ention
##ms
kill
har
real
quest
nomin
health
##als
china
bre
order
another
clear
power
elect
left
belie
##ave
conserv
soc
image
##ling
terror
##med
muslim
far
jud
sub
##nesday
wednesday
##ving
200
set
iran
il
repres
win
women
air
compan
watch
city
##pr
minister
##ene
##ursday
thursday
though
friday
policy
##ually
found
sm
foll
three
##nn
rul
general
nu
democrats
lib
##ced
asked
inf
rele
head
move
monday
threat
happ
york
leaders
chil
##ash
sur
americans
san
islam
face
som
pay
deb
secretary
committee
##ather
sup
miss
ant
##osition
rights
##its
good
##ages
##ife
ed
job
##uct
##ests
pass
video
##ened
prom
arr
##gram
##iate
chr
##ead
ac
represent
inform
##ised
##ull
##ered
si
##eep
##ged
##ular
spec
bor
program
fight
john
vis
next
sour
cap
##ool
cond
never
##aff
##atured
europe
main
##self
el
case
interview
why
##acy
##ets
beh
##ner
whether
old
##ense
auth
top
##atives
##ained
members
prev
sl
spokes
stand
##ute
korea
poss
##ending
same
##tern
##les
stud
##ional
appear
reported
##bi
##ted
##ever
den
featured
won
organ
senator
cit
emp
##ided
gun
around
great
est
##te
es
email
author
leader
effort
alleg
##ivers
##ices
start
diff
##ines
lo
use
candidate
##ven
##ize
##ves
const
sw
south
billion
##cept
##ued
pa
allow
##loy
fbi
near
##ject
come
gl
##ellig
##isl
sever
jan
pic
##ified
intellig
##ested
somet
legisl
rest
char
##emp
loc
curr
hand
took
times
care
##erence
##ific
without
school
rac
##ared
stop
##iving
twe
##ians
mark
intelligence
investigation
##eech
social
refu
##gy
speech
countries
consid
##ord
used
##uclear
##thing
money
really
buil
expl
##ital
##stem
meeting
system
oper
nation
appro
##ote
nuclear
justice
exec
ter
##reed
keep
ste
##erman
anti
trade
proc
##ont
agree
syria
brit
information
vict
sun
play
##ps
##imin
10
free
##uck
fail
change
mor
voters
##gin
##ody
four
chief
family
human
mex
fox
##ount
open
fil
decision
international
21
discuss
##imate
la
pop
##ber
##ially
read
announ
got
execut
ira
sent
##ony
##ier
christ
tell
sand
poll
however
iraq
tak
illeg
priv
##ready
already
refuge
story
days
sus
too
hist
director
sex
home
question
import
##ew
##ury
several
ext
organiz
cre
groups
##aring
##ress
##olog
##mak
must
place
conv
##ason
conservative
##reme
repe
among
##ico
control
immigration
##land
comment
aff
mcc
##rupt
##ived
cru
agency
list
fac
##dren
months
##ering
##uly
desp
civ
##idence
##ures
today
relations
border
prof
##iven
incre
##ides
mich
something
ent
##att
host
past
protest
didn
neg
children
##bs
##ended
##rael
##ocu
citiz
israel
invol
march
likely
wall
##ale
##ank
view
##ators
legal
cut
##ral
issue
barack
seem
##ought
red
##ics
sunday
hol
civil
based
hard
doesn
##uary
financ
believe
might
##iously
came
pat
##une
acr
step
##eng
things
sho
##ush
##ising
night
recent
eu
islamic
number
german
cover
least
##lier
proble
##urn
later
fund
sanders
supporters
hun
tweet
mid
member
##gg
seen
lawmak
chair
cnn
##udi
stre
susp
##itution
colle
##ament
making
##iend
yet
##epend
##orney
independ
matter
attorney
defense
##amp
working
##get
prod
bud
added
few
rece
killed
earlier
distr
unt
economic
speak
mass
confir
mr
close
reporters
staff
##ph
univers
##mar
trying
##ames
activ
##trump
laws
strong
##ness
##ired
cruz
ide
emb
net
##ittle
pot
sit
ur
##wh
ge
second
2015
##ember
led
employ
er
comple
little
executive
spokesman
result
##tt
charg
give
become
attacks
went
##less
cal
violence
mess
held
##onald
actually
coal
##ison
##reen
##unch
turk
january
##iting
##par
known
docu
met
##yan
##isc
thing
himself
nothing
away
15
fur
lar
##aly
##ically
team
attemp
ce
oct
senior
until
class
process
##iet
##over
hal
##up
forces
##ertain
shoot
life
##ished
men
##line
cost
european
union
##ott
##ades
tra
sept
arm
death
governor
##ann
doing
local
##use
##fe
mos
##ipp
july
##crib
concern
arg
following
partic
targ
action
##yp
event
majority
rad
remain
##oad
respon
force
judge
##book
friend
nominee
once
##ees
##oub
prime
##sh
illegal
issues
taking
along
test
lot
insur
private
eng
less
rob
ll
##istan
11
av
##ission
community
##thers
##cement
woman
glob
##aged
arab
respond
opposition
pal
possible
company
peace
##augh
lawmakers
##sec
##lu
reports
##amed
advis
sugg
cas
sanctions
companies
mean
special
expected
##urd
continue
better
##ya
citizens
across
##ourn
nations
wrote
talks
##ger
##ably
weap
reform
important
##velop
given
others
released
history
##app
##uel
##ri
##cil
art
##ars
form
source
enough
12
large
further
full
##vember
november
develop
legislation
mexico
##ttps
##ening
chang
outs
short
##elf
evidence
##lom
financial
eas
gop
supreme
div
coll
hour
repl
taken
dip
done
turn
despite
center
differ
level
five
##bc
images
##ov
ru
hold
liberal
fut
##pl
pen
budget
university
youn
course
30
journ
immed
travel
immediate
fire
meas
diplom
anyone
https
##rew
wants
dest
negot
##ential
june
non
cris
protect
bas
##ins
geor
bad
crimin
reald
bank
facebook
##onaldtrump
race
follow
realdonaldtrump
aug
response
##ley
ap
having
del
sure
satur
feel
hom
ryan
fav
instead
putin
saturday
broad
regul
hope
debate
lawy
bring
##dress
respons
lin
best
enfor
##thern
sk
##ream
ago
council
syrian
prosec
chall
anything
certain
conference
##ured
##eration
plans
six
sol
address
cho
target
corp
efforts
saudi
using
je
constitution
vir
val
global
agreement
comments
##akes
future
accused
able
tex
compl
foc
parli
dam
famil
journal
crisis
indiv
indust
##dle
reason
##ops
parliament
enter
refugees
hack
effect
letter
tot
simp
behind
toward
visit
ah
sal
capital
##ten
feb
comey
join
region
##ify
##abl
role
sing
##ots
afr
##ugh
individ
service
early
equ
relig
return
term
##ither
##oor
current
describ
line
name
strate
##ient
young
paul
##by
getty
lives
##ones
individual
##omb
front
##aining
##ield
fear
thous
cred
detail
ident
within
adm
##orter
##stand
2014
due
mer
##gn
tele
britain
##osing
unc
vet
##ection
find
entire
stat
assoc
lim
comes
jobs
someone
interest
diplomat
##lement
phot
ball
fly
middle
small
##ibility
##osp
alleged
##port
rich
push
hate
dece
dead
live
tech
lab
weeks
below
position
texas
##itor
##go
abs
##ij
sim
review
flor
access
negoti
late
deep
favor
coalition
isn
rules
economy
##ault
tre
weapons
complete
running
getting
##itions
chairman
##aily
##fort
calling
##br
prim
##body
victim
coming
muslims
votes
district
##ida
pet
problem
ris
##arr
##work
announced
wrong
congressional
amb
commission
talk
elections
doll
25
influ
daily
199
dav
##care
##ata
esp
##lict
army
street
##ix
nearly
sources
##ler
##ences
##icle
brief
##sw
accept
##encies
##oming
account
speaking
rule
##uation
##ober
##acare
sum
regard
bush
water
reb
occ
thousands
obamacare
october
mur
establ
east
workers
students
env
wal
freed
analy
reach
progress
candidates
pur
apr
express
mom
##uty
##anger
key
##itch
dev
rev
april
##hood
each
associ
##ming
##ilar
crime
cat
##yn
##inc
december
began
politics
ruling
ben
decl
authorities
criminal
wanted
uk
emails
##ways
sess
ties
bene
##ccess
everyone
##oke
18
##selves
crow
august
wa
whose
bern
##aph
claims
##cow
hit
florida
low
mc
nat
##estern
carr
larg
begin
prosecut
sn
september
##oman
accus
backed
immigrants
calif
moscow
organization
building
##els
policies
showed
message
aw
thir
##onn
climate
means
officers
outside
##ron
representatives
failed
##iles
appe
##ruary
##be
february
conflict
room
needs
fall
tog
alm
together
##not
fake
gave
pos
market
100
rally
different
central
init
ple
side
capt
questions
services
healthcare
mal
oil
latest
##ode
addition
ran
immediately
leave
hop
pan
##irc
##istry
mis
thought
##itive
##ders
kind
words
elected
##eds
release
##aper
recently
voting
##ensive
overs
launch
morning
##uch
turkey
yes
resol
##usion
##ban
freedom
lost
rather
benef
##lined
west
personal
racist
##ortion
##iding
germany
stay
drug
tv
vice
remar
almost
answ
##ances
##uit
enforcement
##ience
educ
##apan
hon
migr
oh
##red
##erate
agencies
appar
guy
allies
involved
13
conn
received
bloc
repeated
idea
conservatives
propos
corrupt
circ
king
pret
record
try
exc
matt
californ
japan
success
spending
stor
trad
ministry
funding
##idency
chines
chinese
planned
incident
phil
happened
##rop
project
##lect
popul
corpor
century
rap
treat
cannot
tried
ep
ke
##ford
california
decided
rub
expert
shar
doub
##aks
ahead
millions
town
flag
situation
fell
##aled
talking
george
makes
western
##izing
allowed
sexual
pu
cub
board
photo
land
else
book
cy
##aps
##ghan
ground
ener
conduct
##aced
##ival
son
resign
appoint
16
missile
##ging
always
ri
understand
parties
##ani
request
wire
charges
provide
looking
separ
techn
often
##iter
cle
##ped
concerns
##though
emer
respect
child
officer
decades
danger
coop
although
remo
sold
shot
demand
pred
presidency
data
expect
industry
##iron
chance
everything
star
quick
nomination
14
ang
needed
movement
##ke
minor
denied
##bor
james
##icult
##mit
##asing
batt
deter
prevent
17
true
##und
afghan
##orr
area
##iam
boy
counter
particular
either
##rain
bomb
##ology
environ
eth
terrorism
allegations
forward
prior
##fully
##aster
truth
terrorist
webs
##ecially
enc
mult
##aud
half
hours
especially
nov
actions
##ored
coup
mem
themselves
prison
representative
##ll
##read
popular
2012
50
calls
include
environment
agreed
energy
tens
##ney
documents
hundr
##ael
##ador
british
seems
robert
mad
##ability
leav
till
fighting
serious
disp
##liver
##yl
aim
soon
vo
wife
final
neigh
fired
##ama
##int
confirmed
cust
potential
adding
drop
third
opt
county
kid
foundation
24
mag
relationship
fig
ign
##oph
screen
hearing
kurd
profess
shooting
##oric
##istic
##elly
##anmar
clearly
murder
cases
##uce
similar
examp
myanmar
##ards
mot
##ada
bigg
wasn
page
voted
focus
arrested
trip
insurance
opin
continued
fal
aust
moder
##iance
polls
father
protesters
temp
##ively
##str
##irl
##ications
##ugg
cam
reve
##ners
##ender
korean
suff
##val
ens
ver
shows
resident
adviser
claimed
var
##nc
love
seat
##woman
quot
aut
worked
##overs
tro
##earch
assault
tillerson
leading
spoke
##utions
passed
##reg
biggest
paid
bur
research
bid
hear
concer
wil
base
##ains
##ana
##enda
surpr
wing
primary
lower
bernie
firm
probably
flynn
network
appl
pressure
appeared
aid
2013
##ett
##raft
ms
##ki
david
##arch
chec
destro
total
##aging
friends
mike
absol
##iety
crowd
##oud
self
poor
defend
families
seek
##atory
##ift
pence
michael
##arian
##itting
taxes
telev
port
ted
turned
carol
college
leadership
largest
##co
##ogn
exact
prep
deliver
nec
cia
victory
simply
safe
##ondon
command
declined
controvers
london
absolute
shut
##rect
warr
issued
described
dollars
##pect
inj
establish
hus
mac
bal
kelly
##dd
african
dism
convention
referr
fair
isis
agenda
discr
remarks
mccain
posted
##ude
independence
deputy
contrib
points
specific
grow
hot
girl
sessions
lawyer
##kel
ali
assist
##uing
instit
included
website
brought
##ago
signed
yout
ale
single
started
present
moment
typ
##iar
became
arabia
religious
spent
judic
sil
advoc
debt
refer
influence
food
raised
##isions
related
details
consider
christian
ken
##ges
article
false
##uses
avo
reality
saf
##usal
##que
recogn
ambass
##ibly
rubio
##of
##itb
longer
previously
unf
##ises
design
require
gold
##ham
seven
saw
armed
##ha
##ality
21st
income
seeking
##ization
surve
##he
22
exper
restr
pretty
suggest
hands
fel
recor
heart
fraud
##ench
amend
merkel
protests
##ural
document
##ania
risk
exch
##ys
##itted
scand
ber
criticism
increase
ham
##ai
lear
rh
##ara
##utes
replace
##ium
areas
helped
##ste
mayor
militants
hundreds
chur
deleg
ask
palest
exist
demon
##ites
unl
green
##uted
currently
phone
heard
build
carolina
##stream
##icted
##ruction
giving
foot
##ows
challen
virgin
attempt
share
##pir
##ifican
example
##ortun
cross
affair
whole
forced
changes
##umb
criticized
pract
##down
regional
created
##ength
church
opportun
pers
ambassador
cele
breitb
tough
frank
##ature
proposed
lack
beij
tweeted
comb
repeatedly
##berg
break
beijing
##urt
breitbart
##ager
eight
behav
##kn
independent
education
##ube
troops
pled
dist
significan
##erty
programs
super
convers
##come
mention
##aughter
repeal
speaker
victims
corruption
##omm
voter
##astr
grand
contact
cult
employees
veter
27
violent
ten
##ately
confirm
esc
mainstream
intr
living
tim
apparently
##ese
und
cab
##ully
warned
##ceed
heav
##ane
che
##ounts
subs
rate
radical
##ping
common
##ky
##ikes
trust
published
happen
mexican
##oul
funds
##jected
transition
lie
northern
mind
mother
##band
difficult
##uced
impact
ok
goes
johnson
##uction
strateg
island
radio
jeff
gay
##oon
paris
##gency
doz
dangerous
23
##wire
operations
kurdish
kh
fle
scr
##omp
vers
brex
##anda
sett
inside
battle
bey
necess
standing
telling
status
individuals
god
dom
cause
interf
##where
internet
television
##ety
##iple
brexit
abortion
senators
nato
measures
opinion
create
horr
interests
protection
gas
##racy
commit
##iers
contract
youtube
significant
medical
businesses
development
palestin
virginia
destroy
##stein
##iod
politicians
gener
numbers
##tain
partners
correct
served
spokeswoman
answer
asking
orig
france
absolutely
bir
moore
hat
newsp
##eth
rid
##ma
28
##action
21wire
custom
powerful
afghanistan
experts
concerned
exactly
particip
quickly
ul
wide
joe
safety
jack
appears
charged
problems
period
choice
tom
##icated
willing
refugee
events
previous
proposal
nav
##urb
southern
urged
completely
died
##ined
jer
sar
##enn
block
rohing
ukrain
coverage
sell
defe
hosp
light
##cast
##pped
oppon
discrimin
##ino
ey
gar
sched
jail
fellow
results
counsel
40
body
catal
##ex
democracy
draw
##igan
neighbor
certainly
reporter
measure
pac
##owed
marr
pak
itself
chic
##ape
impro
##room
kim
cast
##isan
send
obs
terms
origin
##ilities
##olled
committed
restrict
expand
##ruct
threats
wel
##ona
obv
##onnell
establishment
rohingya
lob
veh
mod
condem
holding
##the
##pay
residents
26
afford
vol
named
worth
chicago
outr
approach
knew
responded
pow
panel
wealth
leaving
french
attention
sean
terrorists
iraqi
pakistan
cop
considered
filed
##eller
patr
29
##itness
strugg
husband
labor
bure
path
word
ready
##ounded
ut
charge
mel
behavior
##af
##orse
society
ensure
angel
provided
agents
online
##let
huge
increasing
discl
pict
##ster
fem
##wood
sor
responsible
celebr
growing
remember
cabin
taxpay
whom
##uff
##esh
student
records
198
joint
wik
##icit
rhet
lang
franc
mcconnell
##ne
##sequ
organizations
bureau
cities
refused
population
leban
amendment
challeng
sides
authority
expressed
statements
maybe
parents
##cing
##0s
##ker
knows
mart
##ounds
series
iranian
born
##erial
##bur
##iled
unp
clos
supposed
##azi
2018
compet
nbc
diplomatic
domest
elector
avoid
trial
approved
environmental
##umer
affairs
hous
product
scandal
ow
credit
encour
##ns
guard
views
critical
sad
2008
##lad
##ucture
##icer
abo
2011
parent
crimes
##mine
believed
homel
pun
killing
corporate
extr
##ination
suspect
##olf
cabinet
ba
##emen
ho
ordered
takes
mand
##ctor
##agon
##ask
operation
##ussel
dnc
sought
##reens
offered
jew
##erve
##entially
strategy
michigan
##ev
sense
bab
yemen
propag
buy
suggested
negotiations
##alia
subject
rhetoric
grant
attend
conspir
israeli
##usalem
jerusalem
##haps
finally
field
pul
worse
investment
cyber
wonder
##onym
critics
fill
pra
##arily
threatened
##ections
rival
##dog
##agement
bit
##outh
princ
massive
ohio
dismiss
fre
gets
##erry
pie
regarding
implement
##ication
cuts
reached
perhaps
##pper
weekend
inn
##using
ill
##ias
##aug
deport
activists
extreme
fuel
schools
disapp
higher
offer
beyond
weak
ability
2010
analyst
additional
langu
60
worst
road
unlike
growth
##bo
norm
attacked
bang
##aire
lawyers
gather
search
commer
sens
includes
##iation
##asc
regulations
domestic
newspaper
py
##riate
ways
serve
altern
turkish
35
witness
supported
##endum
austral
##ounding
daughter
##graph
believes
jim
##uled
exchange
500
minority
##ble
parts
##ancy
color
nar
finance
referendum
arms
promised
assad
prompt
loss
anth
##ih
spicer
##abe
migrants
##men
##nbc
mueller
guil
defin
chris
##ny
raise
directly
considering
caused
brown
remains
tradition
lif
price
rene
##enced
opportunity
crack
aren
editor
na
pack
##light
showing
vlad
##iscal
##non
##ille
wouldn
##erto
airport
##ez
eastern
infr
pain
warning
vac
uns
winning
estim
##atic
lawsuit
inaug
##oses
costs
continues
arrest
##iw
##erc
##verage
scott
insist
publicly
facts
lose
mist
declared
multiple
supporting
##ught
##aries
blood
capture
##ropriate
cuba
stage
challenge
xi
##ays
##iary
rock
gone
##eas
guns
william
opposed
alex
soldiers
noted
necessary
meant
referring
##ark
worr
flight
##orts
##ters
track
couldn
surr
introd
ach
##ends
##hr
looks
##ota
becoming
camer
##imir
mail
supporter
##eed
fiscal
abc
towards
##know
particularly
##uf
language
fa
vladimir
rise
##iana
quite
launched
upon
above
mostly
##vert
governments
treas
rom
canada
communications
ruled
##ider
citing
propaganda
achie
lies
##joy
approval
##vement
announcement
probe
argu
##knowled
thinks
cooperation
iv
regular
##oyal
lou
hospital
ukraine
iow
acknowled
trib
##ously
puerto
kids
2009
condition
version
asia
##ground
pick
retur
revealed
##ushing
purs
material
promot
holly
aggress
electoral
rat
strength
##arm
reven
tempor
##ussels
brussels
displ
reporting
##20
##hen
##itarian
sea
##essed
classified
demonstr
site
##nam
summit
anonym
embass
broadcast
separate
##yang
##ileaks
ended
macron
dut
hyp
##asons
journalists
##lus
hall
putting
libya
extrem
##going
troub
regime
racism
vill
##ayed
##oring
##imately
##ishing
prosecutors
draft
count
pyong
responsibility
ros
bannon
traff
plat
followed
complain
##fl
##wor
##ink
##ocked
homeland
seriously
briefing
game
appeal
iowa
##sa
remin
wikileaks
##ented
discussed
association
resolution
pyongyang
endorse
##ipped
jr
##ifying
accusations
avail
check
mob
##semb
throughout
stated
##sis
##lig
##yle
ally
##ashed
natur
pent
##rative
ult
abd
blame
aimed
##aces
alliance
hollywood
##ires
finding
manager
constitutional
brother
revol
##fect
transg
determin
##unt
figure
##ession
##ung
##ague
liter
steve
clean
required
ment
nine
register
leak
infrastr
##den
##gry
assemb
##ulf
positions
##ric
##la
conspiracy
infrastructure
none
squ
spread
##gypt
##annity
occup
##itten
thank
largely
suprem
billionaire
tweets
reasons
resour
##ogue
purp
##ufact
manufact
ess
decide
paying
egypt
##itz
except
ariz
facing
joined
hurt
##ipt
accounts
##draw
familiar
helping
sharp
prosp
please
transgender
##imum
withdraw
decade
lady
##limin
communities
mission
emergency
##ville
##acted
rejected
felt
pentagon
couple
scheduled
powers
31
acting
##ordin
warren
##iant
aides
jones
##ero
alone
embarr
technology
##fr
investigating
legislative
embarrass
roll
##ball
charl
cance
banks
##nic
goal
exam
rico
enem
meetings
##ris
##icul
##aching
experience
imag
##enez
tour
##iction
ram
boost
capit
swed
##hold
available
creat
door
courts
tensions
works
perfect
africa
treasury
##eless
moving
controversial
##back
brok
45
steps
closed
guilty
ny
listen
funded
collect
ton
broke
estate
domin
beat
career
eric
property
damage
##tained
values
alab
controlled
##overed
amid
carry
embassy
professor
various
inaugur
spr
deals
beginning
viet
appeals
voice
mn
sat
michel
age
corn
##iwan
harass
played
msnbc
taiwan
conclud
arizona
audi
##sy
diss
russians
##lines
traffic
##enezuel
hurr
##lets
lew
amount
venezuel
##off
##lades
faced
platform
allowing
targeted
investigations
resist
hell
carried
zone
benefits
piece
hum
pointed
delegates
##com
changed
lying
initi
sarah
##iver
fully
caught
impl
##ilat
annual
birth
##icles
note
compared
##itory
conversation
197
doubt
romney
highest
##ification
banglades
70
##any
bangladesh
shared
highly
apolog
positive
drive
##egr
##ax
removed
##ases
minutes
written
alabama
ded
##bed
##ension
borders
modern
dig
fix
po
##wise
territory
##aming
decisions
server
cham
exerc
integr
happy
average
argued
cha
insult
analysis
##wide
moved
harm
philipp
##nest
focused
prosecutor
judicial
##atever
deploy
whatever
bigot
ethnic
admitted
pushed
stories
female
los
mil
planning
brand
strike
##aham
##hner
identified
##gu
##iny
conway
promise
dropped
thanks
palestinian
literally
paper
partner
resc
rout
##nel
##acter
defeat
aide
clar
cauc
##ika
##iring
compr
hacking
club
linked
##ustr
range
##uk
entr
citizen
angry
blue
ceo
award
prem
consult
##gb
apart
##ersey
activities
consequ
span
treatment
communist
increased
jersey
##hib
rein
amaz
carson
serving
pacific
station
management
##my
##anch
##akh
resources
suc
##agan
hurrican
sick
surv
##while
hers
attr
park
confirmation
faith
secure
religion
solution
##more
sher
##ients
scene
province
built
playing
spons
pray
##antly
dream
bringing
cited
ze
##aded
racial
##mas
##icate
die
##ories
claiming
fighters
systems
coast
collusion
lebanon
##how
lee
picture
testim
##oo
##isters
stopped
richard
pushing
sort
institute
restrictions
matters
mattis
##illy
prepared
aud
##onia
advance
##remlin
immigrant
limit
stock
arch
thinking
opponents
date
kremlin
possibly
kas
##mon
##ze
reflect
explain
rod
totally
hotel
der
##po
adop
offensive
disag
ups
impe
islamist
##fer
asyl
196
innoc
film
conducted
##alf
hamp
log
asylum
abuse
kept
##pan
andrew
internal
commander
outrage
stup
discussion
js
trig
##ula
veterans
marria
##ips
perm
failure
produc
miles
training
study
sales
affordable
cash
dict
ones
wind
##ylv
din
hannity
retired
lu
recomm
endors
subst
faces
hopes
inauguration
sometimes
designed
louis
mach
spot
losing
alt
##osh
honest
bat
##ansas
cbs
starting
conditions
braz
owners
dozens
housing
chann
##fortun
##och
##ocking
politically
legit
progressive
alternative
testimony
stupid
fast
militant
reduce
phys
rall
illegally
martin
##ihad
behalf
appointed
wisc
##artisan
drew
##dp
actual
scient
penns
##ylvania
##eline
##onsin
detained
possibility
assembly
##iri
requests
entering
##orm
polling
wait
owned
impeach
enjoy
##ews
involvement
purch
dial
wisconsin
tit
##terday
investigators
character
explained
levels
breaking
keeping
audience
mitch
##umpt
suspected
##dogan
##ili
campus
erdogan
bath
##oom
herself
pennsylvania
card
benefit
##vin
##iling
happening
berlin
laugh
unfortun
extra
bond
##anka
##road
businessman
supremac
arrived
allegedly
tow
normal
##anced
basis
spain
opened
surprise
natural
era
wish
evening
shown
grad
mana
streets
sentence
revers
reject
haw
prec
unless
judiciary
divers
##ulation
scar
##resp
raising
manafort
os
associated
humanitarian
affect
yesterday
escal
##gment
obst
opening
princip
jihad
vowed
##ois
india
leftist
magaz
parenthood
##ilateral
qa
object
renew
rand
backing
round
numer
receive
capitol
sheriff
revolution
negative
content
vietnam
fort
disaster
greater
save
profile
surveill
##ck
##ecess
discrimination
frequ
reforms
##ounder
indeed
honor
remove
worried
kur
screens
assistance
patri
meaning
names
##ester
christie
bul
elimin
pel
production
blocked
zero
happens
industr
autom
jose
tehr
qual
potentially
institutions
subsid
prove
judges
eventually
golf
##lant
##to
promin
proceed
signs
lobby
lyn
##iced
investors
tehran
touch
interv
wars
perman
georg
##itely
floor
watching
survey
estimated
presidents
civilians
aware
australia
##dom
##bl
trail
missiles
anger
##ado
otherwise
belief
##eing
cath
mate
reportedly
marriage
##cl
##yr
##olic
gender
activist
biden
numerous
rates
##eda
##ollah
##ingly
thom
ongoing
deg
ballot
hurricane
apply
payments
intended
homes
sector
chem
combat
increasingly
rough
perform
proced
rape
seats
strikes
max
lgb
transport
disg
markets
seemed
vehicle
soros
surveillance
tact
ridicul
bin
ire
kus
stra
##arant
##ume
moral
orders
visa
diplomats
##osi
seeing
activity
cuban
founder
intention
attempts
lgbt
reagan
agent
republic
standard
disgust
widely
innocent
stance
dog
flint
carl
donors
involving
providing
liberals
##icide
stood
sitting
chuck
desperate
##ched
smith
##aling
bills
##rog
assess
convicted
##hot
nobody
failing
##idel
##ledge
##ological
pod
haven
##ivals
carrying
improve
##arter
kushner
truly
tells
chancell
ultimately
##ats
##roit
lines
##illion
##agr
players
proud
pap
##issions
confident
explos
wage
##craft
##zz
prices
lav
mic
##sen
brut
wealthy
jump
graham
threatening
comprom
##lor
advant
posts
ballistic
heads
hispan
existing
politico
guarant
sending
##urred
sav
neither
limited
ivanka
culture
bathroom
##time
##dad
spend
flood
bott
confidence
schumer
rare
##na
successful
memo
wild
kir
minimum
denies
attempted
summer
epa
commitment
chancellor
yell
mug
proof
congressman
unclear
drugs
##alled
disrupt
detroit
dollar
returned
qaeda
lock
grass
oblig
craz
choose
extremely
##ols
goog
grab
assert
overseas
jackson
##cer
##illing
specifically
anthem
90
looked
lynch
van
style
##cript
##lando
##side
knowledge
fine
##etic
closely
consequences
##zb
##ston
relief
dismissed
code
gives
ther
blamed
simple
places
medica
investigate
##here
consist
learned
outlets
obviously
medicaid
loyal
rex
supports
imposed
vul
##illa
background
strategic
dan
table
##aine
attacking
treated
sale
##andon
blast
smart
interference
magazine
soft
banned
runner
teach
veteran
heavily
##coming
usa
girls
navy
georgia
pope
analysts
dialogue
interior
appearance
rallies
pelosi
hy
highlight
aircraft
resignation
bagh
mary
orlando
##isco
easy
controversy
lic
##imb
presence
##shire
##onna
products
##rid
atlant
##others
revenue
bom
firing
scalia
initial
sac
unable
fundra
venezuela
##vey
space
creating
bob
figures
gang
jon
##oing
appropriate
standards
prospect
blow
driving
deeply
waiting
recognize
bund
prohib
##ahu
setting
engine
od
accord
heavy
michelle
struck
waters
aliens
eye
hampshire
bip
wake
wounded
##isive
strongly
practice
wearing
writing
videos
taxpayers
screenshot
ridiculous
ank
abroad
questioned
proposals
narrative
300
ministers
links
editorial
temporary
nice
##iner
train
##sey
palin
##burg
unlikely
baghdad
caucus
tonight
chemical
monitor
campaigns
illin
attended
##whel
returns
pull
prince
active
fled
projects
disappoint
illinois
core
##tered
hasn
##ieb
marco
pledged
melania
challenges
overha
science
meanwhile
fif
##ari
incred
prominent
reaction
margin
stephen
weapon
gain
##cy
firms
obvious
tight
##ano
##nedy
shortly
options
##ulated
##oked
insp
oppose
stein
hariri
rebels
pip
oreg
reference
praised
##ef
remained
journalist
type
closer
oregon
jun
##dling
##phone
employee
mugabe
##vereign
sovereign
overwhel
##me
spl
continuing
session
quoted
fans
##reh
donations
obtained
minute
personally
400
bol
jord
sant
tear
##gun
##adem
scen
boyc
injured
khan
##dem
hezb
defended
oversight
maintain
affected
hoped
dozen
##erly
##ulian
aftern
promote
advantage
hezbollah
pm
pover
text
miller
earth
ireland
poverty
##abeth
cd
rig
##aker
sudd
slow
construction
afternoon
personnel
##empt
sudden
fought
##wa
store
eliz
kennedy
introduced
hypoc
adult
academ
sensitive
spanish
ww
constit
christmas
identity
overhaul
nig
uncertain
straight
bi
##han
##esa
##icip
upd
deficit
crackdown
bipartisan
##lusion
protecting
##ta
thomas
roy
##lan
##za
determine
concluded
stability
abandon
outcome
perfor
delay
ankara
bengh
fat
##hs
everybody
citizenship
80
somehow
assets
promises
ash
advert
shouldn
cooper
delivered
cold
##uter
represents
catalan
elizabeth
brain
christians
historic
accur
##enses
acts
owner
somebody
qat
##ua
users
effective
nature
partnership
anonymity
benghazi
##house
##ression
suspic
##acing
uncon
value
##dy
##yad
messages
japanese
mentioned
francisco
mistake
channel
rising
adam
contest
basically
harassment
dc
advisers
targeting
original
##ae
##asion
##arters
scale
##hol
administ
neighborhood
taxpayer
jordan
amp
##mo
##ulate
discussions
determined
intent
difference
peaceful
observ
ross
rakh
champ
plane
circuit
pulled
##equ
##itude
definitely
unfortunately
cere
fan
nfl
##mented
notice
moderate
bash
##amb
brid
openly
fol
ky
enr
##agues
dark
tort
imagine
mnuch
google
performan
bull
gut
turning
detention
denoun
fears
learn
profit
link
prompted
purpose
mnuchin
lit
##ading
spar
demands
##apt
chamber
tick
connect
anim
##quir
permanent
cur
##kin
##acher
trillion
abe
recover
moham
rebu
rebel
##nd
coordin
quarter
subscrib
chaos
00
bed
italy
accom
medic
gors
rakhine
accompl
overall
ideas
ethics
##aur
anton
##ander
spir
##bre
##inger
##pping
##abil
boil
welcome
punish
jewish
kr
rt
lawmaker
veto
dinner
##fire
twice
kar
##ded
##ena
reid
memor
##works
du
##ining
impose
organized
suggesting
sweden
kasich
lind
euro
accusing
bod
comed
circum
crazy
##izes
violation
##omes
##ills
sites
interesting
gorsuch
li
##erred
carter
##pa
section
lean
##oster
interviews
kingdom
catalonia
unpre
sound
##pet
stands
meth
replied
unfair
disturb
endorsed
sam
##qq
percentage
allows
dispute
pledge
angela
dub
jes
##lish
##vant
##ali
asian
resigned
advocates
vehicles
model
commerc
commerce
select
placed
slam
traditional
##eel
philippines
##field
migration
suicide
canad
##anging
initially
rose
river
ped
##ront
managed
english
suffered
lands
farm
##instein
histor
netany
equip
motiv
##ror
##bel
stuff
referred
indones
colleagues
captured
ratings
48
cops
##gar
aside
frustr
computer
##itutional
footage
surrounding
commercial
##ga
box
deaths
assistant
netanyahu
gate
##uan
reilly
billions
regulation
ice
##iro
unity
##ocks
belong
2005
corporations
##ctors
assass
ignor
patrick
tower
libert
remaining
devast
enemy
75
km
undermine
##ucky
shooter
argument
##uro
penal
emph
termin
virt
tay
latin
2007
##mark
##ipping
overwhelming
pact
rog
teen
connection
##iebus
##ole
32
unn
hero
receiving
peter
priority
baby
fit
mouth
##mad
bea
##osure
symb
##wards
mcm
roughly
wood
##news
##bert
priebus
##iment
suit
worry
talib
retire
requires
##oma
202
##oking
upset
##ties
shift
covered
turns
##ophob
angeles
brazil
##east
davis
occurred
mun
fourth
registered
fasc
sle
suspended
##upp
##just
##lying
##igned
politician
##raid
entered
double
taliban
league
plant
infl
complex
leaves
forg
distrib
solid
accepted
walk
kat
##aft
##rating
mov
function
wins
fundament
larger
destroyed
storm
option
male
toler
stun
##iev
targets
divided
##per
handed
demanding
condemned
achieve
gree
gonna
##well
##cedented
severe
mrs
talked
unprecedented
##ala
shel
##erte
formal
intel
division
minorities
gov
overt
entit
parliamentary
riyad
trouble
endorsement
disagree
mas
established
epis
performance
duty
basic
succeed
##bit
justices
passage
handle
rick
##ograph
ending
brian
initiative
qatar
rail
blog
granted
broken
cu
lay
native
que
##aves
directed
visas
executives
resolve
duterte
leaked
##enty
chose
moves
potus
boss
##cle
shame
sees
interp
symp
acqu
williams
transpar
##eeping
criminals
disgusting
demanded
##under
ads
terrible
missing
acknowledged
bigger
requested
watched
restaur
opponent
condemn
therefore
underst
hoping
ren
cruc
headqu
legislature
apparent
neighb
fer
file
narr
##ashing
dealing
picked
creation
effectively
tank
##otic
mandate
##iders
shi
usually
evil
confront
discussing
scrut
gulf
branch
easily
##iest
beach
truck
shout
##aza
settlement
zika
vulner
##dan
##acity
advice
civilian
embr
wilson
josh
mir
##kk
shop
afraid
palestinians
##ept
partisan
meddling
guys
canadian
followers
52
lik
##rel
season
noting
riyadh
spd
offering
2001
##ild
resett
goldman
folks
##irt
unw
unit
visited
equal
tun
customers
36
##eted
lobb
gab
##bon
##icient
weigh
quiet
protected
files
emphas
tar
##ware
poland
interviewed
nom
nev
informed
indiana
contrast
announce
okay
equipment
exposed
socialist
conflicts
predecess
direction
spoken
violated
recommend
bay
##ique
violations
attempting
garland
aggressive
nazi
defending
idi
differences
regardless
insisted
##ater
guess
barr
cutting
changing
selling
##aver
sudan
usual
engaged
drawn
package
www
49
plot
entirely
declar
generally
schem
holiday
conversations
gathered
38
naz
nancy
##uits
onto
##unes
##fta
throw
professional
consum
discovered
trigg
2006
liberty
niger
vast
##ila
hacked
substant
burn
react
##thy
indian
electric
approve
holds
##fortable
emerged
65
hired
lived
mitt
rice
tone
##de
desire
##veland
favorite
experi
bombs
bundy
bail
ship
confed
banking
surprising
entry
33
cert
##pm
##amin
youth
handling
operating
reading
catholic
##aca
trading
bottom
##ems
haley
suspects
eld
cars
provides
nafta
headquarters
wer
##rec
interested
suppl
hen
hateful
bes
##opoul
fresh
##encing
passeng
cleveland
balt
presented
size
brook
expans
theory
forget
##anged
circumst
bully
cell
mort
##utation
invited
eyes
pund
consumer
studies
degree
thus
agr
anybody
amnest
funny
match
deny
ranking
##mony
sust
presumpt
plain
##rators
depend
##atures
skin
kansas
length
pool
##ensus
officially
##orker
alongside
engage
37
oust
##aa
##head
##osen
##abor
recru
emot
hung
doss
gh
charity
kerry
ye
forum
2019
susan
identify
tack
inquir
unus
accident
charles
##ocumented
undocumented
##lusive
##kins
##illed
##employ
networks
fifth
boiler
foster
imposs
euros
stepped
formally
##gas
brag
understanding
##taining
##part
height
##rov
##uma
relative
worker
corresp
##owski
amnesty
47
gi
caller
kurds
bodies
##opoulos
lied
mere
isol
unemploy
iron
write
nevada
weren
##onom
dram
bow
psy
seized
newly
explo
divisive
welcom
joke
centers
harder
attorneys
integrity
hispanic
mut
tests
##ka
bloom
raid
dossier
nsa
currency
filled
jay
ly
##etts
privacy
kevin
strategist
amazing
legitimate
stick
becomes
privile
viewers
##idelines
episode
ech
lor
##ounted
disgr
##inees
##ucing
harv
realize
warrant
nominees
corker
rif
##rees
doj
recon
listed
struggling
theresa
ty
##uries
recount
predict
madrid
joseph
##bers
actor
photos
importance
curb
##din
associates
incidents
##apse
##ighter
hosts
mental
crucial
houth
unac
abb
serge
practices
corner
gre
jong
mix
##manuel
backl
##respect
complained
alien
##itation
exit
##ifa
refuse
dani
jury
marine
driven
argue
split
bost
hur
ug
mont
produced
penins
sd
clintons
mog
sanct
peninsula
##isa
revel
feed
temper
dar
##ship
##uate
##astic
195
committees
greatest
maduro
impossible
##ele
contacts
export
representing
insurg
jeb
deadly
sacr
ceremony
supply
leads
facilities
rush
task
##cher
legacy
deadline
bombing
replacement
kirk
burd
seeks
##oval
delib
label
warming
##apped
treaty
presumptive
34
et
manip
##upport
cow
ite
custody
##eva
display
##lah
##uana
stone
2000
nominated
headed
elsewhere
counterpart
married
##aska
colorado
agricult
##adel
leaks
exports
snow
surprised
requirements
kent
recip
urging
regulatory
walking
kic
song
##point
hav
signature
sentenced
manufacturing
##uts
##iable
##ucks
strange
regret
refusing
method
neighbors
55
resort
telephone
labour
wrongd
hatred
loud
##ox
##pread
##awn
investigated
ramp
##ucker
balance
horrible
cancel
oval
flow
unve
indict
##achus
emissions
##anne
challenged
encourage
complaint
diversity
sharing
chant
intim
inspect
harvey
##ception
limits
risks
chip
disrespect
settle
exercise
wides
##elling
provision
oklah
francis
hilar
##inking
##iful
founded
commissioner
patrol
widespread
anc
##elled
massachus
pru
cler
##ifer
perpet
speed
grounds
customs
massachusetts
dall
ii
##mond
stamp
##tro
surf
greens
##omo
promoting
correspond
shocking
minnes
geneva
bankrupt
camb
##atically
buying
runs
##standing
preparing
square
boston
pruitt
jason
segment
##akers
brothers
laid
destruction
skept
essentially
oklahoma
inapp
uses
blacks
nominating
sorry
##ashes
nationwide
deportation
39
vision
##lo
##atch
causing
collins
broader
addressed
riot
##friend
expansion
sexually
wrongdoing
inappropriate
800
##wart
sem
chances
##angel
flights
##qqa
psych
dallas
lad
compar
breach
gotten
cease
shares
daca
shr
##enders
cancer
raqqa
passing
agreements
smaller
rivals
##ores
todd
chap
abed
##abwe
sole
##erves
stronger
rosen
44
hed
vital
welf
zimb
zuma
##west
ford
anymore
contribut
utah
rescue
minnesota
cambod
welfare
dou
##armed
abort
arrests
capable
casual
cultural
zimbabwe
likes
pock
rural
ts
columb
##anium
magn
torture
ble
rnc
##rison
##abled
ballots
hearings
industrial
welcomed
##thr
chosen
elite
halt
collapse
rapid
lebanese
tan
apple
anyway
driver
detailed
sach
##imed
offices
insurers
suffering
autonom
intimid
mount
##esville
questioning
lawsuits
uranium
shootings
contributions
embarrassing
intervention
kin
##cel
notes
consideration
convince
recognized
tactics
53
gained
legally
facility
arguing
credibility
malays
##wr
2020
surge
visiting
mainly
mosque
books
ignored
regularly
uncertainty
entitled
circumstances
##col
dele
pursue
spring
46
##oles
protections
nearby
hostile
anthony
camera
da
nunes
aspect
conclusion
accountable
neighboring
ic
rating
neut
##acked
resistance
pipeline
leaning
interpret
##ument
sued
indicated
carbon
miam
pending
##iser
##ooked
candidacy
easier
##etta
zeal
unconst
swe
brill
defence
militia
nationalist
pointing
confederate
##adelph
600
las
##ko
##agers
detain
filing
covering
disturbing
scrutiny
bias
nra
friendly
silence
bloomberg
##ule
investments
generation
catch
ignore
sachs
##isf
##igdem
puts
employment
feels
hackers
walked
motor
movie
##adelphia
##igdemont
ath
ol
##see
matth
superv
hitler
puigdemont
checks
boycott
beaut
predecessor
waste
replaced
gathering
##mont
##aked
music
represented
murdered
principles
miami
42
51
begun
##ouri
bigotry
constitu
les
asks
reputation
capacity
traveling
feeling
philadelphia
##hal
arrange
frequently
band
bilateral
##gus
##esta
spokesp
participate
ticket
##dh
##js
swing
produce
priorities
##rich
##inn
mining
goods
village
neutral
dhs
departure
holder
vulnerable
##ease
undermin
paragr
##iffs
##attle
##udeau
jews
paragraph
doctor
manh
ends
reaching
sap
connected
podesta
kentucky
reass
##imore
frame
eliminate
row
brib
removal
proven
winner
speeches
hosted
advocate
originally
bashar
baltimore
##greg
marked
drag
territor
subpo
threaten
##ullah
flags
physical
champion
fergus
backlash
unconstitutional
forcing
justin
yourself
independently
##ques
campaigning
switch
fewer
nonp
daniel
43
gm
##iti
forth
trudeau
##ateg
fleeing
supplies
bare
giant
jur
jared
##yder
##icop
compreh
assange
##ancing
antifa
sanctuary
ips
##hon
##igible
##etz
2003
##gyn
joining
admit
football
dump
ka
stol
prefer
subsequ
urban
responding
negotiating
seekers
threw
##itable
##essupport
##iab
pref
##rupted
viewed
findings
fundamental
ay
##zy
##icks
blaming
tension
concerning
brutal
sparked
ferguson
dak
jin
sister
##oted
tea
restore
scheme
##rum
sunn
cry
misc
sounds
##ht
##kov
##abilities
colomb
southeast
filessupport
maryland
sympath
shif
##aped
camps
buildings
photograph
opinions
##ompan
declaration
petition
brilliant
41
pil
##ura
##add
##unte
investigative
debates
developing
atlantic
bag
##xual
##outs
preced
phase
latino
##aught
appointment
teachers
jesus
opposing
snyder
deployed
##iliated
700
tor
ves
wages
##grab
manner
irs
volunte
yeah
unusual
##stone
exempt
##cci
flick
provisions
negotiate
impeachment
compromise
##win
graph
teacher
##olling
barb
loans
equality
bon
##ivity
##umn
missouri
mccabe
kurdistan
witnesses
charlott
supremacist
supremacists
nazis
cart
kiss
ron
##ext
##rig
stake
brave
apprec
scream
##board
mobil
enemies
apologize
evangel
indic
colon
castro
routine
beliefs
##arms
anywhere
instance
louisiana
indonesia
##olitic
spy
gross
transform
airlines
steven
guarantee
spirit
abedin
beautiful
hong
tied
wave
##istics
assum
vegas
slight
testify
excuse
horrific
guardian
temporarily
vig
megyn
comply
calm
advocacy
cycle
encouraged
charlottesville
myself
attract
consumers
hide
##ria
##nr
##da
##ington
##aya
ordin
quit
underc
pastor
typically
joy
##rey
afd
grown
context
##onduct
islands
located
keeps
expanded
sov
actors
deserve
suggests
entertain
##ixon
##unk
pressed
developed
categ
rant
royal
##oen
strict
##kyo
va
tokyo
forec
extremist
lewis
##dict
##ounting
clip
requiring
seth
##ijuana
disputed
##andez
quality
steel
speaks
150
migrant
arguments
mateen
inspired
ipsos
punch
rou
ronald
beir
shocked
donor
registration
subm
crew
profits
massac
vermont
perfectly
title
assessment
bridge
##fb
web
ark
2017the
250
boys
struggle
memorial
narrow
dad
##itors
reck
marc
earned
stream
blocking
supposedly
wid
bear
minds
pregn
##attan
staffers
subsidies
grassley
sovereignty
harvard
zealand
pension
rum
seoul
##asty
serves
advisor
reasonable
screengrab
beirut
##uls
hair
oppos
relevant
sweeping
australian
hawai
gall
##bul
##uster
advanced
retal
collaps
prisoners
anonymous
complaints
premium
adults
mall
##ean
##gate
##11
harsh
hunt
dominated
digital
poison
tony
tape
fron
sports
coinc
militias
dictator
jinping
flickr
##adi
upcoming
evac
##actions
flat
salv
portr
manhattan
busy
thrown
describing
demonst
corps
extended
apology
soldier
dign
jac
juan
forms
sab
donated
feet
harry
##ierce
spokesperson
throwing
buzz
retail
somalia
tennes
##cription
##aul
everywhere
transfer
topic
player
extensive
begins
losses
purchase
soviet
ku
deem
##endous
obtain
incomp
explan
explains
prosecution
separat
dakota
nas
marijuana
knowing
houses
triggered
mine
##chan
disease
##erved
tougher
lobbying
sir
##else
weinstein
fees
hopeful
answers
pictures
adopted
games
tpp
items
unders
provoc
sworn
fash
##got
recall
refusal
effects
returning
suddenly
gary
trem
##mm
##itals
##opher
electron
divor
badly
districts
disclose
canceled
sponsored
incredibly
inquiry
hou
niet
##load
forb
strip
##anges
writes
unemployment
opposite
hire
nick
unh
irish
guards
controls
addressing
hatch
fulf
##ucci
goals
##odes
user
##rator
##ructive
disappointed
pes
##gl
##ario
hey
doctors
accuse
letting
diplomacy
primaries
connections
voices
misconduct
tend
chelse
reserve
contrad
payment
disclosure
motivated
comprehensive
dia
##oz
##list
extend
estimates
reverse
restaurant
tennessee
ak
grew
##rest
protesting
odds
bound
kong
shield
plus
governors
expensive
vent
##idden
congr
criticizing
location
announcing
scientists
54
wolf
##mat
##iated
##stan
##oken
causes
##apol
maria
authorized
extent
divide
influential
remark
##itzer
adopt
cuomo
fence
luc
retr
##amer
##irty
##this
##ocal
attending
string
speculation
moments
reveal
expanding
cf
dro
conce
##ikh
marsh
tapper
##argo
##orrow
unaccept
biz
jam
kick
ring
thug
formed
violating
2004
turnout
kellyanne
license
tired
##van
ital
alert
contain
irma
dismant
contracts
revolutionary
houston
stating
##sein
shock
confron
mohammed
retirement
hedge
ven
##uated
alive
fred
wear
sue
contained
famous
watchdog
membership
nieto
fab
fjs
liar
##acc
opportunities
fashion
suu
elements
dun
ease
posed
rs
banning
earnest
launder
##place
fallen
traged
##che
follows
multi
##uliani
murd
abu
reads
jean
hamas
hypocr
subscribe
liberties
dick
##py
##inct
unions
##rah
guest
longtime
enforce
##avery
echo
gaza
##unity
communication
naval
strengthen
machine
kyi
cable
consensus
writer
smugg
hopefully
burning
hawaii
lau
##erity
emmanuel
retwe
persu
giuliani
bought
om
spect
hundred
disappear
slammed
oath
stations
##igation
abuses
194
proper
transf
silent
tenure
rodrig
papers
lavrov
rigged
crooked
coff
killings
virus
producer
qualified
cambodia
master
omar
##ius
anch
recorded
praise
##ultz
reviewed
1990s
falling
essential
##iac
allied
promising
declare
shutdown
accomplish
56
unif
##ables
##cry
insane
entities
testified
##ropri
persec
challenging
brotherhood
vic
anderson
motion
discred
resettlement
bald
nixon
##itage
clapper
##iveness
insurgency
credible
technical
symbol
##oenix
congrat
tries
prepar
##ogyn
belg
empty
buddh
##feed
firearms
jailed
mogul
nyp
chain
helicop
imports
increases
wallace
misogyn
focusing
scandals
unacceptable
coc
##bing
##osn
cool
fool
maine
christopher
pleaded
dissent
lindsey
greg
hes
##lection
##amucci
##ppo
##osa
##uded
imprison
dress
amounts
concert
visits
listening
traveled
gains
shape
spin
grants
guid
argent
valley
route
sunni
fdp
mul
consc
quote
protester
barred
employers
aleppo
fundraising
pages
tant
##anim
heritage
signal
pattern
uncom
oversee
crossing
mortg
fant
hin
##town
unkn
racists
towns
scaramucci
graphic
breat
tool
##acle
enth
phoenix
publication
2002
loves
staffer
injuries
tomorrow
defeated
drawing
pundit
kirkuk
deliberate
stolen
gap
lift
regions
hussein
apologized
advertising
hilarious
85
##born
##rep
##otte
trend
##ola
weather
lev
violate
signing
##lining
describe
manufactur
obstruction
transportation
duke
hub
nik
roman
clashes
doors
muse
thoughts
explanation
bitter
##arre
reiter
proved
actively
cards
shots
extremists
bell
instru
##featured
##apping
alexander
denounced
chelsea
nons
##yers
##ipe
dishon
##ansing
considers
treason
##held
recording
satisf
mi
shit
invasion
nationals
phr
instruct
missed
denying
palm
##riers
competition
extraordin
industries
massacre
ging
##eness
moon
pathetic
##hab
closing
adjust
desert
schiff
transl
eligible
ideology
##what
employed
struggled
havana
enthus
az
kaine
incoming
helm
operatives
devices
philos
combined
escape
##ascus
blasted
uh
##pe
inner
##ette
outl
##umm
schultz
huff
completed
plea
sleep
##30
disabled
perry
##iffe
damascus
egyptian
privilege
italian
hiring
ranging
##comm
##uten
grave
edt
extremism
reckless
fault
jul
portion
##rated
actress
emir
anticip
borr
crimea
contributed
update
stunning
unknown
dirty
inequ
stem
client
donate
discover
boat
starts
valid
damn
devos
destroying
withdrawal
gateway
devastating
municip
66
bunch
tie
##oned
##reach
grace
ourselves
scared
acted
relatives
apartment
monitoring
burden
columbia
gingrich
57
cs
wy
##ros
thor
seattle
accompan
swift
tweeting
younger
lieuten
materials
trafficking
outrageous
animals
arkansas
cree
fierce
##pie
reducing
patients
applied
perspect
virtually
intellect
rosenstein
bah
kis
merr
mah
tip
##pb
##arthy
##icing
unrest
##force
ell
journalism
disclosed
eager
##ba
##izz
decline
scot
investor
slog
races
wiret
cooperate
implemented
relatively
abortions
dim
lunch
##mail
##een
##villa
##ita
staged
##ulating
click
blank
feelings
deeper
fields
permission
sdf
indictment
bold
manage
##rof
accepting
requirement
contacted
gabri
bizarre
fate
rain
##tw
##xon
stuck
alaska
courage
posting
swamp
reduced
damaging
sufficient
exchanges
trigger
accurate
transparency
fest
kkk
pere
tiny
wheel
remote
harris
heading
loved
explaining
collection
successfully
examples
prepare
prompting
recovery
penalty
bbc
nic
wow
##can
##imp
stret
concept
unanim
clot
plants
moh
sharia
optim
schedule
window
bog
##oria
##unction
##ifies
blind
respected
##rett
somode
slavery
delegation
counties
somodevilla
58
pd
##uctions
##put
dear
shad
orange
dod
planet
patriot
carlson
greece
divorce
guidance
jets
pair
##poken
##rell
##etime
unex
crown
cook
headlines
appearing
affil
pena
solutions
typical
assassination
ceasefire
##ss
##ito
##abee
perce
discip
institution
privately
briefed
implementation
lifted
amazon
audio
agriculture
tragedy
69
whites
shall
neil
##ivan
adds
intercept
cohn
expects
ignoring
utter
scientific
68
wong
##ici
mccarthy
accountability
removing
hospitals
principle
merely
##ental
##uther
deplor
reluct
compliance
voiced
##oulter
renegot
dictators
deleted
lieutenant
fighter
hiding
reince
column
judgment
releasing
globe
jumped
tas
expose
worldwide
annex
##uckabee
declaring
conducting
renewed
inspector
dumb
hitting
##math
##ration
##iel
inher
##ressed
resulted
consistent
insurgents
62
##inform
prize
exxon
org
manch
elabor
destabil
escalation
aven
mock
rab
##n1
properly
breaks
financing
buzzfeed
sull
witch
##ca
##yer
prol
household
backs
flake
contests
delayed
ranks
separately
kidn
interfere
disgrace
deemed
##zo
##state
##osexual
stress
##aving
flash
##affetz
awa
barely
electronic
laundering
jet
clients
brings
outlet
barn
solve
##borough
applications
ukrainian
closest
jimmy
lux
philosoph
gabriel
##rc
rely
deir
##aken
aftermath
operate
staying
populist
aims
kenya
scenario
farmers
64
cens
##mates
##gen
##uous
##ket
offers
dodd
blas
consent
flo
celebrate
babies
acknowledge
##risy
uncomfortable
opposes
enterpr
##keley
medicare
comedian
tayy
rifle
dyn
##aware
flaw
explicit
reviewing
pakistani
airports
hypocrisy
mcmaster
##har
##iffin
articles
negotiated
walker
benj
flew
definition
unveiled
perez
gul
nasty
##eo
stressed
weekly
advised
constant
admir
snap
successor
sergei
zor
##pass
##olved
manila
assume
contrary
glass
handful
stopping
sixth
crowds
exclud
procedure
bankruptcy
jacob
sullivan
koch
zones
##uting
stayed
learning
sadd
tune
##ski
##atr
##lyn
neo
enorm
##encer
bigoted
holl
##fall
##jud
chaffetz
maher
predicted
relationships
momentum
berkeley
mexicans
proceedings
dramatic
dur
jenn
kos
mol
##ios
governing
boeing
older
application
copy
holy
surviv
suspicious
historical
casualties
dishonest
63
julian
rud
##war
whist
shirt
enacted
##izer
universities
outspoken
bernard
felony
settled
explosive
hang
heat
graft
mans
element
##qual
schol
detect
normally
aggression
maximum
experienced
collapsed
fi
mechan
##athan
factor
divisions
turnb
envoy
bench
deported
exercises
procedures
bullsh
kicked
benjamin
trained
##irts
blat
##rete
equity
flying
mcd
traditionally
tayyip
bible
mocked
vat
##gent
##lers
##jo
##ailand
letters
nominate
conviction
suffer
hammer
frankly
vacation
overwhelmingly
stab
saved
weight
brad
overr
appropri
funeral
committing
careful
timing
reminded
municipal
gear
huckabee
sons
thailand
##isation
##oded
ranch
scarborough
malaysia
tremendous
reiterated
hond
theories
finished
cleared
infam
humanity
describes
misle
celebrity
sharply
fusion
##cker
##xy
ships
preserve
soil
bars
foreigners
##aze
loan
responses
franken
villages
frustrated
ignorant
colombia
tap
##sd
##asse
##tering
gray
intense
campaigned
##issipp
absurd
acceptable
forecast
finger
nut
pour
##bie
##atab
##elson
brenn
counts
attach
syn
testing
commitments
incredible
passengers
sustain
abbas
bio
pin
raw
##eding
beating
twist
healthy
gunman
crossed
encouraging
illustr
emotional
thorough
61
ib
sin
##rin
##tin
helps
advers
discour
constantly
convin
choices
damaged
preventing
map
pomp
insider
irre
centre
##linton
lowest
atlanta
mutual
precedent
sight
tu
##jections
arbit
brady
compens
mississipp
edge
maintained
glenn
cleansing
disputes
suggestion
roads
purposes
consistently
substantial
perspective
convinced
hij
jill
tall
concrete
criticize
accusation
popularity
bonds
antonio
fascist
nonsense
##caster
alarm
earning
error
circle
verdict
ast
lone
##vent
sham
##orted
##andowski
warm
sentiment
ceiling
viral
honestly
antonin
entertainment
intellectual
brennan
bent
##emb
##era
enact
finish
approx
organizers
1993
outright
occupied
inequality
##jection
##acon
##tha
##essions
eval
dignity
drove
eat
gal
##orious
##trun
sheikh
monet
screw
struct
##angag
guests
providers
annivers
passion
topics
##phy
device
austria
televised
displaced
mnangag
chambers
dreamers
obligation
subpoena
retaliation
frontrun
turnbull
ger
serb
arrivals
convict
repeat
walls
cameras
obligations
chapter
mnangagwa
dup
##roc
##icking
pride
shin
cairo
secession
justify
buff
headline
denial
carefully
lots
##insky
sky
complicated
corporation
assaulted
powell
pulling
demonstrated
unnamed
loretta
pose
stee
grid
singer
admission
progressives
encoun
existence
significantly
rolling
assassin
hungary
anchor
vatican
ck
sis
##opular
spencer
refuses
publish
soul
credits
plaint
mississippi
disastr
scope
boast
mainland
120
broadcaster
youtu
unpopular
swedish
dedicated
incompet
hay
##mel
##oms
unique
plag
demograph
asset
factory
websites
types
hoax
anniversary
72
datab
jerry
conven
associate
sacrif
steele
lago
##pg
##ardo
intends
theme
drone
tamp
planes
stephan
attrib
sponsor
di
xen
##iang
scal
libyan
standoff
expressing
abdullah
lewandowski
fundraiser
premiums
mohamed
oce
vocal
##ente
##ams
shake
frag
##away
indicate
##opez
phones
smear
readers
ahmed
vetting
prevented
lobbyists
extraordinary
gil
anx
units
permit
193
travelers
participants
alternate
prayer
hondur
istan
lt
lists
##rary
##icial
plenty
##assion
proving
killer
threatens
salman
excess
ultimate
academic
roger
revelations
aspects
detainees
undercover
istanbul
ailes
curt
eve
luther
##life
##inter
##onz
##arity
lect
offended
exposing
install
sets
facilit
urge
choosing
femin
legitim
##agram
lord
craft
##okes
##iking
feature
serial
seemingly
favored
software
elderly
matthew
contradict
disastrous
rome
##ini
##icum
stable
hass
##agn
disney
##apore
wells
colbert
summ
mandatory
promoted
collective
biased
framework
undersc
##element
##aunch
unite
incumb
secrets
variety
henning
baldwin
enormous
##fare
##ationally
securities
favors
singapore
fairly
recognition
exception
gmt
ec
fet
founding
pig
##set
##bell
stocks
neoc
enh
##ailed
##athy
estimate
affir
furious
epic
abandoned
bother
upper
yang
abadi
partly
intens
beck
root
carrier
defendants
contractors
laughing
frontrunner
henningsen
fcc
gill
hook
tucker
##ede
stir
##awi
attitude
##phere
engaging
surely
launching
necessarily
titled
lesb
screaming
kil
murr
sidelines
##hi
##ongh
orient
##ratic
invitation
cares
genoc
departments
possession
affiliated
teams
answered
applause
revenues
approximately
##amation
##roots
basket
raped
participation
discriminatory
insults
scenes
ousted
cot
lopez
rounds
##xic
structure
finicum
rajoy
procla
briefly
cheap
generations
celebrities
jar
##uine
##va
##usted
improp
organizing
mosul
competitive
initiatives
frequent
punishment
tackle
autonomous
evangelical
hidden
##gers
##eded
unbel
drinking
movements
locked
1999
dropping
understands
buddhist
oding
##tery
wass
dispar
expense
chiefs
foxnews
##aughters
awful
unnecess
houthis
juris
submitted
coulter
##pers
##zyn
drilling
##inski
pupp
rocket
quietly
ordinary
monetary
odinga
##fk
saving
conyers
noticed
exists
cloth
managing
consol
strongh
deserves
##ologies
nyt
confidential
stronghold
##keep
##inson
##ird
aligned
##iec
crude
griffin
residence
howard
##ahn
liberation
engagement
resolved
auto
jihadist
demonstrators
mortgage
xenophob
piv
##clinton
##hu
repr
notion
instagram
sexist
golden
narc
duties
spotlight
maxine
taylor
cfpb
wasserman
andre
index
##angers
parade
##ernick
primarily
1998
lifetime
rebuild
confrontation
erupted
hates
pure
vs
##atri
##icut
reward
hasht
indication
owns
thousand
designated
unlaw
script
deduction
principal
desperately
mixed
avenue
hashtag
gif
nl
pace
##bu
tools
unle
caution
immunity
editing
contribute
hotels
condemnation
recommendations
nigeria
athlet
burr
gent
jake
pard
roles
##ilton
##iano
##aved
##ache
wanting
##epernick
advisory
equally
peters
riots
suspicion
connecticut
##vaney
mulvaney
stretch
pompeo
unbeliev
piss
##pected
proves
pressing
regards
stores
keith
ensuring
demonstrate
bathrooms
loyalty
slightly
manufacturers
unexpected
##zynski
##opard
genuine
watson
realized
strongest
##lessly
regulators
angered
applican
keny
unfit
volunt
lifting
collected
awarded
##respons
bullet
rogers
cul
gift
lisa
##western
##itious
trau
concent
fright
somewhat
factions
sentences
petro
sharpton
coordinated
perceived
gore
kab
pill
##hill
staunch
dean
saud
colleg
passport
capabilities
extension
##maker
##ushed
err
##otten
celeb
litigation
vigil
phrase
59
daughters
##rist
bruce
incor
##apers
overthr
recess
recalled
##orship
##istrations
empire
feared
rapists
documented
wonderful
survive
##club
juncker
neighborhoods
99
95
##inge
atm
contested
phony
guidelines
federation
artist
neck
administrative
kinds
gest
sie
betr
##acking
quo
##liest
aclu
jeopard
statistics
expression
delegate
##ommod
trusted
fueled
pursuing
diverse
besides
contributor
cocaine
kisly
klan
lam
ray
sic
trick
##aba
accommod
pharm
sanction
briefings
1980s
##holders
savings
wildlife
grassroots
administrator
solidarity
reconcil
comparison
misleading
dying
##sc
##fast
toxic
##amo
##atell
##uner
outbre
##ails
blunt
teaching
##ahr
empower
murphy
clarify
rarely
latinos
kaepernick
kislyak
mile
wang
ing
offense
donation
advances
rulings
larry
delivering
avoided
approached
recruit
houthi
cotton
lake
theft
exce
incent
monument
expenses
##ption
charter
nightclub
roberts
distance
saleh
lengthy
pocket
nonprof
whistle
mechanism
fish
gates
ry
wider
##isher
highway
colin
economist
raises
maintaining
allegation
morgan
visitors
similarly
contribution
contractor
hole
innov
spreading
permits
performed
infamous
##rd
##entions
##iltr
outlined
outgoing
nationalists
freeze
universal
admitting
doubts
childhood
burned
repealing
willingness
integration
deployment
hyster
idiot
passenger
thugs
museum
clothing
shadow
##information
blasio
gulen
bans
##page
##ati
clay
feat
contempt
england
occas
demonstrations
naturally
determination
awards
precise
constituents
hassan
rach
taught
##sters
dealings
internationally
resolutions
silver
mobile
audit
prospects
bullshit
gard
tyr
yates
##ym
##anded
disor
marks
restruct
flee
packed
implications
embrace
buck
hud
##icating
##aying
##oping
handled
reveals
insisting
##eastern
hispanics
frustration
understood
appreciate
##apolis
nikki
huffington
##isons
andy
unre
##ighth
##ucking
negotiator
awes
researchers
highlighted
ugly
etc
peskov
emirates
murray
78
satell
wise
##mun
##usa
repair
brig
twenty
scam
kneel
surg
##ternal
hardline
homosexual
exclusive
beyon
surrounded
occupy
boycot
gps
kal
yield
##car
whoever
##anted
overcome
##auk
backers
reloc
slave
1994
falls
improved
insulting
ignorance
transparent
nelson
ott
dressed
warner
belt
irrespons
somali
picking
landmark
madd
improving
surrender
prosperity
producing
patriots
inflation
subsequently
ax
tested
trucks
comfort
presum
drills
confusion
loose
distract
statue
trips
documentary
reflects
##umption
objective
bullying
awesome
##hl
comfortable
weiner
nobel
glad
##ordination
##ressive
suspend
absence
intentionally
queen
incumbent
74
fern
mocking
sinc
vile
##uments
##wal
##erally
shap
offsh
crash
expire
deciding
insert
economies
arriving
##ovich
lincol
examiner
huma
ownership
cdata
##celona
territories
tantrum
lincoln
73
gag
gonz
odd
##ils
stad
bright
upheld
economics
spew
hardly
negotiators
tourism
contentious
consolid
77
hor
soph
##matic
blm
default
barcelona
smoke
calc
##anny
occasion
predomin
obstruct
methods
rapidly
sisi
sway
##hani
##lymp
rauner
convoy
reduction
finances
profession
flex
philippine
shelter
tunis
recipients
##nrt
confronted
67
rah
reop
trag
##olas
chat
clock
recession
schul
transm
edward
fails
ideological
battles
screening
persons
machines
academy
medicine
discredit
bahrain
dil
rage
tms
##lands
stead
unch
securing
score
airline
##atta
favorable
thirds
##bean
baseball
newspapers
skeptical
bernardino
ko
##inh
haiti
##osta
##eek
nord
secured
##rique
keen
brutality
observers
vessel
##auliffe
accompanied
han
kuc
##ela
sectors
allen
plays
replacing
comedy
celebrating
tmsnrt
olymp
##bar
##10
##urity
intend
herald
whenever
scat
carib
transcript
transactions
generals
debbie
charitable
suspension
catastr
expectations
correctness
outraged
kurz
micro
assertion
persecution
belgium
mick
overn
tree
yah
##eu
##sp
##lete
leverage
##acks
orch
##ibilities
##uez
cox
cohen
mcauliffe
oversees
##archy
mistakes
diego
recommended
random
ocean
overnight
9th
pitch
rever
congo
brz
resume
imposing
defined
surrog
educated
verified
unsu
##lusively
krg
##paio
settlements
rumors
stadium
catastroph
bish
uc
##dled
##16
legislators
chairs
prosecuted
vacc
jonathan
electricity
isolated
##committ
unnecessary
clothes
mothers
ward
##uations
outd
scary
assigned
longest
stepping
filib
embargo
skills
uncovered
freedoms
couples
participating
tariffs
doug
pregnant
barnier
kenyatta
lapt
nc
##post
##oning
toll
##idi
arpaio
computers
compassion
coach
extrad
explosion
landsl
coward
chanting
genocide
aung
icon
luck
zin
##andering
confused
##alsh
info
infiltr
swiss
seconds
##ova
pulse
##guard
certific
sid
##iy
##isen
unrel
grade
defect
thresh
guant
propert
elites
locations
1992
panic
amendments
occupation
surfaced
category
foss
por
##oft
##kward
##eston
donn
drivers
##athers
submar
smo
possess
revised
rooms
sharif
persist
beaten
dubai
tsai
echoed
pivot
brzez
fior
gaining
tent
torn
##auth
inev
##awa
elev
coordination
prelimin
param
stops
urgent
developer
complaining
applaud
witnessed
properties
93
fu
rolled
##mz
##uating
counted
##mann
overl
##ensions
striking
hostage
salary
##brid
awkward
appealed
corrects
achieved
consulting
junior
dictatorship
nonprofit
kuczynski
orchest
threshold
baker
diam
jak
ought
##celer
##oca
##uding
partial
scores
##avor
acceler
##makers
revealing
##ennial
reminder
shouting
argentina
gow
ripped
sed
##ho
forever
heck
##eting
indicted
barriers
concessions
costly
versus
sadly
enjoyed
jihadists
tactic
flooding
dismantle
deliberately
schulz
unsuccess
fossil
preliminary
bosn
ego
ga
jen
kate
walsh
##lib
beg
unpr
abol
issuing
factors
edwards
restroom
addresses
populations
punished
supremacy
scalise
fpo
##hell
##opolitic
##abad
worship
recovered
temer
formerly
##contin
palace
modi
festival
convictions
caribbean
ais
fee
##gt
topp
##utical
subcommitt
arrive
fights
furthermore
pretend
scrap
embarrassed
charlotte
##guided
historically
shouted
rouhani
venture
legitimacy
lol
##ml
##mic
inacc
stalled
samp
leaking
covers
description
barry
lesson
##ported
1996
deterior
dutch
subscribing
jennifer
dow
rational
##water
stan
##atem
##ulations
##ounced
agit
retreat
boats
##ifications
involve
geopolitic
journey
hacks
equival
risen
1995
emerging
verb
introduce
tribune
rescind
premier
substance
fortune
overthrow
fuck
hug
##arming
heated
alco
abrupt
bless
congresswoman
postp
harbor
arrival
revive
injury
tribal
troubling
bragged
arrangement
appropriations
shinzo
brzezinski
nich
##kaya
fore
selection
assured
guatem
retain
allegiance
filings
collabor
identification
absent
misguided
bombers
hammond
embarrassment
birthday
laden
fulfill
tragic
##author
barg
horse
rank
##drew
hern
##irect
fires
##umes
wedding
acosta
caps
agreeing
illegals
employer
limiting
participated
bloody
reversed
persuade
colleges
wfb
##itan
beast
stars
##uru
leon
##alling
##icting
executed
covert
espn
maga
verify
##burgh
homeless
mohammad
exploit
helicopter
overseeing
database
zinke
hanging
liab
atroc
unilateral
##iann
peru
ammun
wrest
latter
submit
authoritarian
robb
accuses
timeline
kimmel
producers
brazile
dubbed
severely
bombshell
featuring
landslide
subcommittee
eli
ride
sli
##burn
##icism
features
2017trump
simon
exclusively
jeffrey
paint
tribun
charlie
physically
locker
unbelievable
reconciliation
excell
pump
##17
##watch
##lee
##amm
reply
notably
cra
hadn
cole
tapped
2016the
setback
chron
nationally
hosting
troop
portland
churches
melt
troubled
remind
surface
scotland
##twitter
surgery
##ben
theor
theater
##oration
toss
##icable
##theless
##opping
##identified
cloud
uphold
##rapped
drill
annually
importantly
tourists
automakers
enrich
unfairly
tolerance
stunned
irresponsible
smooth
fiorina
ammunition
loses
##ii
trash
alike
##usk
shawn
##iped
##erving
desk
##resident
aired
creates
condemning
wondering
implementing
mentally
tears
cdu
forgotten
barbara
survivors
bump
jess
slim
ypg
##dc
##omen
##omet
##osphere
decent
defensive
barz
signaled
laur
ambitions
1997
memory
1980
pieces
krist
tolerate
labeled
counterparts
salvador
enterprise
maddow
tag
stal
##ches
sport
alloc
whatso
##eck
administrations
banner
subur
##prop
hunting
firearm
bankers
delta
ultr
disappro
venezuelan
ashamed
burns
sustained
preferred
separatist
slogan
71
900
dated
gdp
tam
wis
##ato
##esy
##igen
unidentified
##ocol
arrog
##grap
##grade
knife
underway
##ahah
writ
##aires
stealing
holoca
resulting
territorial
plaintiffs
whatsoever
holocaust
##organ
##ids
stabil
heather
withdrew
newt
contains
nevertheless
operative
captain
technologies
girlfriend
christianity
falsely
aggressively
impeached
raids
routinely
disorder
kam
rogue
sits
##oli
notified
polar
adequ
roof
commentary
euph
##gging
babis
hurting
dw
dual
mounting
##roll
##anamo
##icon
unarmed
encry
##aste
outreach
##active
minim
irr
earn
barrel
entity
speakers
pleas
educational
treating
appointments
motive
##strom
weaken
tracking
prayers
endorsing
correspondent
guantanamo
##pal
inmates
weird
exceed
interrog
warfare
downtown
propose
1991
##afi
examine
nyc
channels
wishes
touched
surprisingly
dependent
coffee
luxury
sacrifice
##rob
##lave
##bil
##anes
##ching
unhing
orth
arsen
hillaryclinton
dealt
dealers
mosques
ambitious
pleased
personality
austin
earthqu
libertarian
overturn
liked
emphasis
rushed
uniform
##aukee
aar
jab
pf
##nis
##dney
##ja
##45
alarmed
objections
somewhere
attacker
muham
secretly
syrians
protestors
##aphosa
epide
celebrated
inaugural
broadcasting
ramaphosa
eliminating
yellen
csu
applicants
cnbc
dian
eb
##lock
##tv
##waukee
chile
polish
feinstein
publishing
terrifying
violates
informant
prevention
commented
mcnam
firmly
minded
customer
garner
illness
autonomy
intimidation
murders
lesbian
unlawful
yahoo
gowdy
gib
##wer
atom
unaware
abused
enrique
managers
turmo
##ierre
poorly
cheering
obsc
caucuses
bolster
penalties
undermining
conscience
enthusi
hernandez
76
dimin
##mc
##iating
troll
sect
seize
semit
aged
finds
liber
constructive
socialism
enforcing
credential
statute
warnings
subsequent
elaborate
saddam
satellite
unhinged
turmoil
bitch
##eb
##eln
##ulent
##aceutical
sydney
containing
warn
##hips
emailed
loving
organizer
commanders
volunteers
diagn
unanimously
encounter
inaccur
bapt
nerv
pad
pitt
##mare
##right
prin
print
alph
##agger
blument
parks
victories
developments
admissions
reviews
cybers
##regard
delivery
injust
arena
milwaukee
highlights
brooklyn
pockets
nasr
optimistic
##qualified
barzani
blumenthal
bub
dare
##ateful
evident
blames
compound
marawi
indef
prejud
everyday
harare
organize
authorization
forming
##ablo
influx
compete
attendance
vacancy
##lusions
graduate
hawk
marginal
accuracy
bridges
greek
embraced
compensation
vigilant
pharmaceutical
##vable
##ignment
decides
winds
greatly
operates
damages
waiver
attendees
unfortunate
restaurants
rodriguez
dmit
klu
pst
rent
vp
yiann
stakes
alter
##asters
disprop
maniac
campuses
strained
knee
impression
nowhere
insists
##print
ports
drafted
colonel
deplorable
atmosphere
predominantly
pounds
##sb
##ses
##hannity
##stal
depr
courtesy
facto
cruel
occur
hamilton
angerer
gangs
swept
assumed
honduras
cant
hurd
reign
##otyp
##oler
chen
spo
##oduct
evol
norway
monthly
roots
conclusions
boris
slaves
steal
respondents
prosecute
carries
cheer
electorate
lgbtq
engineering
santa
fatal
pedoph
laptop
84
kiev
##areness
spying
enable
##odox
gren
counting
monuments
clearance
construct
nightmare
halted
holders
simpson
acceptance
benn
marketing
platforms
1970s
physic
rejecting
grabbed
sustainable
diamond
disproportion
kee
math
vin
##uz
##oni
##ingers
##ceeds
##minent
drain
drama
irony
guerr
idlib
authent
looph
sandy
doubled
checked
interfered
consultant
attracted
dogs
distribute
revelation
solely
##rahim
dynam
kabul
saudis
mcnamee
sacked
##night
##fol
##acies
sha
seiz
cher
##osures
contender
##urring
winter
##itskaya
operated
negotiation
snip
demonstration
procedural
advertise
provocative
occasions
rachel
offshore
ju
ingr
##itect
##iture
##arta
protested
legend
##eryl
detr
stewart
colluded
differently
admits
predator
architect
cdc
dramatically
demographic
dating
sok
##eff
##ien
##erb
##inity
##ionage
##idal
abus
##iph
intoler
invite
declining
reliable
schl
insiders
argues
eventual
stark
generated
worries
displayed
abdul
iii
semi
tanks
excessive
##grapher
##elnitskaya
eating
hood
ng
##leans
whit
lawful
opio
meets
battling
challenger
windows
renewable
veselnitskaya
affiliate
alcohol
epidemic
atomic
zh
##kar
whining
pri
pron
##elle
lepage
cripp
medit
assur
inspir
steady
bases
rebell
meme
patriotic
warsaw
selected
nonpartisan
##eanor
reluctant
fernandez
88
bot
mik
##38
thorn
inability
ster
alarming
chest
spear
orleans
placing
feud
drink
instances
institutional
destructive
awareness
landed
hearts
palestine
searched
insulted
purchased
bribery
##itzerland
marshall
mit
tang
wore
##rence
##12
thro
disl
governance
decree
defiance
investigator
switzerland
confirms
processing
silicon
escalating
automatic
compromised
interpretation
shifting
lauer
meltdown
nair
##nik
##aid
##step
lemon
upr
interim
underground
myth
2017th
espionage
safer
tribe
fortun
scholars
ultra
cass
pants
pesh
uber
zucker
##via
##keeping
##jah
##inos
bee
wash
chase
reserv
##rae
supportive
flip
download
islamabad
picks
laura
honored
shutting
avoiding
casting
strengthening
##front
fixed
loser
logic
luis
morales
##holding
accomplished
henry
nasrall
hits
oak
pit
##berman
##kh
##ws
##ctr
##udge
cair
commons
##obi
##ulty
imper
pays
watergate
appointees
interfering
archives
dragged
restructuring
mediterr
xinh
##tains
##xist
##zing
starr
##owitz
seal
uninter
notorious
caut
edited
handing
cruise
colleague
classic
broadly
qualify
woods
smuggling
fantas
explicitly
sophistic
filibuster
earthquake
maker
tusk
##names
##but
##kowski
##alid
trumps
fract
meat
##ipts
manning
lawrence
clinics
depth
##erres
##anean
creditors
branded
micros
guarantees
guterres
mirror
barring
aisle
guatemala
muhammad
cbo
diver
mong
mika
ov
oliver
##die
##15
forens
crying
##ensing
lasting
terry
believing
smoking
failures
banker
birther
obsessed
binding
prohibited
rebuil
abbott
semitic
neutrality
awaiting
narciss
nairobi
xinhua
faster
jere
kem
vague
##olly
cong
unse
suing
decisive
drunk
guide
boe
boo
iranians
southwest
hunger
aviation
battlefield
##enna
discriminate
squad
mountain
discovery
yiannopoulos
mediterranean
4th
gins
nuts
ruth
tab
tally
##mate
##rates
##itas
neur
unmas
undert
deferred
longstanding
directive
confirming
radar
##ovo
additionally
suggestions
pursuit
proceeded
bomber
sacred
observed
sabot
anticipated
mahm
uprising
rot
rans
sig
wounds
##ran
##no
##father
##aj
##zi
##enas
reacted
##acp
tri
untr
agrees
dems
appr
thanked
##icken
irreg
payroll
capability
swath
hacker
singing
macri
##etheless
bureauc
tracks
abdel
##zech
reflected
affecting
karen
shopping
weighed
emphasized
snowden
annexation
certificate
##oductive
irregular
czech
wield
##isers
##icits
alan
resh
amy
poster
subjected
slap
nonetheless
homophob
fleet
corey
overtur
agricultural
cleric
kuwa
fabr
blatant
klux
porn
##ek
##iques
##don
##ales
##alle
inex
stole
trav
shah
20th
outstanding
incon
consulate
desc
northeast
representation
commentator
arabic
##arrab
expecting
sends
aboard
intentions
attached
jakarta
tribunal
bust
kle
zarrab
##vens
##udes
incap
useful
questionable
mccr
involves
##shed
collar
waited
fuels
cornyn
enroll
virtual
insurgent
pilot
##olitics
tuition
arsenal
83
bil
cake
ditch
nus
##boy
##inth
##inging
##repr
sail
##chi
##char
exagger
clause
spell
disregard
appreh
complying
governmental
shoulder
harr
nominations
jane
faculty
marched
embed
delus
delays
blocks
specifics
garb
welcoming
praising
bullets
intervene
performing
shameful
pundits
rodrigo
plagued
presumably
dmitry
dave
nug
wade
ineff
external
clashed
depending
appearances
pai
##attled
solar
1990
malik
appointee
horror
disclosures
celebration
##neapolis
naacp
conclude
permitted
stupidity
lobbyist
prohibits
slowly
updated
volunteer
gentle
credentials
authentic
cup
jfk
null
rip
tense
zar
##iop
##far
##orated
prisons
aspir
##oko
minneapolis
knock
relent
schne
electors
passes
visible
oldest
swear
operator
entrepr
waterboard
panama
modest
liqu
montana
concealed
##piece
flawed
basketball
geopolitical
baptist
entreprene
cumm
dates
kyle
lun
makers
sided
til
wann
projected
deput
drown
##seless
wright
advancing
restrain
restoring
rapist
emerge
friendship
battleground
seanhannity
disagreed
meaningful
jesse
recommendation
murdoch
imprisoned
imprisonment
##ahren
craig
cummings
cyn
census
dyer
mud
pis
##19
bears
##ader
chad
##oding
grateful
compon
invested
2017this
missions
gunsh
patient
fallout
bombings
bragging
isolation
blew
transferred
instructions
puppet
excellent
2nd
pause
##due
##oney
##asm
rewr
##ima
clown
plun
obamas
teeth
marines
depos
workforce
execution
malware
assaults
##iaries
superior
cheered
utility
1960s
tickets
admiral
earnings
fragile
rebellion
nusra
aj
##pac
##anu
prost
partially
inclusive
exped
perception
gucc
blacklist
embold
defendant
competing
achievement
automatically
bowl
assuming
disappeared
neocons
siege
nervous
79
eag
hind
##md
##rian
##oop
##with
##edict
habit
##iances
phen
library
charities
operational
hostages
financially
damning
fallon
misdem
130
balanced
undo
countless
charleston
examination
dogged
licenses
##imedia
bogus
stephanopoulos
guccifer
cad
nether
##vi
tha
reun
##rection
##oting
conver
shirts
hailed
##ailing
deficits
endless
leftists
robust
frontier
petrae
regarded
devin
techniques
scramb
##ompson
blockade
milo
survived
indonesian
katie
laying
nypd
renegotiate
serbia
affirm
gesture
apprent
petraeus
2j
86
egg
##mes
##gets
##di
##bard
##24
tob
##itated
rejection
climb
contents
##ogether
betsy
millennial
lethal
koreans
bigots
denver
alleging
##ologist
profound
influenced
applies
##heed
lights
altogether
heroes
arrangements
households
censorship
boehner
jama
lap
nod
pir
uae
vand
##zed
thwart
##arro
beef
alb
meg
##ublin
groping
suppress
mills
signals
##azar
racially
moroc
sentencing
establishing
separation
greenhouse
generous
deduct
poised
laure
retweeted
elementary
summary
bart
gig
jokes
tx
yale
steep
##cht
indo
centrist
economists
airb
slaughter
classroom
##feld
ahmad
180
priorit
tripoli
fraudulent
combination
examining
yelled
denounce
animal
weighing
greeted
switched
utterly
passionate
proclaimed
unrelated
jessica
netherlands
##iors
##vy
##70
##omed
whe
saad
segreg
workplace
policing
transit
smile
defeating
garc
dreams
cardin
##addafi
instructed
outlaw
pissed
professionals
dangers
nur
posing
zim
##anity
##acas
##acious
##acles
trending
fried
unjust
cloon
incar
manif
justified
generate
faction
freely
israelis
messaging
peacekeeping
easing
petty
answering
circles
excited
respects
assaulting
undec
filling
vietnames
lockheed
stamps
discipline
aaron
sophisticated
ginsburg
vietnamese
lod
wary
##mart
##tle
##diction
##politics
##key
##orum
spur
drones
carly
##ahl
insight
northeastern
neglect
advocated
promotion
harmful
clarke
entrance
laughed
prohibit
##breaking
experiences
rampant
sweet
colonial
rouge
venue
helmets
rudy
innovation
sincere
sokha
clooney
cking
dust
ig
lashed
mode
npr
stern
shat
shed
##eland
##ibr
depends
fines
relax
stevens
shortages
cubans
models
weakened
painting
hyper
appealing
mitchell
devastated
breath
incompetent
##human
submarine
equivalent
atrocities
bennett
mccrory
deputies
lending
lucky
ria
beacon
shore
repatri
peak
monica
evan
exposure
##soff
clinic
takeover
slash
midst
erbil
responds
researcher
pledges
productive
explosives
terminal
succeeded
portray
merrick
athletes
liability
inaccurate
spearhead
cos
dublin
hens
mounted
tel
tipped
##bow
##ingu
##aria
##ullin
aggr
outcry
resur
reserves
maneu
contemp
attackers
probes
ordering
handgun
redd
germans
independents
uncle
circulated
advocating
mentioning
strategies
volat
pursued
dissident
1967
precinct
yelling
cooperating
administrators
##utsche
narrowly
hesher
wheeler
pardon
incorrect
microsoft
waterboarding
lamb
sara
waged
waving
toy
##adopoulos
##illo
##aka
offset
brink
overtime
interrupted
scre
refers
situations
trapped
pretending
prisoner
restricted
wikimedia
painted
resisted
humor
rejects
champions
jarrett
jurisdiction
nugent
dirt
fathers
gor
hated
ni
rav
wre
##gence
##iderman
reaff
##elt
belo
legs
servers
##teen
exploded
hostility
receives
charging
delhi
regulator
holdings
struggles
350
painful
objectives
bulk
hyd
mcmullin
unwilling
disgraced
hurts
ladies
daesh
shifted
manchester
whistlebl
reaffir
82
bhar
cc
ja
wo
##do
##dain
##76
##kley
thompson
##erver
prag
##ceph
nebr
exha
##merman
grip
accounting
##quer
helpful
blackmail
lessons
purge
purported
technically
aiming
papadopoulos
brazilian
distribution
disrespectful
kosovo
sanctioned
maniacs
sink
vince
##erpt
##iller
##mental
spends
orban
noah
##obiec
consort
scare
##issa
##airs
deton
directors
airstr
maintains
moron
repealed
crumb
globalization
mcg
philip
wilbur
msm
weakness
sponsors
engineer
boxes
ironically
subpoenas
indicating
fantastic
microceph
semitism
pitts
sterling
microcephaly
bou
dj
gork
imb
oz
sorts
##ram
##week
##ints
toil
##ares
reed
isil
froz
exod
exhib
spill
##agg
##ouses
myst
inflict
protects
excerpt
buried
randy
degrees
yellow
belonging
rifles
##colm
matthews
##keepers
precisely
##authorized
frozen
exodus
naming
pensions
##oh
##bk
touted
sticking
##owers
dept
##eli
unified
grat
inclusion
miners
##ultane
define
northwest
johan
infur
gunfire
midnight
salaries
simultane
malcolm
considerable
searching
##henko
withdrawing
tourist
ossoff
permanently
coordinate
indicates
accomplishments
feminist
outbreak
dana
hart
##mn
##zder
##onies
##oral
heal
shipping
ages
imminent
##rats
##inez
mines
##ensored
martha
opens
paralle
##olded
talent
boom
raed
pollution
ideal
caliph
religions
uncensored
puzder
injunction
lacks
worthy
sensit
##ilaterally
spotted
baton
applying
carlos
proudly
teenage
heights
manipulation
##through
reassure
tasked
destabilizing
##bridge
unpredict
euphrates
orthodox
indefin
apprentice
consortium
8th
fishing
nam
pi
wt
wnd
zanu
##50
##lev
forest
##olitan
##merga
lawless
parano
farc
aca
locals
valu
keystone
poses
benefited
respectively
correctly
copies
gradually
accurately
bailout
manchin
ibrahim
rebuilding
embedded
fingers
sisters
##40
##ora
sake
shaba
##ista
sput
crap
##grounds
##obb
compare
decr
proposing
sanaa
redistr
casino
opted
dismissal
cameroon
tribes
manufactured
harassed
tighten
undermined
photographs
peshmerga
beloved
shabaab
1st
98
duck
git
pink
##ls
##het
begging
##estig
sevent
unauthorized
button
ard
resemb
communicate
##appy
artific
capitalism
honoring
navarro
##iasm
guilt
humili
deductions
clarity
podium
guaranteed
belongs
fundamentally
brooks
creepy
attributed
kuwait
nebraska
hike
nau
nurs
ya
za
##fty
##had
##bucks
##igate
##umph
##chil
chart
##endez
##ecurity
##ensed
medium
##ums
lasted
refin
caracas
##retion
2017here
businessmen
sweep
##ruptible
listened
budgets
universe
recognizing
breakthrough
difficulties
mentions
rolls
examined
broker
milk
acquis
heightened
spectrum
helicopters
enthusiasm
nicolas
##iciency
scathing
writers
cybersecurity
injustice
opioid
zuckerberg
uninterruptible
irregularities
schneiderman
06
lighth
##eh
##ng
##ni
##nered
##lav
##bh
##29
##alo
##lett
stim
##terror
##ira
shaking
output
inciting
discon
afterwards
vienna
musc
##ernovich
edition
victoria
privat
extending
shoes
limb
interestingly
##roph
magistr
portfol
warrants
coastal
forbes
anxiety
dent
liv
vow
##bp
##13
##etown
##imer
shan
##istol
spite
outline
gras
recre
marit
courtr
relie
myster
##icki
schae
provider
postal
retali
islamophob
swim
walter
requesting
eliminated
curiel
rebuke
distributed
sympt
##election
psychological
icahn
vigor
pregnancy
nickn
wyden
facilitate
yangon
nordstrom
sectarian
forensic
garbage
raedle
fargo
greed
joked
pear
ral
##gs
##pin
reception
##oline
##sean
wasted
imam
compiled
warhead
guine
dennis
commenting
merit
mali
160
memos
quotes
practical
observer
scientist
escalated
disappointment
beauty
ironic
skepticism
intimidate
cartoon
transformation
separatists
paramilit
##continental
caliphate
courtroom
cig
dy
fucking
lag
ngo
##aus
input
allah
intercontinental
expend
recons
relating
deserved
##aho
hugh
restored
benefic
traded
ethan
enclave
franklin
reinfor
accidentally
championed
hypocrite
philosophers
clayton
laureate
garcia
maritime
911
bav
dies
emanuel
wound
##mother
##fight
##bm
whined
##oshenko
disav
##erring
terrified
famously
discretion
installed
arranged
classes
richmond
murkowski
landing
escorted
gasoline
worrying
cameron
boosting
brokered
humil
chaotic
grabbing
certify
malaysian
unifor
unleashed
frightening
1b
billy
hod
huss
kl
render
tail
##eno
##enz
##ilia
stu
proxy
arts
upro
##assified
blaze
comparing
defamation
instability
debun
iraqis
steph
artists
checking
podcast
curious
uganda
kicking
affiliation
abruptly
incapable
delusional
##children
cernovich
gaddafi
kel
pkk
rw
um
##fs
##erra
##inks
##ouch
reelection
stumb
##ctic
##iferation
disinformation
stripped
indirect
ammon
centered
releases
loaded
lovable
##alez
suspending
urgency
salt
identities
professors
motives
aids
insistence
mails
achieving
papua
symbolic
masoch
interpreted
supervised
portrayed
floated
petrole
bishop
ransom
nauert
bib
eisen
fame
kaz
rasc
sot
sounded
##fa
##arling
isa
##ateur
alban
##uder
##abling
moreover
lawn
conting
deflect
assure
##weg
##ancies
wherever
feds
proportion
beneath
rubber
obsession
closure
collecting
moralists
savants
unwanted
bleeding
##matter
ellen
bubble
keefe
gorka
81
96
cough
hating
horn
olig
sina
vowing
##uates
##kok
unint
unilaterally
##ounce
spies
##abet
enlist
##agen
##ibus
##ibution
grim
interrupt
justification
decre
relied
militar
parking
publications
wayne
oppression
endang
provinc
lets
behar
slated
neglig
metal
ceos
hometown
problematic
summon
martinez
rallied
forgot
chanted
evangelists
improper
gifts
voluntary
incentives
gitmo
humiliating
masochists
rascals
08
cous
hog
ian
mish
nd
pizz
sally
vel
vend
##hand
##18
##ji
beth
degr
shred
##elter
statewide
obtaining
novel
commod
getelement
fla
contenders
viable
breast
sane
filmed
sexism
amongst
financed
distraction
##byid
deadliest
dispatch
rhodes
superde
mandated
subjects
bangkok
temperament
##repres
orientation
bharara
lighthizer
getelementbyid
superdeleg
97
nh
##rition
deutsche
##andum
clue
offenders
##cca
twin
indigen
refrain
carles
cargo
nationalism
factories
rapp
gunmen
crises
homicide
responsibilities
devoted
##before
##after
alexand
acknowledging
reinforce
escalate
cathol
flooded
plotting
contributing
omn
tapes
gonzalez
robbery
aoun
g20
ki
kathy
##mouth
##fuel
##eter
item
spore
mead
beings
helton
downpl
2016featured
colors
continent
##onto
repeating
economically
##ippers
bashing
merc
counterterror
unfavor
lacked
yemeni
withdrawn
derail
purchases
supervis
philosophy
holland
biofuel
adversaries
gibson
assurances
cautious
indigenous
catholics
dl
fiction
fisher
lump
lame
src
##hh
##jr
##itudes
##idy
##adan
##think
exert
cro
blown
marking
quake
descent
advise
islamists
films
outsider
identifying
vetted
statues
starbucks
definitive
blueprint
disagrees
oscar
jumping
memorandum
movies
cancelled
sympathy
encryption
alphabet
hensarling
provincial
09
87
cock
kob
kath
##cuff
##bast
##atus
##iments
unins
suits
clark
adj
criter
##ensible
impart
refiled
2017y
detected
directing
infow
janet
despicable
hungry
aviv
125
##byt
countering
searches
ramsey
1979
abandoning
2025
inflamm
swiftly
disgraceful
mcdonald
jeremy
undecided
ralph
sinai
counterterrorism
89
##now
##dale
thumb
##ulus
exile
reson
disse
minors
mood
norweg
contrace
##ivesmatter
2017s
farage
handcuff
chairwoman
metrop
skilled
populous
poorest
bloodshed
halls
teenager
##ography
recruiting
unemployed
dougl
gilles
seizure
misdemeanor
##elihood
94
dere
fits
ip
nerve
sod
ws
##gue
##xide
##icious
stom
exemp
cav
##izza
sheer
manuel
##aux
teens
getele
##ravel
protocol
##dray
2017and
pressured
filip
hunter
globally
peacefully
ruin
baseless
linking
enforced
fearing
merch
malta
veritas
lowering
1981
##box
##worth
checkpoint
obstacles
updates
likelihood
triggering
inquiries
deliber
sympathetic
borrowing
manifest
pittsburgh
valuable
hussain
petroleum
getelements
gw
hend
rican
sel
##node
##zv
##kul
##23
thai
##icked
##acco
hem
##etically
##ammar
sequ
sums
prescription
proceeds
enabling
##odo
disability
monster
intermed
campbell
stranger
politicized
##othy
secretive
probation
organisation
approaching
civic
redacted
formation
grandfather
createelement
resource
kirby
landsc
achievements
unacc
ancient
attractive
retailers
hypocritic
donnell
adequate
reddit
guinea
inflammatory
erect
pam
rash
vind
##oran
##urge
convey
shady
##chez
notable
arson
disdain
##eem
overreach
##reep
knocked
preach
##drome
cordray
foe
societ
suburb
pete
launches
boyfriend
1986
introducing
revenge
audiences
reflecting
asserted
engineers
##brecht
disagreements
acquired
bribes
jamie
vicious
syndrome
##agname
flexibility
poroshenko
phenomen
infowars
owe
umb
##gc
##lat
##ori
forc
heels
##aman
shy
shell
abide
afterward
governed
monop
soe
parish
ears
2017it
advising
claude
approving
imported
costing
equipped
favoring
accusers
crowded
##urbin
improvement
deportations
promptly
villagers
savage
santos
reactions
reconst
preferences
exemption
coincidence
hesit
outlook
columnist
kidnapping
steadily
tobacco
norwegian
aka
bh
cnr
dance
dys
gord
laughter
rio
v2
##eny
##anth
##itr
prestig
stages
##etical
sah
##oper
fruit
unravel
##osis
orrin
##ello
usher
recounts
whitehouse
flown
carn
signatures
continu
harmed
realistic
specify
##annon
expertise
parentnode
meantime
##backs
humiliated
##guards
survival
ode
slamming
substantially
unhappy
transfers
intercepted
proliferation
mansion
beyonc
oakland
mahmoud
##bytagname
getelementsbytagname
bak
durbin
jc
lane
tablo
yu
##livesmatter
##donald
##inces
##ener
##isk
relying
sebast
##ella
expires
sci
relies
##drop
probing
anne
rapper
killers
array
steer
11th
sooner
motors
references
escaped
demonstrates
lavar
disruption
vetoed
linda
feeding
correspondents
bags
kissing
structures
shapiro
vessels
chronic
interrogation
sputnik
cigar
dash
taste
wives
##lie
##fc
##aso
##aco
alliances
resum
americ
suppression
parker
2017p
raf
clearing
shortage
reasoning
##arren
males
misled
photographer
strengthened
dominant
consultation
adams
tyco
flowers
olson
unhcr
hammered
bradley
fortunately
uninsured
fict
kham
puss
rocks
##sl
##oly
##pd
thick
##stant
##acerb
##adish
##estyle
exacerb
crus
bru
pew
grapp
reserved
recuse
##umin
relation
carriers
provinces
communism
haram
infected
slo
slate
lately
designation
impacted
challengers
trials
wondered
dissol
bolton
teenagers
branches
inspectors
wiretapping
prolong
blatantly
##sdk
ltd
reproductive
insertbefore
mystery
aver
cents
dio
raz
tons
xfb
##iq
##function
##hear
##ischer
hein
clim
clash
objected
newsweek
flu
investing
##cripts
phill
provoked
propon
denmark
marching
complicit
simpl
ethical
safeguard
unpaid
exercising
jssdk
disappointing
liars
recipient
satisfied
tampa
andrea
kneeling
sensitivity
gillespie
cnrp
dioxide
xfbml
dh
lenders
##lamation
##von
reich
tray
seas
chains
hait
##iah
offenses
arctic
##gro
intact
disarm
disasters
funnel
raul
programme
handel
formula
measured
kidding
fairness
breakfast
naj
tribute
lewinsky
consequence
vulgar
highlighting
terminate
fascism
lobbied
gabbard
emotion
sdk
mogadish
postponed
nasralla
mogadishu
pandering
##nu
##nx
##power
##hard
##kes
##ilation
bearing
heidi
alger
##estr
chapp
abst
residency
plight
anytime
##olds
administer
northwestern
conceded
signaling
slip
billionaires
lined
certainty
solic
awan
oversaw
burst
##franch
honesty
microph
boliv
tortured
denouncing
strictly
evacuated
discourse
unreal
unsuccessful
stuart
debunked
aston
bun
##bank
##14
##4s
##erie
##itano
##oped
chants
##anders
adher
##agu
grav
platt
##awling
incite
fein
##minster
guided
2017featured
alleges
gotta
legalized
arming
robinson
110
booker
practically
breakdown
purple
imagin
intervened
tightening
scrutin
freddie
belgian
thoroughly
hysterical
inevitable
fantasy
overturned
liquid
maneuver
dawn
fidel
hb
kay
vit
##rador
##gments
##giving
##tl
##will
##enfranch
##orate
forge
##olding
semin
##istical
##antic
oral
meals
peop
disenfranch
inviting
scan
##raham
depression
barron
addiction
studied
studying
systemic
operators
viewing
miser
focuses
felons
grandmother
zeid
accordance
skinned
magnate
supervision
preparations
trauma
catastrophic
extradition
orchestrated
bosnia
unmasking
sabotage
sebastian
codes
dpr
napol
rude
waves
anarch
stump
##ami
sealed
chol
presents
abiding
spaces
donna
sheet
heroin
monitors
##oller
impasse
mayors
hills
2016and
19th
##atorial
##enei
globalist
residential
creative
disagreement
tackling
foolish
twisted
xenophobic
applauded
meadows
##kulow
cinc
dud
fisa
gaff
len
lahren
naked
padd
rated
##cw
##https
streep
trends
trumpcare
##cha
weaver
##iago
bry
##awl
demag
##anski
imperial
controlling
2017in
europeans
penet
regulate
ranked
goldberg
grandchildren
bird
approaches
1989
implied
1973
hurricanes
logical
disrupted
ceremon
dumping
hinder
romania
pouring
wrestling
disproportionately
unpredictable
odebrecht
bolling
hi
ldp
tat
wrapped
##nom
##antha
spark
##elli
nose
secular
compelling
impressed
flames
careless
insuff
idaho
servants
humb
reductions
advisors
basement
pledging
restricting
punishing
promotes
reminding
rescued
subsidy
idiotic
curbing
clerk
lucrative
sleeping
wyoming
unanimous
arbitration
enhanced
errors
recruitment
surrogates
triumph
enrollment
vandal
simultaneously
criteria
khamenei
bik
dug
kitch
mp
##mith
##tor
##pec
insec
##icia
##asive
##real
##otus
whip
beer
priest
##uto
##ads
fringe
sekulow
haider
sugar
spike
mega
enquir
##iber
##aping
overly
##ensen
mariano
courses
amounted
maung
wray
blacklivesmatter
behead
glo
colluding
presentation
significance
horrifying
reminis
tonnes
digging
losers
purchasing
dubious
terminated
sacrific
fabric
congratulations
bentley
voluntarily
slipped
dianne
toilet
summoned
superdelegates
pussy
peoples
dprk
gian
gaz
mask
pc
tir
ano
stiff
##etch
##tert
fren
##ocy
bypass
hastert
leo
##dern
##mbier
scrat
stric
##ickers
functions
cord
buen
judging
smiling
sanchez
intelligent
10th
meters
revamp
snl
rallying
multilateral
defenders
referencing
difficulty
dismissing
illicit
##rogen
monitored
santiago
barrier
##amini
elder
poisoned
misogynistic
stabbed
assassinated
incompetence
lecture
cautioned
verbal
arrogant
johannes
reconsider
metropolitan
##urgeon
07
egreg
gamb
hans
jav
kurt
vik
##making
##wald
##isible
##star
stall
albe
chry
##uble
adolf
peers
shep
##uev
cared
centuries
aires
informal
looming
extortion
embro
menendez
telegraph
ethiop
experiment
crossings
volume
utilities
unsub
reminds
paperwork
bedroom
samantha
ghost
demonstrating
adoption
ellison
slogans
kilomet
betray
garden
mongering
ineffect
seventh
tabloid
sloven
stricter
buenos
albeit
bast
cem
eg
hr
laz
##hole
##28
##25
##amble
unqualified
levin
preserving
dob
resent
themes
underlying
regain
dry
warmbier
defenses
carpet
endanger
##ernity
surpl
socially
humans
profiling
erad
armored
mosqu
##oubted
ruined
capitalist
panels
educate
raping
undoubted
commonly
jefferson
##worthy
##comes
reversing
surveyed
##friends
retaliate
preparation
scholar
olympics
suburbs
limbaugh
portfolio
schaeuble
biofuels
trayvon
napolitano
asean
dot
stere
##acey
withhold
unst
crush
doha
outcomes
decency
marry
warri
maur
secretaries
colored
foes
behave
denuclear
acres
##tenance
singled
walmart
figured
conventional
cheers
ridic
volumes
bureaucr
vacations
spray
thanksgiving
wildly
shelters
bosses
punched
evacuation
excluded
bothered
millennials
douglas
bam
boko
mour
##bec
stelter
##ims
##ocratic
abraham
aging
incons
incomes
norms
confisc
nationality
schm
violently
##avez
##veni
metro
futures
deceased
revoked
sidewal
boards
varad
distingu
##burse
owes
touching
remotely
hysteria
abolish
wisdom
booed
artificial
impartial
reminiscent
undoubtedly
warriors
91
foul
gub
mason
##rate
##iya
##afe
##df
##berry
##jj
sting
##imani
saint
##ourg
appalling
medi
deterr
founders
foundations
infant
yorker
payer
debated
slain
destination
skip
richest
sne
circulating
excuses
##aneous
rosie
filmmaker
enjoying
affects
partnerships
sparking
embracing
idiots
echoing
tyson
irrele
nytimes
beyonce
cassidy
restraint
osw
riding
tmz
##met
##gi
##iently
##fir
##hem
##atom
stif
chal
chavez
unequ
abid
enabled
##asted
##astically
doctr
recounted
quant
finland
##onsc
whereas
2017i
raided
farmer
socialists
exploring
outsour
delaware
skew
skyr
credited
ambul
moderates
safely
balk
berg
scottish
chao
intentional
youths
cornerstone
toronto
misogynist
optimism
rabid
kidnapped
gerald
intensified
##twittertwitter
klein
aggrav
dlamini
hypocritical
stereotyp
skyrock
fist
fury
fatt
mig
pile
##itute
##ayev
weas
plug
##izon
##acters
flows
contamin
defun
mao
foia
annoy
conservation
characters
foxand
holes
activism
penn
devil
finalized
existed
radicalized
hats
vacant
arguably
mobs
characterized
objects
hungarian
exploited
1950
burdens
shrinking
remarkable
navalny
patriotism
override
homosexuality
pivotal
enthusiastic
croat
egregious
bs
cod
cite
cope
furn
iae
rift
tong
##ux
##fia
##ao
inad
##otics
##avo
drives
assim
##velt
##atherine
##byn
accuser
resigning
temple
warrior
criticisms
mistaken
assembled
essay
stationed
logo
precious
bolst
tearing
2021
tyler
categories
confronting
prepares
mockery
screwed
stabilize
foxandfriends
iaea
92
hikes
mak
ninth
ric
rag
tin
tore
tum
vault
##ple
##zok
##alt
##arians
##enthold
chilling
unlim
exposes
indis
backgrounds
defer
publicity
2016th
transcripts
farms
readiness
civilization
solved
resolving
gays
khal
weakening
tracked
occupying
coordinator
perpetrators
crystal
pilgr
freder
hayes
mickey
dissemin
irrelevant
unlimited
athe
hiv
pont
rous
sgt
##aqu
##kind
##kirts
##55
##inational
##leck
stip
stunt
alg
align
fraction
whoop
prox
##ighting
aller
obl
expelled
invalid
recapt
amateur
defied
thrust
electr
moreno
##ologically
acronym
cement
outskirts
void
burg
hamm
patrols
mandates
embassies
bullied
predecessors
manipulated
columbus
inherited
boasted
xenophobia
purely
concentration
transmitted
koike
prejudice
hydrogen
mishand
aerial
bb
fare
hrc
jol
lan
liz
waging
##mi
##je
##wat
##wing
##erous
##opes
polit
butler
wors
##agate
##iked
griev
disqual
manus
##obama
synd
##coni
debts
slashing
victor
illegit
creamer
financier
testifying
ambush
mck
traditions
epstein
clever
respectful
multinational
silk
falsehood
##enched
exchanged
##uffle
1984
sickening
rodham
##poa
subsidiary
##cliffe
engineered
beside
shameless
fetal
boycotted
tunisia
surrogate
cheney
dynamic
thaad
dissidents
paddock
kitchen
surplus
mosquito
varadkar
5th
aiding
erupt
gn
##lings
##yc
##zc
##ken
##olo
shun
crashed
##ratives
blowing
invade
nowicki
flowing
policemen
talented
corbyn
boots
infighting
surged
hardest
140
murdering
quoting
kenyan
risky
berlus
wealthiest
1987
narratives
adopting
danish
inspection
joshua
emphasize
brookings
cells
ayotte
shields
dismantling
misogyny
enhance
##hillary
sample
diagnosed
parallel
acquisition
umbrell
enquirer
inconsist
bess
jays
kon
pizza
##fan
##atisf
##orus
##isans
##iden
stagg
shook
unborn
##oslav
cliven
##herent
eleven
overst
blitzer
likewise
##avino
mooch
paraly
roose
hua
vehe
clearer
explore
convinc
affleck
traitor
articul
detailing
florence
beneficial
dispers
corrected
1985
buyers
lifestyle
initiated
jonben
coordinating
karl
katr
tuned
forbidden
dickerson
blanket
destabilize
fabricated
plunged
hindu
##anthrop
##stantiated
embroiled
unsubstantiated
bureaucracy
vehement
dared
md
russel
##losed
##hall
forfe
##eling
frat
notor
doe
##ema
coh
marxist
straw
efficiency
souza
soccer
restart
conventions
##phones
skid
valerie
deepening
circus
philanthrop
ambassad
grandpar
propagand
conspiring
rockets
dominate
satan
junk
textbook
academics
holidays
athens
dunford
flashpoint
##ierrez
reservations
repatriation
volatile
pizzagate
kobach
reconstruction
tycoon
ineffective
berlusconi
katrina
fda
hip
kc
mant
yard
##gle
##kre
##wall
##aro
angr
##enting
reimp
##ulu
##aki
##arded
##auer
perkins
medal
impressive
defying
insanity
guill
gupt
rooted
##urry
moveon
authors
systematic
patience
hunts
arabs
doubling
childish
documentation
heaven
environmentalists
owed
vacu
squee
cancell
assertions
loyalists
quarterback
supplied
unusually
snowfl
magnitude
forthcoming
smugglers
##habi
evaluate
toppled
sailors
nickname
americas
cincinn
johannesburg
roosevelt
aer
auction
dna
ft
jpm
mend
pound
wen
wend
##mons
##rock
##sk
##ais
##vs
##26
##idt
##stad
staging
##imize
convert
worn
attitudes
mini
mineral
##uces
strzok
moody
undergo
##atories
communists
booth
debating
antics
antagon
maintenance
llc
merits
entirety
##brand
##bright
misinformation
misrepres
storage
energ
portman
portug
frankf
timothy
domain
copper
celebrations
1988
punitive
determining
exceptions
obstacle
rigging
gutierrez
iceland
shipments
casualty
fiery
ranchers
arbitrary
restrooms
coleman
##palin
guerrilla
abusive
tilt
affirmative
segregation
spearheaded
indefinitely
mysterious
stephens
contraception
phenomenon
bazar
gerry
ling
nab
pree
sri
##new
##ci
##case
##inction
withheld
##elines
##anto
crushing
crushed
bro
plate
cann
knees
couric
immense
condol
legalize
erase
processes
georget
trey
bombed
portra
lacking
eyew
fema
drafting
brandon
praying
batch
lavish
fatah
barrage
reactors
kinder
##ulsion
enterprises
structural
jurisdict
ottawa
forefront
physician
sniper
inconven
zarif
symptoms
grandparents
cly
hut
jae
nail
pne
woke
##mr
##cade
##hy
##illery
asp
##thur
seizing
uneth
2030
##ifact
upload
commem
complim
supplement
coven
scape
courth
##angled
downs
majorities
complet
halting
palmer
unconsc
deepen
keys
storms
madison
unfounded
lieu
versions
encourages
camerota
premature
compromising
therap
prohibition
undermines
##iably
exemptions
daddy
retailer
##iciently
##john
illustration
scrambling
paranoid
uproar
kazakh
cousin
deliberations
najib
insufficient
weasel
##kreli
bach
cory
ferr
gage
mistr
nj
ox
wiped
##gel
##table
##60
inade
inqu
reim
##utive
wasting
sherman
seated
##abb
##izable
##ipted
##owners
quarters
impunity
timely
confer
confid
##drick
congressmen
2016trump
clamp
##erner
raj
veiled
visibly
nevertrump
studio
legality
patton
midter
distress
##shr
arabian
##ueless
divest
travels
chooses
stays
pageant
##quez
radicals
melissa
jewel
hypoth
##working
swedes
fixing
lavoy
motivation
queens
boundaries
argentine
deplorables
pigs
passports
barrels
loophole
gunshot
omnibus
merchand
doctrine
illegitimate
inadequ
bite
fond
iphone
nv
rit
tub
voc
##mal
##gart
##oot
##xx
rehab
saeed
asc
shannon
##chin
spare
enshr
bron
brat
brun
##irez
mario
depict
backer
underw
sometime
discusses
affili
embattled
lesser
robbed
artillery
accessible
waivers
separated
murderer
moderator
##strike
combating
cultiv
cheaper
unspec
ratcliffe
troubles
revolt
ramirez
resisting
sarahpalin
reinstate
stockp
delaying
devastation
750
functioning
railed
1950s
preference
undercut
gallup
akbar
museveni
survivor
gilbert
outbreaks
inevit
bargaining
outlawed
paramilitary
bavarian
stomach
dol
ker
wished
xl
yan
##ring
##80
##atism
##orth
whine
chees
chicken
##ulates
##unting
leah
clueless
newest
##gher
yearbook
diseas
disgu
##apo
billboard
drops
tale
famine
proport
emily
pressuring
realizing
airpl
careers
explor
masses
ideals
calend
peacekeepers
easter
walks
appease
populated
240
poorer
bait
registering
ramadan
implicated
clarified
reinst
archive
enjoys
towers
##holm
##kinson
resettled
isolate
temperatures
hilariously
flaws
underscored
jeopardy
##bermann
##ibrand
landscape
ambassadors
vacuum
diseases
dime
fak
nash
rug
tatt
uz
wi
wan
##uy
##35
theat
inel
heir
unoff
haz
##osity
brack
pepper
plaus
coats
margar
backdrop
heller
provoke
190
instinct
probable
boot
##lington
infection
##fein
liberalism
delicate
jeh
balls
##bek
personalities
robertson
distinct
exceptional
modernization
graduates
sergeant
unveil
delete
conscious
satisfy
nutrition
neocon
incorp
friedman
airstrikes
unfavorable
fattah
convincing
skidmore
cincinnati
pneum
reimburse
aq
aman
apar
dancing
mack
nbk
pave
rust
rau
##sch
hew
##lding
albert
shores
chorus
##andan
obrador
perj
firest
knight
##istries
knowingly
interviewing
execute
desperation
embod
stormed
appointing
selfish
kenn
##heur
hamburg
schedul
introduction
battery
##meier
santorum
acquire
cambodian
annexed
secessionist
anxious
culmin
betrayed
transmission
olympic
persistent
stanford
elijah
tossed
lauren
legendary
emboldened
zimmerman
whistleblower
gordon
frenzy
staggering
unethical
scapego
ct
kual
mold
patt
sang
##rb
##rimin
##iat
##pc
##99
##kamp
##ording
congreg
##check
##ando
presiding
polled
##ifiable
butt
brock
plac
invented
prete
assail
taxation
schwar
downing
winners
goodness
behold
restoration
curricul
morally
commentators
chaired
##she
regulated
valued
fearful
pushes
respective
##intend
injuring
surveys
undisc
discriminated
garnered
martial
rosa
logistics
osama
renewal
brutally
lindner
mountains
surgeon
icbm
spiritual
ordinance
joyce
evacuate
##according
dunham
hinted
discourage
accommodate
cowardly
unsuccessfully
entrepreneurs
jamaica
oligarch
prolonged
microphone
dobbs
umbrella
unspecified
kuala
bise
cst
gol
piner
tide
yug
##46
beau
stey
noise
expired
ours
consumption
strain
mook
underest
insens
turner
issa
policymakers
johnny
slapped
emper
viewpoint
holt
distrust
leveled
namely
lima
mckin
thirty
conflicting
malheur
overseen
remarked
traders
controversies
presenting
silly
##steen
impacts
generic
sarin
counselor
competitors
granting
inaugurated
ethnicity
disruptive
biological
symbols
planted
tolerated
entitlement
emotions
sacrament
loudly
forecl
hypocrites
wiretapped
jacobs
overlook
rescinded
apprehended
lumpur
viktor
contaminated
inadvert
jurisdictions
ritual
sarahpalinusa
pneumonia
bisexual
pinera
gret
garr
tighter
vil
ying
##most
##fly
##pour
##jan
##inations
##oner
##recy
whis
pricing
##aders
consec
##andro
##osal
disob
disabilities
secrecy
commuted
##ussions
ministries
backwards
drudge
refres
downright
barric
concession
conservatism
pollster
listing
legalization
shooters
responders
firefight
texts
peterson
austrian
crowdstrike
##heart
pictured
lifel
##armac
ramos
450
sprawling
1960
fastest
disgusted
constitute
fascists
mirr
schemes
certified
labeling
widow
gillibrand
unexpectedly
shaping
catastrophe
travis
neoconserv
contempl
decried
fictional
eyewitness
firestorm
kenneth
yugoslav
cio
dale
lia
lament
rup
tuc
##nf
##hower
##vr
##yi
##atollah
##anks
inhuman
##lem
albu
shops
##istically
hast
##ifax
##omey
plumm
quinn
campaigners
warpl
defender
relates
watters
2016this
##athon
joel
continental
##prints
procure
secondary
specialist
complied
##bye
merger
apparatus
cyr
protectionist
jacket
##theid
essence
creator
springs
digit
assessments
vanity
2022
giants
##ompanied
poisoning
diaz
viciously
manufacturer
poured
brigade
pedophile
wreck
eisenhower
unaccompanied
jcpoa
resentment
ineligible
apartheid
bret
bug
busted
eased
ecl
gt
gaps
hann
sore
tarmac
wag
##vl
##zer
##wo
##47
thread
##asa
##stop
##advant
conj
##elo
##akash
arn
##izations
disadvant
monarch
recused
scored
publisher
remed
efficient
instant
electing
proclamation
lauder
shortfall
dividing
honey
proposes
##unded
wingers
horrendous
domestically
ratch
displays
dominance
1975
graduated
disrupting
punching
recordings
gentleman
shattered
pragmatic
stimulus
disavow
dereg
burgess
vehemently
lifelong
dair
elim
lays
rivers
##row
##vili
##zh
##icides
##acular
##igibility
deaf
##usc
franch
lease
clout
spa
obey
##ervice
##rapping
##ogy
confusing
reliance
##weight
yours
winston
##itsky
editors
interviewer
prevents
loom
executions
penned
penny
balloon
expectation
restraining
237
periods
alternatives
mentality
kaspers
reversal
tactical
improvements
floods
blasting
inspire
fatally
tunnel
announcements
privileged
predictable
sergey
manipulate
breached
ayatollah
nasa
mortgages
detective
stirred
outdoor
allocated
diminish
detriment
throat
authenticity
swearing
inflicted
russell
condolences
sacramento
kaspersky
bone
eighth
gli
g4s
ht
kris
lith
lula
ost
raza
ss
wah
##gm
##nat
##yo
reyn
##reated
##urer
shaken
uned
##uba
ardern
donating
gro
upholding
monkey
uss
##actors
##ussen
invoked
##mind
amended
fined
defra
##rug
emm
##liners
critically
harold
smell
informing
speculate
eligibility
constrain
moran
michele
patch
responsive
sketch
prosecutions
##beat
posobiec
bali
felon
util
cracking
unsafe
imagined
routes
clubs
1968
laughable
munich
predictions
leslie
divert
reopened
printed
intolerance
relentless
##asmussen
zagh
societies
monopoly
dysfunction
frankfurt
merchandise
dairy
elimination
cpac
dor
nad
woo
##gw
##note
##sky
##fi
##bag
##88
##8n1
##37
##enh
deception
unify
reperc
abusing
spat
bradd
plots
demean
manages
sochi
invaded
##ecked
rightfully
mediation
depicting
regimes
contend
##oglu
confessed
mylan
thrilled
2017wh
##atorium
##affy
elaine
gloria
locally
steam
engulf
penh
youngest
occurring
prosecuting
malicious
tradem
rubble
predators
autops
assisted
alej
practicing
interfax
jointly
dissolved
mild
hawks
magazines
steinmeier
rails
650
besie
bonus
buffett
conveniently
oriented
suburban
##steps
untrue
beneficiaries
indirectly
kiir
dhaka
astonishing
chrys
unstable
inevitably
perjury
emperor
hicks
jal
rack
sib
tiss
##eg
##tent
##his
##wich
##inding
##orge
inject
anal
decept
shaming
chun
##aulding
##assed
fec
scrapped
imperson
insin
phnom
guise
corrid
detente
communicating
powered
##enews
authored
lottery
robart
commissioners
revis
malia
seriousness
triple
##heimer
horrified
restrictive
remembered
acknowledges
endorsements
imagery
concludes
premise
golfing
chemicals
margins
##holder
belonged
termination
substantive
ouster
privileges
harvest
lucas
discredited
rainbow
relocation
dowd
sporting
sigmar
component
morocco
precincts
grasp
isaac
prestigious
climbed
conferences
undisclosed
consecutive
dude
fb
hil
hinc
pav
ripping
wool
##bury
##yen
##atched
##ione
##otes
##utt
tripp
truce
##charg
spaulding
projections
##allah
##derberg
plastic
compelled
stripping
drum
belar
##atively
showdown
##aha
downgr
prophet
gunned
load
southwestern
legislator
explode
britons
lamp
buddy
##ovan
delight
positioned
caption
panther
overshad
burk
designer
distinction
superintend
cheating
haters
francois
boosted
702
suck
preca
bottle
prospective
pipelines
enraged
neighbour
bowling
regrets
rioters
##wartz
aborted
fronts
persecuted
admiration
elevated
agitators
##ipedia
disapproval
loopholes
neuros
swathes
rewrite
hogan
ndaa
inadequate
calendar
plausible
schwarz
baff
bild
cbp
hs
kabil
lip
rasmussen
sounding
tes
##iak
##pro
##pool
##vsa
##jw
##21
##word
inch
reza
forty
tru
weiss
##akia
##ivision
clad
##outa
outlining
##izia
noble
imran
consular
meddled
asshole
##retary
turks
##ernal
realm
prevail
muster
##plan
apec
journalistic
identical
trees
marketplace
treats
lowered
referenced
recognizes
cultures
timet
modified
wikipedia
cleaning
cornell
jihadi
##arios
observatory
darkness
curbs
2026
blogger
disrespecting
breaches
motorcade
provocations
jeanine
elaborating
tyranny
infiltrated
bosnian
trolls
ngos
botched
pornography
igor
kilometers
jpmorgan
courthouse
repercussions
kabila
bc
hob
kud
lac
poc
sasse
zach
##mw
##gom
##gie
##iu
##face
##xton
##zes
##jc
##oter
whopping
##irim
##illi
alv
chasing
haqq
##unted
abund
spots
commence
##assing
cozy
accordingly
posture
colony
ministerial
slowed
101
christine
mccask
solving
complicate
statutes
summar
bernstein
heartless
270
pacs
witnessing
thomson
##criptions
fifty
profitable
tarn
tariff
toddler
contributors
magnitsky
constituent
transformed
coincident
extensively
spectacular
congratulated
stemming
accompanying
pdvsa
proclaim
improperly
occasionally
##space
liberia
hawkish
fractured
bilderberg
sincerely
magistrates
faux
gym
jaw
pt
tain
tire
wine
wapo
yun
##nt
##luck
##uu
##fli
##vd
##49
##enburg
##esc
anom
andres
##ilon
##eton
##ldon
shak
shine
##chen
##iva
spouse
##ante
aden
pee
hadi
obso
intensive
marathon
strife
moines
impover
contends
assignment
relate
endure
roe
earliest
2017c
signatories
continually
##ernatorial
huh
speculated
eln
extends
costa
risked
commissioned
reaches
misuse
misunder
170
madness
magic
owens
deporting
modernize
scenarios
ampl
dragging
dimon
mansour
vaccine
hurdle
##charge
ethanol
schmidt
gubernatorial
whoopi
pretext
zaghari
mccaskill
obsolete
ain
bona
dal
kang
kagan
nba
yild
##elect
##gling
##pk
##hof
##33
##44
##eries
pric
##ctv
altered
##eled
##osion
spelling
##ghai
cried
interactions
blo
coer
backfire
warns
oprah
##ahan
irgc
federally
corre
retained
internally
persona
videot
videgar
airspace
smashed
southeastern
sentiments
convened
entertaining
joins
equifax
admon
##forte
petitions
rapes
verge
alec
heartbreaking
sells
martyr
owning
stockholm
battered
bulgar
appropriately
recovering
resettle
experiencing
ghouta
montgom
cowboy
rioting
scotus
fiat
sights
incentive
gardner
consolidate
unchanged
vaccines
accelerate
bargain
bureaucratic
screamed
shanghai
recreational
relieved
resumed
vitri
curriculum
chrysler
superintendent
yildirim
videgaray
montgomery
hmm
mps
oxy
##fman
##db
##1n1
##esco
##orical
touting
##alay
##sthe
trolling
##ete
sabo
shaped
##andered
lever
crit
bras
appalled
supplying
invent
campos
tapping
caruana
runoff
footh
boos
surpass
slump
marches
ern
telecomm
analyt
township
puzz
countered
burund
##ettes
intrusion
scripted
brokers
1964
literal
rivera
congratulate
adjustment
borrow
wiretap
organs
exclude
genuinely
stanley
nurse
niels
reaffirmed
phillips
##isanship
unofficial
arnold
hinckley
neurosurgeon
diet
glee
jung
lud
ml
rushing
sr
##lassified
##fell
##dam
##bach
##atz
##enter
##sten
##acent
trace
neph
repression
offend
peg
commutation
thanking
consp
stranded
registry
defiant
assign
schwe
turbul
mafia
guo
endured
dealer
antitr
elit
slowing
looting
replies
absor
analyzed
natalia
malley
hopkins
respecting
austerity
225
shareholders
toughest
distant
mistura
lewd
apologizing
bottles
eyebr
nigerian
shrink
undersec
instrumental
inherent
biograph
evangelicals
frightened
lamar
otto
topple
narcissistic
exhaust
pierson
hodg
coughing
##number
sacrificed
mourning
oxford
autopsy
alejandro
cors
gp
hint
maced
rut
tables
vt
vary
zion
##rous
##oe
##oons
##uh
##uang
##bourn
##36
##wil
##alance
##oux
bever
prone
trill
traction
alle
shaw
##elve
chan
cheryl
unsec
crook
brow
twelve
accounted
overd
usc
##asses
perdue
flour
##liers
posters
subtle
missp
goodbye
programming
legislatures
filming
lax
sentin
##march
unionist
broaddrick
lining
salute
identifies
epip
predatory
quotas
assisting
foods
unfolding
strategists
castile
traffickers
deploying
deray
marriages
altitude
normalize
osc
ashley
exploitation
ancest
validity
courageous
galizia
jeopardize
##ahahahah
marginalized
hurdles
vincent
hughes
endangered
negligence
filipinos
forcibly
gianforte
betrayal
sidewalk
leahy
insensitive
lauderdale
impoverished
bulgaria
critique
telecommun
undersecretary
6th
bout
bend
feth
moss
maps
wf
zippers
##oa
ana
reorgan
##ayor
##adol
##etr
saakash
shkreli
univision
##orting
##aby
cave
outf
##iko
quipped
assumption
betting
guam
claire
harming
loath
morality
homeowners
completing
##tenberg
revived
associations
treatments
draws
disclosing
literature
suspicions
enrolled
katz
exploiting
motorcy
olbermann
colombian
mallory
##atrump
sacrifices
calculated
unchecked
orchestrating
priests
reshuffle
album
ardent
wsj
cholera
notoriously
rehabilit
uzbek
hodgkinson
darren
lank
mast
macy
ot
pander
rol
wet
##gv
##gov
##locked
##hart
##77
##zd
##atics
##esar
##alie
##ido
stam
##estone
weed
byrd
cliff
clips
orwell
##ifting
crop
brash
outlines
groc
##apl
monarchy
becker
peril
mediate
drinks
amman
contention
opec
taipe
parry
wrap
corros
slide
swall
glas
pollsters
budd
engines
reforming
##rix
centerpiece
protective
constitutionally
statut
memes
sarcast
sensational
defining
collectively
harassing
entrenched
auditor
trailing
explosions
katy
indictments
dao
jurors
photographed
cartels
stakeholders
duncan
fiercely
merrill
plagiar
jenner
minimize
conglom
henderson
assimil
reynolds
commencement
fethullah
saakashvili
taipei
bould
guev
hw
joking
naw
sip
wipe
##hat
##zn
##zw
##orous
toomey
##leas
stances
stoked
##iger
##igue
trop
hefty
##opp
hissy
abr
##abouts
grilled
##group
interaction
blair
scavino
marie
billed
impr
dayton
2016it
earners
2017l
olds
curry
handles
skill
smallest
ambition
devolved
capturing
cypr
understandable
truthful
fueling
dominican
dissatisf
comprised
oslo
meaningless
asserting
##rehensible
medicines
disturbed
samuel
likened
reacting
eldest
baltic
grey
wheelch
reluctance
hijab
astounding
encountered
demographics
disparaging
errone
iconic
nicholas
collaboration
ebola
shaun
ingraham
homophobic
eagle
wheels
vigorously
alexandria
cancellation
kindergart
besieged
tissue
antitrust
gaw
hano
lp
mourn
nk
nun
ore
pork
pbs
sinn
vr
von
yong
##made
##tive
##hed
##igated
trio
alf
shen
sherr
sections
atilla
##esson
hague
clan
##endra
reset
##izr
demol
blister
blessed
maricop
##angle
##issance
caring
parad
instantly
##linary
libel
visual
stealth
morris
patsy
deadlock
##govern
##arred
influencing
rebuff
trader
treaties
similarities
suffers
safeguards
franco
##neft
unsett
rossel
mentor
positively
clarification
honorable
royce
jordanian
kyaw
##fields
iceberg
rampage
stoltenberg
##ulsive
collapsing
blankfein
gridlock
rewarded
gaga
spewing
evolution
components
pirro
wheat
incarc
sotom
2017you
bryant
tirade
ambulance
midterm
cheese
exploratory
guevara
hanoi
maricopa
3rd
cin
catherine
dre
fost
lerner
oc
roth
rino
rocked
yr
yards
##mir
##rick
##nut
##uhl
##edience
##arc
##idav
stub
sticks
fracking
##essler
unb
unaff
##usters
meade
politb
afl
cros
brushed
grief
resil
objection
incrimin
##aum
suppliers
recla
righte
flop
assumpt
##ondition
##orne
whereabouts
oppress
2017d
##inda
bread
farenthold
judd
libr
affidav
1100
casinos
deepened
##mingham
thoughtful
booked
cambridge
burke
##health
timberg
230
settling
birmingham
freaking
memoir
fundraisers
observation
liu
peddling
catching
mobilize
crews
forbid
forecasts
crafted
reopen
descend
crumbling
humiliation
contingent
hollande
bikers
angrily
gerrym
uploaded
belarus
priceless
statutory
politburo
assumptions
junt
nails
pts
rib
sow
sinking
##low
##fy
##pi
##jim
##esee
##stage
##vet
##igating
##imated
albright
meal
brands
manual
sob
minions
##arez
campaigner
flan
reflection
prototyp
legion
##ahon
oppressive
corrob
correction
concede
federalist
##asha
esoter
swat
swap
sandra
patron
##marked
urg
turkmen
panthers
boarding
murderous
bidding
portions
caroline
generating
weaker
abduct
implicit
rodgers
louisville
qualifications
licensed
pulls
tightened
manipul
perpetrated
shifts
gregory
levied
translated
uhuru
disciplinary
molest
convenient
steadfast
luckily
cheerle
juven
pronounced
crippling
bibl
ethiopia
slovenia
unequiv
aggravated
ricardo
clyburn
junta
esoteric
fancy
hhs
lend
lender
merry
meryl
sized
tac
wm
zel
##nb
##ups
##tick
##kf
##57
##alis
prud
withholding
shipped
##estag
haul
repay
offending
crony
arsa
##aga
sheldon
##ictor
##itters
stroke
flesh
protr
##crimin
parole
muammar
barfly
transaction
orderly
farming
slov
slashed
possibilities
authorize
startling
steag
moratorium
##marks
urges
employs
insurer
firebrand
uncover
labels
accession
petr
coupled
totaling
catalans
1983
baio
ivank
advancement
permitting
dictate
##lantic
proceeding
bundestag
inspections
##ographic
constituency
tendency
patterns
hijack
plaintiff
##keeper
sicily
stalem
kamal
schlussel
tangible
bureaucrats
diesel
mishandling
completion
yingluck
##enhagen
timetable
tropical
rossello
bury
baked
cer
cess
gau
hid
kg
lion
lash
raging
##cile
##itary
##itures
##otion
sty
trains
##olle
heed
hears
##usive
##ulant
theirs
grain
graves
plaza
##itty
minus
##quest
##avin
immoral
genital
genius
##wealth
buses
issu
oppressed
matched
rulers
hostilities
hardship
##enga
distracted
staffing
mosby
remainder
broadband
mercy
simmer
snapped
malt
separating
prediction
memories
defends
distanced
commonwealth
dangerously
khizr
##ezz
##2016
thankfully
consultancy
frequency
assessing
prohibiting
qatari
renov
reconcile
temperature
regretted
oliv
retribution
buddhists
adverse
stephanie
petersburg
outdated
sedition
aspirations
wannabe
lodged
retaliatory
cockt
politifact
hutch
ludic
eyebrows
telecommunications
blistering
sotomayor
ptsd
ivankatrump
stalemate
aus
berman
crem
cbc
fom
lis
lloy
nah
uly
##fw
##pex
##vc
##kr
##4lu
##inas
##atlantic
reut
##reet
bean
deems
##iman
##esty
##estine
##ivities
spurred
resorts
upgr
blake
rightly
meddle
##achi
2016here
elli
cites
135
considerably
unfold
rhode
combative
observe
narendra
arresting
rocky
leakers
45th
faithful
limitations
kasowitz
produces
overhauling
raila
49ers
lynn
intimidated
bribe
recalls
descended
exaggerated
woes
excerpts
islamophobia
decrease
obliv
electrical
grievances
georgetown
therapy
airplane
warplanes
unsecured
righteous
ludicrous
lloyd
038
ald
cel
cattle
fid
fitz
gala
pse
pione
tumb
vag
wu
wol
##jp
tourn
##itutes
anadol
##icates
trashed
alw
##usions
fray
friction
spree
##antis
##udging
##tress
adhere
cronies
bristol
outnumber
usda
expulsion
marx
strache
quad
impede
finishing
defy
##oga
funn
makeup
yourselves
transatlantic
harney
yorkers
sierra
comeback
netfli
robin
##ospace
battled
##orrent
disposal
voicing
##heav
hater
princeton
sensible
hype
rosneft
leaker
1978
clarence
consulted
##blatt
transported
00pm
slew
episodes
vulnerabilities
havoc
fulfilled
retweet
floating
fingerprints
hijacked
##omsky
reverend
ucla
irrational
diane
padilla
inspiration
imperative
entrepreneur
championship
infuriated
privatization
reinforced
carnage
falsehoods
aerospace
portugal
##iatric
haqqani
trillions
oscars
urgently
biblical
steagall
anadolu
netflix
ave
aided
cure
cps
dread
hir
nap
rants
sb
tips
yuan
##ries
##lam
##fm
##68
##enstein
##idable
rear
rehear
forged
stig
shining
shrug
sechin
chocol
repar
bystand
meghan
outbur
grands
noon
upheav
interval
senseless
imf
backf
##erryan
defund
##onders
departed
propr
probability
retiring
brewer
##media
airing
empathy
glorious
builders
systematically
##ounters
patty
nights
embezz
casey
valent
unclassified
trev
reviving
initiate
benefiting
sadiq
rosatom
thankful
listeners
1974
deranged
graduating
warships
advantages
fifteen
weaponry
constitutes
nigel
uncontr
spiral
recruited
mutually
displaying
1949
coffers
levy
luxemb
sinister
irrevers
dupl
boasts
convenience
unleash
blessing
pleasure
2jbh
2jpex
purportedly
expenditures
soda
continuously
crusade
administered
anarchists
demagogue
outsourcing
kcna
reimpose
gupta
preemp
inadvertently
emmerson
gawker
pseud
2jbh4lu
2jpexyr
dd
eternal
fitting
liver
pistol
useless
vying
waved
##cles
##qb
##haw
##bb
##vp
##34
##22
##onian
##orating
ink
inhab
trap
##illon
##elcome
##essa
##ulous
notify
##ieve
adapt
statehouse
sheep
sof
interact
##pted
scrapping
indications
mogher
flurry
##forma
##liant
throne
wellington
musk
realizes
##ashar
swipe
speakerryan
judgement
favour
petulant
wallet
revoke
snub
plead
hotly
louder
venezuelans
innocence
hampton
bondi
subsidized
grabs
advertisers
elizabethforma
jordanuhl
karma
##paul
fitton
retirees
slept
narrowed
##heads
songs
ramping
correspondence
alerted
retweets
durham
enacting
assassinate
affirmed
strongholds
bishops
dislike
drowning
kelley
haitian
lazy
furniture
tongue
inconsistent
procurement
boulder
incarceration
outburst
luxembourg
mogherini
aet
akin
cobb
fian
lure
rattled
sula
##may
##even
##ras
##iere
##smith
##fu
##hift
##65
##xed
##yard
##zu
##atable
inches
##icap
##oto
##stead
trim
##imov
alinsky
##andestine
##ivist
exter
clandestine
ord
polite
offences
wording
cait
brent
graff
disqualified
upgrade
evade
appell
strapped
indul
medication
prey
##ahaw
enduring
feder
propelled
servant
##entional
subway
condone
playbook
openness
lauded
midwest
15th
texans
damned
richer
rancher
westminster
excite
exciting
flagged
makeshift
encounters
##etti
heartland
grande
discriminating
closet
extract
princess
villain
prosperous
bangladeshi
digits
poly
1965
automob
pedro
boxer
virtue
forgiveness
reno
feedback
conceal
persuaded
detectives
curtail
ecu
stirring
##iecki
traumatic
tricky
begged
minimal
exceeded
spoiled
advertisement
inspiring
exhausted
refiners
uniformed
algeria
scrutinized
kazakhstan
tesla
##planet
nielsen
##bourne
avert
ding
dues
daring
fide
fert
fold
hode
jorge
lanka
nay
wig
wart
yi
zak
##norm
##clear
##fd
##president
##bone
##ju
##jx
##27
##esis
##icose
##imon
##vering
fry
unm
suv
##gee
##try
offs
cries
bryan
inters
uphill
overdue
##pture
compliant
fever
flies
parr
ende
advent
takei
concuss
breed
smack
acute
##inesh
exploration
cream
155
##cribed
delivers
broaden
effectiveness
visitor
stored
prisonplanet
vox
delegit
contracted
competent
environmentalist
gatherings
pickup
broadcasts
##laus
concluding
1977
integrated
consultations
danang
soften
brainw
bullies
circumvent
ignores
interpol
comparable
tanz
detainee
fulfilling
bellicose
phrases
julie
dodge
stressing
benchmark
stabbing
astana
databases
honduran
dilig
deteriorated
hammonds
diminished
ovation
neglected
toyota
warheads
unintended
denuclearization
yugoslavia
glimp
nephew
sentinel
boun
bots
eug
hence
icr
kash
oas
vets
wiz
##mh
##nels
##oqu
thune
toys
##idences
whome
stones
trades
##owiak
choke
##ocrat
doom
arc
seniors
becky
deck
scouts
assessed
geng
schwartz
##lihood
2017f
realities
subvers
sanity
debacle
estr
glory
sunset
gottl
facial
classy
##annie
homs
livelihood
##goers
trek
pleading
resolute
successes
novanto
burton
##ogne
unden
packing
capita
taiwanese
apartments
##roads
graduation
steinle
munitions
masks
idiocy
##deb
provisional
barbar
categor
marcus
##informed
dynasty
athletic
obstructing
gao
hugo
disproportionate
intolerant
wielding
relentlessly
slaughtered
prioritize
boucher
swimming
commodity
bolivia
lamented
engulfed
corridor
affidavit
protracted
whomever
gottlieb
ci
dull
dinesh
lung
lashing
nr
sonn
tt
##rained
##card
##90
##waves
##erent
inaction
##utable
alumin
frog
frances
hail
leaf
##ivism
spouses
##ustrating
meh
##abkov
##oker
dole
incend
discharg
##emy
blows
suppose
##quet
##ecd
drian
policeman
banners
throws
2016i
barber
millionaire
##ryn
annul
kills
goodlat
slander
streaming
erratic
classification
processed
115
format
petrov
envision
kinda
##aniel
angle
dismay
timed
lightly
colorful
lifeline
luke
precision
##black
trailer
indianapolis
accidents
bravely
appreciated
portraying
droves
spinning
narcotics
ryabkov
relocate
rahm
accelerated
deteriorating
adequately
prostitutes
breasts
hesitate
sahel
croatia
syndicate
hypothetical
affiliates
refreshing
ernst
burundi
chocolate
reparations
icrc
goodlatte
cob
duff
diana
eman
mh
oo
pills
paving
rented
tends
wto
yashar
##mv
##mus
##ei
##gage
##pot
##bility
##jl
##inating
##esley
stagn
##olent
##olese
##imity
##istina
chimed
##ocols
newborn
outages
##awat
##awiecki
##aplan
cannon
evans
##obs
feeds
imposes
depicted
preview
flipping
finest
defines
opium
protocols
immune
mediaite
parody
needing
publicized
discord
addict
##prom
password
severed
handler
morawiecki
afflu
enters
penis
deceit
favorably
rises
accepts
lows
burger
commanding
designate
footing
jackie
integrate
degener
overwhelmed
mcmahon
360
webster
widening
ventures
dissenting
mi6
evaluation
concentrated
boycotting
rationale
postpone
dwind
obscene
ovp
cynical
gunshots
deposit
uniforms
emotionally
miserably
wendy
brackets
oligarchs
brasilia
nawaz
reclaim
graffiti
05
lanes
mou
mired
nsc
pablo
tian
##national
##uard
##vn
##jk
##48
##enberg
toensing
##isal
##icio
rethink
##leaf
stap
tricks
##owan
##illas
conform
##usoglu
shelling
chick
hab
##aint
polict
worsh
worsen
brass
bravo
ploy
##oused
disarr
accum
evasion
##ptic
##owned
knives
preacher
flotus
confined
remorse
taxi
##ornot
phel
cologne
famed
proposition
musical
retake
judgments
slur
loos
locate
traject
deadlines
expressions
connor
groundwork
madonna
##anao
silenced
silva
existent
behaving
protectionism
ridden
nbcnews
1970
derog
characteristics
prominence
strait
teaches
mouths
declarations
consumed
mobilisation
extraordinarily
nicar
glasses
excluding
duran
underscores
accommodation
sidest
advertisements
drowned
converted
airbase
gratitude
nursing
muscat
cavusoglu
heinous
chappaqu
coveney
foothold
concussion
incendiary
polictally
disarray
dwell
dhabi
kell
lid
ngu
vest
##mcc
##embers
##gang
##hito
##bish
##bling
##66
##kas
##jar
##analy
inept
##itating
##asia
##idan
##omon
prague
##storm
stairs
##uri
##igu
##etery
shamed
fres
framed
##chester
comic
chop
unfor
hap
##ivable
abh
##alls
dose
outpost
##ipse
discharge
##apest
scul
dracon
militancy
remembers
needless
mumb
terribly
corfman
communicated
criticizes
##ockey
harrison
judged
smarter
sioux
stefan
sunk
sandwich
budapest
##anna
regulating
skit
telecom
185
misman
exclusion
14th
undes
401
volc
copenhagen
housed
mandalay
nauru
consultants
deriv
automated
lockdown
blasts
##kinen
selective
tolerant
shoppers
dependence
havens
comparisons
springsteen
athlete
switching
widodo
stringent
koskinen
compassionate
absentee
reunification
moroccan
greedy
pearl
proponents
humble
cemetery
defunct
inconvenient
nashville
beholden
firefighters
allege
grandson
irreversible
appellate
beds
couch
fug
lur
mub
mlad
nest
oops
sop
vaugh
wishing
wonders
##98
##inged
toe
##iterate
wholes
##igator
trinity
frans
##essing
presided
megan
afp
##endas
allison
##again
##ibe
outed
stateless
sheila
demise
soaring
atty
perv
coerc
drastically
shoulders
belgrade
2017we
##ursed
buys
muscle
addicting
happily
cape
elon
glor
##enger
##gger
erin
erode
forcefully
##shot
insurrection
ruining
fireworks
wrongly
summed
educators
resignations
technique
forwarded
ignited
burma
supermark
escort
horribly
navigation
rivalry
brownback
vacated
capitals
bobby
pipe
##efeller
forgive
acquitted
sticker
warranted
alienating
550
zimbabwean
##writer
##htaking
baggage
submission
provocation
venge
dressing
breathtaking
cspan
inherit
saddened
buffoon
tampering
horowitz
tunisian
submarines
arrogance
dynamics
wanna
lambasted
livest
humiliate
rwanda
pamela
sciences
cigarettes
mediator
proximity
unconscious
rupert
overshadowed
excitement
wartime
glimpse
aluminum
derogatory
draconian
ai
bass
cort
dillon
ee
gad
gavin
hbo
jube
kessler
nate
nathan
nailed
ou
pierre
sz
tina
taped
##gq
##naire
##fund
##fires
##bound
##wagon
thedc
##alous
##leen
##iguous
##irm
fraught
seed
chiw
chomsky
unesco
##ocrats
reprehensible
##undr
leases
preserved
abnorm
spun
##ieving
agendas
##ifman
cramer
brien
soared
usage
coat
cooking
##ishes
##roft
backtr
drastic
##aches
parked
schiller
2017so
2017he
directives
fools
soci
airfield
##press
acorn
spokesmen
standpoint
embar
destiny
##ombo
snopes
ensued
horrors
closures
praises
unsure
hospitalized
zeifman
upside
licensing
baghdadi
cooperative
wooden
upsetting
renzi
sudanese
confeder
accidental
predicting
tsar
brilliantly
sirleaf
pesos
kickbacks
coca
unexpl
staunchly
surrendered
rahman
obscure
detractors
crippled
congolese
inexper
lunatic
redistribution
disconn
funneled
miguel
bessbell
portrait
jewelry
disobedience
grocery
abducted
slovakia
trajectory
nicarag
jubeir
01
bp
bounds
ds
fpl
fences
g7
murs
nost
nico
rains
##nl
##found
##hire
##hake
##31
##zl
##atriate
##eday
##utter
tramp
##olph
##olini
heit
##oween
shorter
comr
unifying
haft
##andong
spont
newark
caesar
disband
interstate
cogn
##itte
scour
impress
implying
refund
countryside
desired
taxed
maz
thrive
2016in
highways
propornot
factual
transnational
realclear
farther
##enegger
debut
sung
morons
##ologue
despair
hardliners
metaph
shootout
robot
developers
collision
flores
technological
finalize
balancing
paths
melbourne
attendant
freak
packages
rockefeller
halloween
branding
logs
sheriffs
compromises
performances
pedestr
historian
shelby
greet
manipulating
clerks
squarely
inappropriately
assumes
mindset
breathing
anticipate
renegotiating
overrun
contradicting
contradictory
samples
narcissist
unseat
airbus
detonated
vendors
downplayed
supervisor
erected
rafael
gloves
confiscated
bergd
franchise
detrimental
macedonia
stubborn
ecuador
##debate
volcano
haftar
pedestrians
bones
ders
dyl
ferv
fannie
hires
jens
kend
mt
nag
pas
pierce
rounded
viv
xu
zaw
##mers
##eur
##atible
##enic
##edes
##orp
##anov
##aros
reapp
##iley
stoking
hect
allev
comcast
chin
chased
uneas
##ocation
bye
##osobiec
##una
sphere
##abis
##ichen
arose
cafe
##agne
grams
incest
accomp
expel
explet
##rath
##obil
##enson
underne
taj
daylight
carp
courting
shower
##ahont
russiagate
viability
2017a
directions
emma
instruction
infections
debris
behest
##ewor
hardworking
patent
mete
specialized
30s
skipped
salem
populism
technic
battal
bombard
dispatched
sufficiently
burge
grows
chev
strategically
scrub
##max
originated
borne
cyberatt
infringe
satir
satire
doubtful
philippe
1963
dining
laughs
kirsten
jacksonville
guts
connecting
frustrations
quebec
recruits
ghett
backlog
ugandan
clerics
skeptics
paragraphs
bonif
sirte
contradicted
cfius
romanian
translate
creep
##azeera
unlawfully
culpr
hudson
axios
reopening
polarizing
constructed
viney
##ctrination
eggs
indoctrination
contempor
checkpoints
conveyed
disarmament
ceremonies
tumult
disperse
guillier
cannabis
liaison
trademark
biography
upheaval
sulaimani
chiwenga
underneath
##ahontas
jazeera
kf
lb
nin
nih
png
vald
ware
##mu
##rod
##lance
##dw
##bn
##x2
##95
topped
##reaker
onsl
pry
tres
##verted
##chant
claw
clara
spreaker
##mert
capped
brawl
plc
sheets
disbel
##apes
pertaining
composed
invoking
##anson
##fords
##ucated
draining
genitals
earmarked
departures
mature
barrett
baroni
detentions
highs
buh
blackburn
presssec
##enegro
sanford
greatness
currencies
solicit
favorites
revise
crowder
crowley
successive
##icultural
madigan
macau
lighting
patrons
roadbl
cracked
ivory
1976
pole
harmony
audacity
derided
logan
principled
fortunes
usaid
distributing
masked
confrontational
tunnels
vastly
cellphone
rowling
harshly
salvation
retweeting
treasonous
stretched
bogota
disciplined
awaited
illustrates
evaluating
feminism
comfortably
nichol
washed
discontent
handcuffs
neoconservative
eclipse
##elected
vitriol
tournament
trevor
delegitimize
##ichenwald
onslaught
fret
iarc
kern
mau
nope
naf
pale
ritz
tents
wired
##mund
##aq
##aut
##dl
##vals
theology
##itate
wholly
stym
##olulu
alignment
shane
neill
ches
##ulatory
##ocracy
hasan
gods
spate
##ourse
bran
groped
##ellar
resumption
inclined
disin
uptick
accent
sober
evolved
##eye
##emic
thereby
co2
invoke
consists
scoop
knocking
quid
depot
##umu
##umib
drought
opd
militarily
##cruz
##rup
2017b
discount
emol
pressures
##promp
species
##ceptions
approvals
##ologists
redirect
shoe
secondly
erick
councils
capitalize
telepromp
##ports
accessed
##onnie
honolulu
respectfully
145
boyle
murderers
burgl
prepa
unlock
crosses
behaved
transitional
riddled
naive
ratio
zeit
##howitz
batman
negatively
obliged
methane
mouthpiece
montenegro
perpetual
dumped
pilots
attracting
coincide
wolfgang
anchors
uhl
eagerly
reluctantly
crafting
traumat
empowerment
yields
fujim
begs
physicians
2017that
commodities
exacerbated
proponent
solicitor
frederick
supplemental
yanuk
deregulation
uneducated
revisit
sherrod
aetna
heitkamp
uneasy
disbelief
teleprompter
fsb
faso
gaul
lips
nie
pp
pier
uru
vl
zip
##rocal
##gx
##gio
##coulter
##lon
##late
##fv
##bands
##vic
##72
##39
##jiang
tours
##alan
anarchy
##lections
##stra
stacked
traced
saul
conaway
##uber
adel
crops
allred
caf
brush
grady
commands
compel
recusal
miner
flipped
opcw
busiest
2016s
##urrence
goodwill
exploding
##reedom
announces
##ieri
convene
caliber
radically
engel
apoc
uncondition
limbo
keynote
awak
succession
halfway
verizon
varney
considerations
mayoral
khalid
origins
participant
tomi
afforded
guarded
ivy
ratified
implies
logistical
machado
trails
evils
matching
2000s
reciprocal
hopefuls
translation
##people
julia
blasph
envoys
municipalities
galvan
subpoenaed
empowered
mechanisms
ncaa
verbally
setbacks
theorists
liberated
miker
relaxed
infuriating
rendered
mauricio
pilgrim
schwarzenegger
analytics
uzbekistan
prototype
wizard
affluent
derivatives
mladic
beng
cic
dart
fay
mam
mph
rend
raham
wald
zap
zakh
##rad
##long
##pack
##bt
##wick
##esch
##orith
##alities
##idah
##ctrin
alice
##elp
chombo
##ulative
byr
notification
##iage
##uds
##abani
newcom
allahu
brains
plaster
intimate
eleph
##apolog
exporter
pertin
coherent
##ensmarch
statesman
quitting
underage
amanda
turb
maver
rohr
2017but
candy
discrep
millionaires
continuation
##liner
harb
smug
happiness
payne
freezing
legalizing
reds
turki
##parks
robby
formidable
badge
reasonably
totaled
paula
declassified
criminality
seeker
deliveries
goldsmith
buildup
distaste
radicalization
necessity
worthless
baier
freel
bloodied
canceling
dedication
prayuth
machin
qualities
ridiculously
softening
pml
bailey
brooke
euroscept
cowards
cancelling
perpetrator
appreciation
venues
disappearance
transferring
satisfaction
adjusted
translator
kochs
serbian
1930s
installation
facilitating
occasional
scattered
possessing
encrypted
mitigate
undertaken
cosm
exhibit
magistrate
intermediate
bhumib
deterrent
algorith
forfeiture
minerals
compliment
inhumane
constraints
deceptive
pocahontas
epipen
wheelchair
rebuffed
hodeidah
nguyen
mursi
realclearpolitics
dershowitz
bhumibol
04
fals
g5
kw
kgb
lyr
peng
rests
tsa
wack
yo
##cus
##iour
##law
##fed
##fax
##vang
##jev
##ateral
tooth
##along
##arak
prank
triv
alicia
unans
unapolog
##orton
notices
##anton
ador
adul
##ccc
doomed
partisanship
canv
thereafter
invers
invisible
underpin
amster
##ogg
##crow
talabani
2017if
maternity
detaining
propel
##azz
anna
farook
airways
arrives
acre
executing
erosion
insured
specialists
divides
##ovis
##places
penchant
bader
totals
expresses
moms
deval
emergence
multicultural
trove
##ifters
mindanao
gases
lightning
condemns
copied
utmost
languages
succeeds
##blood
santilli
wwii
fanning
comedians
sams
2024
declares
darrell
chapman
echoes
cooling
tantaros
sheikhoun
underscore
fetus
nl1n1
applicant
tyrann
pitched
grenades
profoundly
ravaged
dissolve
vandalism
insecurity
ridicule
oswalt
recapture
gnashing
disguised
margaret
loomer
chunying
woolsey
cowboys
beverly
backfired
estranged
chappaqua
nicole
vineyard
nicholson
branstad
au
aunt
bike
cuff
derr
fides
lah
lacy
muss
mica
miscal
ns
oun
pate
porter
rental
szy
sizable
tn
##mt
##gk
##sons
##posn
##vb
##zk
##zel
##zos
##kan
##jor
retro
##lements
##urig
heb
sax
frustrating
seuss
##essional
unab
abys
##ieved
poles
##troller
##ags
grill
inco
upstate
##emma
quar
quell
##roven
medved
backward
flock
remitt
##anco
watts
mae
guaj
investigates
2017h
##azing
harms
powerhouse
prevailed
authorizing
poppy
nightly
collateral
budgetary
apost
jealous
complicating
salon
accessing
analyzing
cater
kindness
165
angering
opting
totalitarian
##owsky
undue
jerk
rhetorical
alexis
broadcasters
rollback
##offs
harmon
##anche
derailed
patriarch
splitting
renounced
unwelcome
shipment
prefers
grossly
tonyposn
electronics
remarkably
fashioned
concerted
breathe
merriam
dishonesty
illustrated
publishers
hayden
pillar
boycotts
consolidated
nordic
##spot
kristol
alterc
nasrallah
neurological
endangering
fishermen
grappling
chappelle
disenfranchise
ridiculed
bolstered
huntsman
theatre
buddies
kindergarten
oblivious
softer
trespass
buhari
fujimori
amsterdam
miscalc
tonyposnanski
fd
fitness
giz
goth
gamble
luk
mk
nass
sowing
tash
tier
wires
##cous
##cup
##times
##pit
##handed
##78
##32
##yah
##james
##wered
##inds
##orah
beans
stoke
##urai
##ayan
segments
##unts
leap
meyers
mezv
polk
##abacher
capping
brend
brick
brune
pepp
pepe
grieving
##awar
yearly
##ratha
comptroller
##ksw
coons
decorated
##ucked
scum
scorn
mars
medina
warmer
2017n
corr
worldview
concili
directs
anncoulter
surreal
somalis
paycheck
goodell
sixt
approves
freeport
bordering
##aleed
erased
giveaway
skull
damon
indivisible
merced
positioning
risking
waive
hopeless
circa
conducts
ethn
truths
popularly
lovely
husbands
220
distorted
jackp
copyr
##afly
pulitzer
vacancies
determines
transporting
cooperated
vetoes
vulnerability
streams
bearer
coincided
sabratha
retract
spectacle
borrowers
creek
boldly
tasks
inherently
souls
enriched
disapprove
guerrillas
schlafly
pronounce
imbec
imbalance
pearson
kathleen
hemis
gravity
disenfranchised
duda
distinguished
rousse
mantra
aspen
enshrined
raucous
steyer
coincidentally
bloated
oxygen
schweizer
orwellian
manipulator
extermin
mubarak
confederacy
rahami
rohrabacher
unanswered
conciliatory
copyright
bore
bick
dah
gand
jind
kemp
koran
lena
mash
nz
pag
pens
tiff
umm
##ea
##gop
##np
##iates
##baum
##vq
##zman
thie
##eri
##alach
##icity
reauthor
forem
healing
##imag
shiva
shuang
##chr
##child
unear
unman
goers
spiked
##outing
##endo
statehood
grifters
##grad
clinical
minsk
feas
##ensibly
strings
depressed
syc
flocked
confine
##ftc
downfall
##ugn
democratically
provoking
emigr
sermon
transp
raft
subordin
infidel
loot
paxton
locking
##otech
reduces
classmates
forceful
broadway
paulo
18th
natalie
fallin
philly
townhall
understandably
##ophy
screenings
verification
fairfax
restrained
handshake
shareholder
##enne
sellers
improv
uttered
mandela
##iasis
occupiers
birthplace
sucks
roundtable
combatants
##lords
contestants
selecting
suitable
greeley
beaches
welcomes
methodist
reassert
rowe
incomplete
stripes
kisumu
boasting
fetched
trickle
restructure
infiltrate
pumping
troopers
theorist
deprived
seizures
blacklisted
indoctrin
pragmat
rapport
adjacent
thumbs
oswald
mckesson
proportional
disadvantage
elitist
gerrymandering
flanked
gauge
ttip
bergdahl
pertinent
foremost
bashed
cute
daw
danny
fog
fuk
jugg
lil
litter
lakes
pall
sack
sald
tb
vows
wit
yank
zur
##racies
##iatr
##las
##liano
##felt
##aque
##dlo
##hle
##zon
##inges
##around
##asi
##urpr
##acial
##amar
##imi
nefar
atkins
weld
leeds
lefty
preserv
presently
exited
spelled
mecca
##abi
willfully
gran
plague
##ipov
appalach
clinch
decap
##uca
##ertify
backbone
syl
refiner
continuous
retains
booming
farr
ruler
nukes
infer
boring
borough
lof
racing
##aleer
mattered
potent
llp
criminally
servicemen
##ija
##arring
analyze
honors
ensuing
lieberman
eyed
jails
counseling
restricts
##afee
competitor
mistreat
ivana
hello
1972
premises
normalization
renewing
##cheduled
constituted
unconv
canadians
railing
railroad
miracle
ghani
alienated
ramped
tanf
kissed
slightest
width
concerts
confidentiality
nlrb
unreason
##walt
gonzalo
liabilities
bumper
dwight
throats
fortunate
undertake
prostitution
incarcer
mcgahn
skewed
bolstering
burkina
hmmm
uscis
conglomerate
juvenile
olivier
propriet
discharged
saxony
jackposobiec
cec
doc
dap
dandong
fn
fencing
gle
gch
masc
nan
nuc
npa
pist
paved
ripp
wwe
wounding
yen
zah
##rr
##rio
##lord
##frey
##pol
##hots
##vo
##yes
##km
##56
##itiveness
reap
rewards
##stock
stav
stach
stinging
##urally
##illusion
alright
unru
haunt
##andra
succ
##ainable
clovis
spied
##ifully
yous
disillusion
appet
##obani
reclusive
marred
indians
newsmax
imply
##luded
##nings
runners
criticised
harth
condesc
loosen
steered
repeals
despise
profanity
hardened
ideologies
employing
##show
advises
letterman
occurs
envis
devout
##iamen
counterpr
encomp
bids
macar
contributes
delegations
existential
cheat
trusts
volksw
laborers
pathological
hugely
conspiracies
displace
##2017
villa
cleaner
exercised
linkedin
##ukayev
amazingly
surviving
dreamer
1969
titles
characterize
bondholders
##respected
pmf
rebuked
weighs
emphasizing
tackled
predictably
gregg
daniels
dignified
shadows
dodged
compensate
underscoring
empowering
monumental
presumed
obstructed
flexible
dilemma
extradite
tammy
disorderly
snipers
zhang
unmasked
scrambled
portrayal
stumbled
manifesto
haitians
articulate
assailant
crooks
lankford
maltese
ulyukayev
alwaleed
rehears
accompany
##eworthy
sulaimaniya
eurosceptic
lyrics
tyrannical
szydlo
mercedes
nefarious
preservation
volkswagen
apt
amber
brett
bache
cz
eaves
fum
hust
hla
masters
ps
pong
tut
tul
tires
##rie
##cat
##qt
##uania
##fx
##freedom
##dt
##vx
##jh
##wom
##onium
##edown
##ingen
##itism
##isiveness
reeling
bezos
##sef
##amine
##amination
alley
alarms
shakes
##chool
seeds
chunk
unease
wears
##iesanders
adler
afgh
crashing
##ibu
disrespected
onewest
bland
bluff
coin
##forward
##ensical
scor
strangers
indec
impending
backup
contended
refining
##issible
courted
plank
##xture
hars
subvert
slurs
estonia
esqu
swast
nearest
markey
reader
takedown
hardware
shoved
##when
furor
##ietnam
costume
testament
outsiders
homicides
25th
revival
mcn
puk
landfall
removes
moderators
ensures
autism
wilders
hearted
conversion
undoing
cheated
birds
sarc
restriction
##afa
competitiveness
guardians
weekends
painfully
faisal
manufacture
voicemail
milan
sponsoring
coastguard
substitute
googl
##mean
##meade
rigorous
biomet
sparks
spirits
modeling
lengths
typh
kicks
kissinger
screams
rumor
juanita
marshal
coffin
nonsensical
actresses
discovering
dearborn
perceive
kilmeade
nl8n1
stadiums
agitator
pharmaceuticals
evolving
zheng
drunken
##mdb
contingency
enlisted
handcuffed
razor
imaginary
gaffe
eradicate
sneak
balkans
##please
worsened
lingering
underwear
foreclosure
downgraded
baffling
tainted
vagina
barbaric
nicaragua
bonifield
zakhar
medvedev
mezvinsky
jindal
##urprising
bachelet
afghans
aip
aapl
bacon
cftc
dense
ike
mum
muted
ppl
pumm
ras
tender
ud
vang
##eople
##nanski
##cons
##iot
##pace
##bik
##74
##ye
##zx
##esp
##arized
anoint
stint
trilateral
trashing
##eto
##eters
##imat
##iromo
alton
atf
chast
chobani
unver
unimag
##akan
repris
suited
lex
godd
clues
##ustomed
enlight
offender
##iker
##izers
demilit
demeanor
mankind
##actor
lawfully
cov
cove
##raf
unitedhealth
imposition
norman
confession
bellig
bets
carved
schu
##ahill
insign
guessed
terrence
roast
barre
##indy
relev
sank
jobless
nearing
morale
##berger
homemade
massively
costello
divid
complications
simmons
posnanski
incidentally
flagr
sexuality
clem
##boro
destroys
africans
alias
timmerman
worded
unprof
surround
imagination
corners
recommending
wildstein
consisting
academia
bedminster
punishable
inflated
layer
matches
ghana
alienate
exporting
vitale
intimidating
gallons
retracted
1945
instrument
concepts
##atrick
mcdonnell
absurdity
illustrate
astron
curtis
stretching
accommodations
horizon
tenth
leonard
alpha
vigilantes
scholarship
overturning
bartiromo
volatility
mcgowan
expenditure
ceremonial
gambling
javad
worsening
disqualify
cohes
snowflake
snowflakes
reinstated
lithuania
siblings
jungle
swallow
dissatisfaction
valentine
petrovietnam
##analysis
blasphemy
samsung
stachowiak
##meanwhile
zakharova
aipac
vanguard
unimagin
7th
aur
cke
dmz
gam
gull
gosn
hors
ix
iom
kamp
liable
mull
niss
pon
piers
sacking
wrath
##mor
##nim
##ui
##fo
##pret
##79
thaks
tout
inund
anecd
##asquez
##omy
##utations
##stown
staring
stems
##igans
##etting
depp
saga
fraz
franks
nex
unwa
##ulin
haj
##ocally
weah
exiting
proactive
##iki
grin
plut
commits
overc
democracies
coch
##ecks
strident
politicizing
indign
median
undergoing
amash
amiri
evenly
contrived
gene
helpless
coron
departing
latina
veget
harper
watchers
smiled
goodman
steering
sandberg
streak
universally
strongman
specializes
outset
salacious
paulson
dailymail
briefs
wales
revision
waived
doubted
starving
figuring
unfolded
goldstone
unload
275
escaping
customary
navigate
powder
senses
##from
ramifications
sucker
brazen
screenshots
interventions
##blog
cathy
disruptions
##yadurai
accomplices
burnt
elders
ousting
exported
speeding
magnet
bleed
torch
cartel
forbids
tendencies
accomplishment
850
translates
##judicial
contradicts
gentil
axel
oddly
consolidation
deprive
reservation
airstrike
supervisors
imaginable
insecure
shepard
deterrence
skyrocketed
mistakenly
pilgrims
confidant
conjunction
ostensibly
delighted
kudos
tarnished
cyprus
alfred
unequivocally
embezzlement
kashmir
undeniable
dwindling
cognitive
alleviate
contemporary
apocaly
mussolini
hemisphere
confinement
gosnell
thaksin
1mdb
aki
bucks
emin
fischer
gaming
hilton
kings
kyr
nause
omin
ping
pub
rfs
vain
yas
yves
##cul
##core
##cnn
##ql
##laughter
##uj
##tes
##fur
##zj
##ww
##4trump
##inal
##icy
##asy
andr
prayed
foresee
sto
##urance
heter
heath
aslan
##isted
uniting
spangled
donovan
disingen
decon
declines
##aven
depress
contamination
assailed
reliant
parcel
accords
##igroup
talal
terrific
rooney
2017as
veil
winding
edged
informs
sourced
caplan
slush
handouts
freeman
holmes
patently
collections
erik
classmate
##gerald
futile
skipping
uncomm
##ospher
deepest
snar
captivity
boarded
autumn
##boards
toner
domination
harmless
defeats
##cloud
##naev
vanished
fatigue
contestant
purposely
rtread
complexity
expansive
hurled
bono
##peak
manslaughter
intensity
atmospher
repairs
overlooked
accelerating
enrichment
smoothly
evidently
homophobia
nullified
thwarted
resonate
rashid
pontiff
jaysanalysis
bachmann
scheduling
demeaning
coerced
rehabilitation
sarcastic
abrams
cremation
fitzgerald
hirosh
##imonious
kellogg
hapilon
mumbai
tsarnaev
pryor
gauland
derrick
brunei
unreasonable
unimaginable
unwavering
gentiloni
02
bened
dice
diab
ferry
gina
ia
jem
kan
kit
kahn
klaus
lance
lomb
morne
pup
pitting
ustr
xia
##maz
##gary
##uw
##bern
##61
##you
##onso
##orf
##aned
##reter
##report
##leep
ismail
##eta
##amount
##teries
frisk
##chat
chong
unin
##akowsky
##unc
spine
spacey
orb
##uda
adl
##osted
cram
craw
arlington
gry
incurs
accustomed
usur
compounds
consens
knox
impassion
registrations
firsthand
grouping
rove
thinker
buoy
infect
someday
studios
denomin
differing
charism
playground
chairmen
divisiveness
youngblood
petry
walt
revital
pretended
cycles
childcare
angu
bombastic
magu
heartfelt
undet
kimber
casts
unpresident
##onymous
illusion
australians
cracks
##laimed
collects
beatings
hurry
poem
deployments
grader
cathed
crazed
hybrid
pipes
straightforward
biotech
memorable
motivations
fascinating
planting
interpreter
renowned
bailouts
plainly
skinny
dares
compares
chapel
solemn
rapids
sweat
contradiction
tantamount
bitterly
instructor
##canada
float
##iangelo
installations
intensify
puppets
reprim
unbelievably
gestures
homosexuals
swayed
convoys
ucsb
nichols
irritated
pleasant
princes
injustices
vigilante
canton
grenfell
assurance
clowns
classrooms
nurses
grimm
downplay
stifling
hazard
consciousness
golan
viewpoints
hastily
corrections
varying
simmering
bystanders
ciud
degeneres
mismanagement
wholesale
pervasive
spontaneous
guajardo
altercation
ethnically
gandhi
unconventional
incarcerated
gchq
appetite
akihito
morneau
impassioned
aqu
cum
eul
faw
gcc
h1
hick
husted
jw
jup
kre
tand
tass
##mf
##mx
##gic
##guc
##good
##girl
##noff
##sfeld
##qv
##qy
##bels
##vation
##jones
##jaffy
##itis
##ouk
##asan
##enth
ree
forrest
##etes
saipov
sev
reps
spilled
offens
##ibles
##gren
noor
noaa
incurred
canal
overhead
evading
##ueva
supplier
howe
##ava
deposition
##ached
thinly
schilling
schakowsky
maio
downward
2017how
mater
baron
barnes
192
booing
believers
deborah
jobbik
elton
glaring
morals
morph
ernest
messy
##otto
##ciless
replaces
30th
frontline
merciless
stature
statistical
tread
misery
epit
starvation
175
counterint
##ophone
##uggish
balked
dismayed
##heim
footsteps
intrig
cables
destroyer
tommy
jailing
1982
painter
unsurprising
treasurer
anonymously
worksh
milestone
audited
gradual
automaker
jumps
obligated
tightly
textile
adamant
leanings
##perform
masoud
confrontations
matchup
lori
darn
soleimani
ayyadurai
calmly
punches
rumsfeld
recalling
omaha
fooled
hinting
levine
adjustments
anticipation
renegotiation
duration
synth
denials
infiltration
panicked
fuelling
pumped
diagnosis
evolve
pedophiles
suppressing
hartford
lawlessness
retaliated
beneficiary
ricans
parishion
hanson
shunned
squeeze
underwent
stockpile
fakenews
remedy
braddjaffy
precaution
outfit
##question
outnumbered
dulles
eeoc
hectares
expletive
emoluments
mikerin
trivial
fidesz
incoherent
brendan
rousseff
sycoph
improvised
coveted
cathedral
jupiter
8pm
cay
dixon
fy
gb
gid
gust
lest
nol
ouch
pony
psd
rife
rena
sands
sins
siding
tying
waking
xin
##rance
##garian
##corn
##qh
##qk
##lies
##lifting
##uously
##dicks
##vw
##ych
##zt
##zp
##59
##onding
reins
##otive
whitt
priced
##street
tran
##ethe
alas
alumn
nehl
cherry
unres
unnot
unthink
repressive
##aines
goh
goeb
abilities
clut
spit
splin
agung
arthur
brace
resounding
plates
##griffin
discontin
overre
compounded
scant
scolded
strive
query
##roy
defected
maute
thriving
wrench
detection
deterred
postings
joan
##azed
addicted
transcanada
watches
payday
passive
soured
eloqu
preval
denis
citigroup
lois
loop
swore
##elligence
receipt
urine
calder
coalitions
armies
shortcom
berniesanders
mcaleer
13th
flagship
emerges
angl
burlington
balcon
berger
greenblatt
behaviors
behaviour
grandstanding
chef
jerome
discriminates
##theon
melting
##afari
hoff
unsust
faa
sprayed
zeman
extrajudicial
vanessa
folk
slee
blogspot
queer
feroc
unveiling
sympathizers
entertainer
rumored
gallon
separatism
tragedies
##borne
pdt
dumbest
await
adversary
duped
matthewdicks
summons
disparities
kalb
ottoman
certificates
pedophilia
whitman
##xistent
diverted
ruthless
deposits
climbing
incorrectly
woe
relieve
militarization
definitively
exempl
2017president
seaside
hb2
impartiality
atheist
misrepresent
mirrors
turbulent
motorcycle
tacit
pseudo
ddos
inhabit
tumultuous
lahore
ounce
remittances
zurich
counterproductive
macarthur
hlaing
unprofessional
frazier
cochran
unnoticed
unthinkable
goebbels
shortcomings
2b
bowing
cull
dicap
gat
gerr
hos
hobb
kany
lions
mw
pand
pant
sasha
tch
tipping
vans
vitter
vouch
wings
##ely
##fox
##2n1
##orad
##arious
##oufl
##leine
whiny
pros
##adell
heating
##amil
shir
selections
##akis
exh
orrick
polio
crunch
arise
##ipher
whats
blend
blond
##ishman
quint
##avis
##roche
relayed
##liery
madeleine
downtr
corc
clauses
mush
airwaves
##ashi
paused
termed
readily
profiles
entail
redef
workings
untested
staffed
eroded
eroding
##iscop
traits
traitors
118
basil
admire
merck
mergers
##workers
rebe
misapp
tvs
doubles
sonoma
multip
dispel
##strong
camoufl
tedcruz
replacements
persian
buyer
dismisses
freeland
hospitality
hallway
nonexistent
disservice
1971
clarion
reining
dictates
curve
bedrock
soundcloud
boxing
bossert
douliery
spokespeople
##iciencies
kidnapp
excludes
hollow
mislead
1933
rachael
yielded
inserted
revered
deterioration
slipp
ingred
pronoun
inexpl
isolationist
discretionary
albany
rapproche
unrealistic
incitement
##firmed
balkan
indiscrimin
khalifa
ascend
instincts
alberta
overlooking
daleiden
cyril
jalal
anomaly
overdose
librarian
cocktail
sculpture
ghetto
kfnx
unmanned
sarcasm
relevance
timmermans
consensual
gohmert
dicaprio
rapprochement
bong
cindy
gosp
jub
jolly
juba
matur
mund
riv
riley
ssa
sidel
tari
##mj
##nk
##net
##cj
##cies
##qw
##pw
##patrick
##hou
##yed
##zs
##kbank
##wed
##enova
inmate
##icably
##otected
bevin
troy
##adha
##amor
##irable
conqu
shale
neat
seaf
unimp
##akai
suite
projection
butter
newtown
peer
outwe
incited
upst
monologue
commissions
interven
##ailable
##asso
becerra
thani
##econom
scaling
indiff
amen
amassed
tahr
desantis
showc
myri
##icker
downgrade
northam
##othe
##ledo
conclusive
##erno
retaining
interns
realization
informants
specified
johnston
slot
sword
handwr
##gyz
morrison
viewer
patents
midler
messing
##parable
metric
halkbank
armour
##annah
##geries
12th
gopers
##ovic
ruins
solomon
globalism
oilfields
pretends
madsen
falwell
selfie
balances
##ofi
unfunded
goldstein
ridge
willingly
celebrates
##itzker
imploding
faiths
sponsorship
legitimately
savvy
wildfires
royals
inflame
freshman
pools
corresponding
lyin
wasteful
constituencies
reassuring
steelers
massacres
jamal
instruments
tallinn
satellites
porous
agitated
elias
illnesses
shaub
travesty
gentlemen
ajit
zimd
insights
whistleblowers
indefinite
redistricting
refinery
ushered
carnival
exacerbate
miserable
scratch
stifle
lanza
congregation
garrison
tucson
##natparks
proclaiming
shaky
zionist
fiduc
shrugged
tanzania
eugene
duffy
zeitung
maverick
unearth
displacement
biometric
counterintelligence
tariq
outweigh
tahrir
myriad
03
bunk
danc
eichenwald
ned
rang
racked
sars
sque
tiger
vested
wau
##mk
##rage
##russ
##gone
##fun
##fold
##vis
##2x
##wark
##43
thur
##enkov
toledo
ans
##aser
##idenced
whack
whirl
##imm
asleep
shack
shab
sewer
atop
comet
chips
chlor
exits
orde
##dered
afoul
arakan
caj
##ibert
dish
overview
evidenced
expelling
##obuch
perverted
decry
feld
queries
newsroom
moot
whitew
preet
underlined
amir
flatt
defuse
belfast
carney
##ahe
watered
tales
2017donald
corinth
headlined
organic
looted
swir
freeing
questionnaire
hunters
potter
calais
cemented
##otti
##shine
fuller
measles
nonvi
linds
skirt
sixty
admired
merkley
victimized
purse
benign
1000
shotgun
displeas
maggie
quota
researching
wilder
silv
tenants
khaled
generosity
patrolling
productivity
encouragement
roadside
villan
feltman
dominating
admittedly
reiner
parkinson
archived
savior
teargas
litany
belongings
narrowing
reactor
circumstance
forums
rifts
hurling
montreal
strangely
resorted
tsun
olive
bonuses
mobilization
entertainers
widened
shutdowns
vicinity
fiore
curtain
bulletin
donnelly
unprotected
slipping
orthoped
printing
grenade
architects
thornberry
segregated
cardinal
unjustified
handguns
nameless
paramilitaries
klobuch
selma
bunker
adherence
demagog
hrw
##first
atheists
shamelessly
propagandist
proportions
hewitt
scapegoat
placards
underestimated
defrauded
##otesque
misunderstanding
corrosive
worshippers
meteor
burglary
traumatized
dartmouth
gizm
sixteen
tiffany
typhoon
demilitarized
inundated
rebecca
displeasure
klobuchar
4chan
amin
bila
bmw
cpp
dolly
fyi
jad
lapse
lansing
oic
pals
qur
rotten
vx
vidal
wictor
##mitt
##nox
##lich
##fin
##dn
##1l
##witz
##warren
thunder
toured
##alpa
##ouched
##lehem
##otest
whipped
stack
traces
##christ
chill
chew
hairc
weber
spie
spared
sparred
adele
willful
reside
herr
herbert
##many
overste
expands
bluster
pervert
donaldj
recol
scoring
strains
##avi
##roid
depiction
##anga
flavor
militaries
remn
insol
womb
wrist
2017while
coroner
retreated
annih
boon
bothers
nominates
breyer
socio
juda
companion
smacked
surging
prevailing
authorizes
lover
paolo
mccl
redn
geo
lara
##ipper
112
avid
destined
statistic
treacher
misinter
blocs
sonia
encirc
wilk
dismal
hotline
institutes
designs
documenting
practiced
garage
bodyguards
modify
pathway
angelo
females
unproven
punk
baiting
attendee
##words
assemble
richardson
1966
salesman
hawkins
scarce
##today
prominently
performers
assertive
##ridge
bundys
quarterly
understate
joshdc
contrasted
lorenz
bankruptcies
shrine
kaiser
##iability
torched
transforming
divorced
##glasses
dismantled
1947
mastermind
omarosa
congratulatory
instructing
helmet
gravely
julius
stemmed
mccarthyism
tasnim
prolific
floors
installing
intensifying
giffords
teachings
ryb
innovative
relocated
beltway
peruv
robbin
tamim
enthusiast
enthusiastically
indefensible
cautiously
sabotaging
shaheen
expedited
resurrect
moronic
##ramson
paranoia
islamophobic
bethlehem
filipino
seminars
cordial
stereotypes
burdensome
proxies
##waters
mistrust
bronx
tattoo
reimbursement
schedules
dysfunctional
impersonation
mourners
resilience
hijackers
habits
sideste
thedcnf
urugu
redskins
mistreatment
unverified
schuette
ominous
atmospheric
kimberly
unresolved
unsustainable
##ishmaniasis
corcoran
villanueva
misinterpret
joshdcaplan
bard
cir
cows
cctv
dame
damp
diction
dni
fisc
fias
goss
hof
hockey
icc
kad
laps
lighter
mce
pity
vip
waco
yon
zoo
##cs
##cp
##qr
##qi
##oos
##like
##uer
##door
##daughter
##pable
##houses
##buster
##67
##xr
##94
##yas
##kat
##jb
##jack
##inburgh
##enary
##enko
tomb
##arma
reiterate
##ilk
##stru
##igalpa
deeds
sao
alz
nepal
seals
##ulently
repudi
##gey
##ubio
memp
##about
ara
arb
bravery
grotesque
residing
sheen
##mani
soy
overhear
overcrow
suppressed
teguc
scout
scaled
scoff
politicize
confl
mujah
2017on
viola
serbs
runaway
raiders
breaching
sociop
judy
setup
infin
surgeries
edinburgh
slots
##tegr
##loyal
glowing
restitution
##orders
antiqu
106
109
freezes
laundr
affront
midwestern
receipts
ideologically
menace
bestsel
singh
deadlocked
rulemaking
purged
devotion
revisions
thirteen
captures
incidental
keurig
grounded
angola
surprises
hamid
distort
grandi
tennis
intruder
khans
welch
unsc
treasure
##untled
capito
nye
implication
driveway
hampered
dinners
jihadis
fortified
subsidize
binali
savannah
##olsky
asserts
historians
indonesians
handedly
ferrell
miranda
liking
disgruntled
darker
perpetuating
shockingly
psychiatr
ladder
swinging
sympathizer
indicator
streamline
shielded
phoenixnew
bitterness
palmieri
deserted
perspectives
festivities
mcdon
overriding
pinned
impropr
raytheon
extradited
walshfreedom
geopolitics
theoretically
kristina
semites
dislod
harrer
embolden
gratz
symptom
cigarette
resuming
bruising
gaffes
quantity
mosquitoes
fraternity
energized
##hydr
greta
analogy
reorganization
assimilate
shenan
automobile
brainwashed
abhorrent
kyrgyz
hiroshima
offensives
##economic
ordeal
donaldjtrump
tegucigalpa
sociopath
phoenixnewtimes
creed
dock
ez
hush
jiang
jensen
kum
kaya
lens
lester
lazar
liangelo
pino
ritch
rode
taco
vap
wicked
##mens
##eon
##rally
##gow
##cd
##cale
##qx
##last
##lane
##uin
##turn
##fak
##bat
##xs
thaw
##inated
##eder
##itre
anwar
##oum
##isations
anders
regress
##ilo
##acio
##adino
dea
dehydr
##aments
conquer
asa
shay
shade
ate
chided
uninformed
unquestion
suga
notch
##unu
##ials
prescribed
clinging
spoon
sporad
aggreg
meyer
newfound
cres
##omez
peps
outer
outage
gru
resumes
plowed
obnox
disorders
monks
##acts
##actively
blinds
coined
reconna
mince
callous
##isha
scumb
impet
undergrad
##lude
amt
##oyle
contra
seehof
beforehand
irons
wraps
##tinger
2017watch
discom
##ryan
subd
winfrey
smash
infants
headache
debra
supers
##grams
condole
possessed
builder
organizational
civility
pastors
shoving
potato
messenger
meter
menu
radiation
116
##yaf
128
divine
skies
councilman
solitary
ahca
mercer
100th
ohr
hearst
typo
eighty
mindful
khmer
garrett
pacif
castle
26th
patricia
guarding
jewell
promotional
##inkle
mobility
315
poet
clarifying
sucking
batista
characterization
osce
bulwark
touches
maximize
storey
ample
animated
stuffed
forgery
cups
ghaz
reciproc
douche
interventionist
springfield
putsch
bandwagon
preferential
photographers
creeping
hollen
skybridge
lutheran
facilitated
ecj
epicenter
pardoned
tyrant
tantrums
spews
randomly
trooper
abusers
whiteness
cripple
undertaking
cosby
vigorous
stumbling
bakr
scanning
endangerment
##stadt
bruno
depicts
gretchen
truman
auditorium
genitalia
categorically
sonny
comrades
metaphor
warehouse
stymied
unapologetic
thieves
succumb
belligerent
aurora
calderon
tsunami
spiegel
fiasco
memphis
mcdonough
shenanigans
ritchie
reconnaissance
seehofer
bending
cm
cis
cun
dive
dorm
eh
fend
gomez
jaffy
lich
mb
omb
rour
rings
sigh
sans
wrec
##rou
##gp
##call
##lar
##lene
##uition
##fz
##fied
##hm
##hap
##vt
##89
##85
##xd
##xk
##92
##zone
##wu
##4n1
thi
thiel
##inist
##inqu
##enow
##anian
toast
##itous
stalling
##igm
trophy
hege
shaf
sep
chi
##eread
unav
unbi
unification
unelected
##ulk
##tram
##eard
##endously
arising
caval
pean
##ikov
grutter
incess
disloyal
whichever
upris
monsters
sooo
interactive
perceptions
stras
quash
##roach
preaching
draped
amused
rememb
2016on
communal
boiling
boakai
brew
brewing
liby
happier
antith
edu
edit
##teo
differed
lovers
swoop
105
##ountable
barackobama
numbered
distressed
geographic
##rium
12pm
divul
ruff
basics
responsibly
individually
waterway
##yne
carrie
educating
16th
##orris
##into
wilmore
felonies
combine
distancing
generators
closes
extrav
hoover
dismissive
browns
unsus
abcpolitics
ivan
pursues
ultimat
abduction
hurtful
humay
machar
naturalization
precip
osf
maxwell
heavyweight
fledgling
##holes
spirited
bodily
lique
motivate
railway
rosenberg
motorists
cartoons
indicators
gallery
sabah
##america
marshals
smuggled
dresses
conscient
rabbu
molly
molina
hammering
##buil
bluntly
gonzales
abolition
harboring
allocation
cruelty
architecture
screenc
parallels
privatize
nicknamed
bavaria
albania
exempted
vindict
gazette
infantry
recaptured
hobby
surpassed
pegged
stamina
styled
pioneer
##udgingly
preemptive
battalion
machinery
pronouncements
refineries
condescending
flagrant
gullible
kampala
axelrod
heterosexual
gospel
zimdars
fiduciary
lindsay
orthopedic
gizmodo
recollection
rourke
unbiased
uprisings
320
ful
hound
jb
kac
kub
mim
mald
mocks
pok
piled
paso
rita
scept
tuss
vid
wip
yog
yep
##cos
##iency
##ienced
##oid
##laz
##pear
##hin
##83
##jt
##wy
##42
theod
##inine
##orian
tol
##itations
##isome
##isively
##asong
##ompt
##leagu
##urk
##urious
##owell
##amy
asinine
alito
seasons
chai
choked
unorth
##ocod
repulsive
noticing
cluster
spaw
##ourage
mevl
adelson
cringe
doocy
allot
dont
peaked
outing
gram
gracious
##ipiac
upend
upwards
monstr
soap
apples
clinched
marian
inducing
##umns
##angling
drip
assuring
contrav
##ahi
##dspe
posturing
columns
blackout
pointless
harrel
farce
acid
condoning
sunglasses
holed
hardwick
untold
pottinger
eritre
halft
##fefe
artwork
122
turnaround
badass
salad
photosh
simulated
ambushed
waterways
devote
revising
crimean
ukip
##onne
ohchr
encl
biggs
baluch
unflat
demonize
footprint
persists
culturally
commonplace
scramble
##maier
rohingyas
bodyguard
##express
innu
alexei
worrisome
loudspe
hallmark
squat
rollout
rambling
456
dissu
routed
##ukes
reinv
dialect
precarious
roundly
georgian
smartphone
enrolle
purposefully
sparse
bedford
heroic
lobbies
nazism
consuming
exploits
viewership
darling
1954
exporters
skeptic
fordham
pilger
preceded
guaranteeing
explanations
vicente
spineless
jules
rudd
gearing
infamously
enactment
lectures
pillars
buckley
axis
defector
tentative
leonardo
authoritarianism
untrust
reshape
##mesis
unwillingness
redistrib
##hetamine
charts
recreation
interrupting
mercury
intermediary
preachers
prestige
feinberg
anarchist
incorporated
steyn
contemplating
quinnipiac
htay
precautions
hsbc
abundantly
conspired
absorbed
roland
hwasong
imprompt
erroneous
erroneously
fostering
issuance
funniest
federica
annulled
phelim
inexperienced
chevron
zapad
miscalculation
chastised
misappropri
camouflage
haircut
judaism
understatement
fiscally
laundry
discomfort
condoleez
extravag
humayun
liquefied
unorthodox
mevlut
harrelson
unflattering
enrollees
impromptu
bowed
cj
ced
curs
cody
dwar
dabb
eid
eminent
gs
lent
mesa
mikh
qas
raged
ranged
ripe
sitt
tug
ticking
tente
vista
wl
yar
##mant
##cers
##lair
##vh
##volsky
##69
##04
##82
##911
##3r
##zq
##jd
##wl
##w5
##online
##alies
inland
##ouver
##isand
##enthal
##leigh
##acola
##igrating
trent
##adier
##olm
##olous
italia
##imo
##irai
asap
alison
##mention
##opia
seans
chish
weary
leigh
leishmaniasis
##allen
afar
branson
gripped
plains
demoral
canber
compilation
invading
decertify
##former
##avy
billboards
moa
medications
##umi
syed
assorted
mayo
##acht
relinqu
helen
##ahar
banana
funder
irving
terrain
2017twitter
proph
##ilyn
joaqu
immigrated
##azy
speier
eurasia
boente
arraign
speculative
conduit
starters
startup
glen
resting
builds
sunshine
sexting
entourage
negat
hardcore
midday
emblaz
situated
##iscast
113
ava
specializing
123
collude
##ovitch
crisiscast
texan
parliamentarian
credence
limous
##ijan
ambiguous
rebutt
occurrence
walters
crowell
mcgovern
malnut
panetta
panicking
sharon
168
preposter
churchill
##burger
williamson
revolutions
spreads
beats
fixes
rescinding
consequently
archbish
batteries
lyndon
##artered
micr
loyalist
softball
weaponized
##demir
gutted
limp
##paid
methamp
pedd
distribut
overtly
unwarr
unwitting
stonew
tsvang
##celli
reassured
volunteered
anticipating
blindly
molested
uniquely
enhancing
disparity
stretches
concentrate
rye
brigadier
treehouse
elevate
jenkins
polarized
fatalities
keegan
abuser
opioids
thorny
pitiful
rewriting
lodge
crapo
acquisitions
velasquez
monopol
continuity
fluid
algerian
soliciting
lenient
beheaded
ethiopian
defunding
portraits
theaters
aqap
barricade
igorvolsky
anomalies
videotaped
admonished
leveraged
paradigm
ausch
outbursts
fianc
indulge
subversion
##mccain
supermarket
bombardment
pilgrimage
plastered
elephant
pensacola
unruly
harsher
plutonium
nehlen
woefully
kanye
intervening
uruguay
overheard
obnoxious
unavailable
halftime
innuendo
canberra
emblazoned
malnutrition
archbishop
tsvangirai
80s
awe
biting
cue
dans
dipped
ejected
gou
gee
geller
hilly
jok
kom
kand
lon
lach
lops
mide
motto
nw
nath
pimp
qasse
ranger
sings
sizes
srin
tib
vanc
vinson
##nick
##cf
##sin
##oder
##fh
##daw
##vine
##63
##64
##07
##81
##97
##your
##z5
##kc
##join
##wc
##org
##orubio
##anin
##alben
##ouf
##asions
##omi
whore
pritzker
##sty
##igree
hector
##ammer
alper
shill
frayed
cheng
haha
hagee
hash
leasing
##arty
##ivation
goof
exor
ort
##ours
mee
##aban
brist
britt
pep
##iberal
grues
grammar
justifies
compact
feather
##eca
quin
##avier
billing
##ulture
backdoor
amending
flared
flashing
desist
paras
sche
phases
mukas
##conn
providence
matteo
idol
foley
harward
infested
representations
maines
elena
slop
##bias
denigr
janot
handp
placement
mccaul
acrimonious
cnnpolitics
##white
1500
111
palmy
changer
hourly
ski
salmon
singling
telegram
diplomatically
pushback
mcafee
snake
snipp
differentiate
captive
anglo
ignite
tempt
silently
unfamil
contracting
sarandon
pulpit
##bole
mistreated
cleaned
spreadshe
dominates
digenova
andrews
substances
normalizing
graders
automotive
##ridis
bashir
curf
disturbance
succeeding
blogs
acquaint
shouts
guessing
barrasso
certification
mixing
1959
resorting
disrespects
speedy
psycho
biases
neutralize
jurist
submitting
bridgegate
malloy
poisonous
incompatible
peso
heyer
retraction
##american
conceived
omission
hints
huffpost
borrowed
bolduan
bogged
intercepts
renegotiated
##falls
hangs
abbasi
attribute
lecturer
unnecessarily
unleashing
raymond
exceeds
brigitte
relocating
coaches
persisted
elevator
kamala
exceedingly
##werin
mathem
disliked
starring
fractious
hindus
boulev
oligarchy
militarized
negligent
vendor
degrading
kathryn
cavuto
vindicated
soeiro
dissolution
phillip
##hardt
penetration
kurtz
distinguish
paralysis
appeasement
patterson
wagner
slumped
wfp
descendants
elliot
uncontrolled
zakaria
endeav
cyberattacks
pagliano
stavridis
nissan
uncommon
jemele
seventy
xinjiang
alumni
whatsapp
sidelined
wilderness
alzheimer
remembrance
eduardo
vindictive
theodore
condoleezza
mikhail
methamphetamine
unwarranted
auschwitz
lopsided
mideast
alperovitch
gruesome
mukasey
palmyra
unfamiliar
bucking
cache
ely
fain
iq
jy
kra
kara
kdp
ratt
sf
tended
tama
tuls
tidal
ull
vibr
wv
wes
xavier
yosh
##mq
##rame
##qn
##look
##fas
##fiz
##pared
##picer
##hans
##bud
##busters
##ziy
##korn
##2t
theatr
##itaries
rebr
regroup
##omena
whipping
##stood
stare
shocks
##chem
unwise
leans
spam
##trak
##ifter
adap
##ublican
##mbling
outward
incensed
##manship
##apult
overb
interl
apps
##oby
compass
decrees
##avala
##ultan
regained
amtrak
asses
refuted
opm
ops
##oyev
militiamen
publicist
muzz
planners
sergio
harness
smiles
tops
slick
senatorial
swung
laf
histories
directorate
sexton
importing
mccull
civilized
##engen
shove
##ushima
strewn
##ieties
mena
casually
##apper
ruiz
constitutionality
globalists
salaf
singers
frontal
merge
##bron
accountant
progressed
cataly
catapult
missteps
kindly
episcop
166
boyd
multim
roberto
tripled
shuttered
##pecting
injected
experiments
felipe
berk
hamad
greenberg
##ificant
superiors
radioactive
marrying
volcan
wealthier
punct
narrator
##untz
endorses
normalized
eliminates
animosity
unprepared
emphatically
woodshed
solidly
headquartered
mirziy
forgetting
dependency
lords
predictit
loudest
##atchy
psychiatric
zimbabweans
torres
mobilized
ranting
marcorubio
flatly
dignitaries
mastermin
symbolism
hesitation
bells
municipality
dodging
shallow
censor
mcdaniel
stabenow
warmong
buffalo
publishes
lecturing
feminists
rooting
lesbians
bucket
unreported
unreliable
sampling
theoretical
allocate
##robe
cyberspace
harriet
gigantic
resurgence
##querque
tailored
degrasse
alexandra
##worthiness
hesitant
heinz
bastion
annoyed
indisp
khalil
inconvenience
waning
embodies
albuquerque
ratcheted
2017when
hilary
gleefully
mlk
perilous
unsettled
##ahawks
intersection
bounty
vaughn
coercion
unconditional
feasible
ripple
disillusioned
shakespear
cohesion
seafood
feldman
sidestepped
donaldjtrumpjr
kumar
unsuspecting
sittwe
seanspicer
negativity
preposterous
rebranded
episcopal
mirziyoyev
ailing
cns
dir
dos
dough
dum
hier
hank
ks
kass
kerr
lugg
lng
ming
moll
nurt
oig
pue
pits
ranc
ranges
sord
ssy
vou
vax
##mobil
##nation
##comb
##qa
##uers
##tic
##foyle
##pn
##beck
##0c
##0l
##xq
##xb
##91
##zia
##zler
##eras
##erba
##another
##arca
##isp
releg
forza
stair
##ateurs
sahar
ashe
withstand
fro
frantic
neal
nemesis
seibert
##istance
repet
leh
leach
abetting
exoner
clashing
##ieg
##iek
orn
agu
##abc
enabl
caved
brim
##odder
##ibo
yougov
hadley
residences
upended
overth
overcoming
senwarren
expos
perple
invaders
recyc
recourse
##ensable
stricken
impat
backyard
##umen
everg
amal
amusing
flush
warmed
assholes
##oya
##oyer
caric
carmen
##velle
schwerin
guad
guiding
2016d
endow
corden
props
discounts
##hne
harp
sana
payouts
antis
eddie
slower
sluggish
denier
authorizations
lov
##ceptible
gloss
victorious
mormon
repeats
affection
seeming
redr
sundays
nightmar
##wheel
teammates
radd
travelled
firewall
equals
##broken
rebound
1800
roommate
philando
decidedly
17th
optics
professed
macro
hamstr
hamtram
demonizing
contacting
timber
verse
periodically
290
unpatri
extraction
conditioning
hallie
springer
implant
apologies
comprise
sucked
1961
diner
maryam
unconfirmed
duo
gatekeeper
terminals
plantation
##perin
masse
##ographical
layoffs
taro
barracks
rankings
1952
reassigned
jurists
sunny
indicative
##daq
portrays
concealing
1948
dishonor
aziz
convicts
oceans
summits
disparage
andrej
gladly
calculations
defectors
capsized
stalin
cantor
cherished
fabrication
kylegriffin
cadre
alberto
deductible
deductibles
unjustly
hyperbole
klans
cousins
scratching
chalk
skyrocket
stockpiles
reinstating
barricades
cyrus
rackete
turbulence
paradise
zelaya
ceres
elliott
diligence
culprit
wacky
trespassing
fukushima
insignificant
dividends
disingenuous
depressing
gryph
mercilessly
synthetic
renaissance
anglophone
jubil
sarsour
quran
yogurt
vancouver
boulevard
tulsi
multimillion
luggage
hamtramck
unpatriotic
kylegriffin1
racketeering
60s
ace
astr
bds
bows
bacter
cale
fing
fiss
fodder
hama
hiking
jp
kow
kall
kag
kpk
lj
luntz
mm
oman
penc
pains
pitted
rows
##coin
##croft
##qiang
##uant
##umber
##fp
##dev
##pas
##bourg
##v1
##vk
##93
##yon
##z4
##kal
##jy
##wan
thief
##inence
##icus
reh
##otov
bemo
forests
##ayati
isi
##amatory
shades
framing
fruition
##chief
seahawks
unites
notre
##arten
##arted
##iez
##outi
##ustered
enables
bra
outpour
rescheduled
##ardash
inclus
disarmed
accred
sayed
sayyaf
##assoc
bliss
blending
blink
coz
teigen
##quist
##ishment
scree
marse
marilyn
intox
imped
impair
backpack
underwater
defamatory
refined
config
belitt
caro
carve
showcase
##dropping
paramed
phd
pharma
turf
wayward
downside
2016if
roiled
rooft
2017is
claud
transc
wink
organisations
glam
handover
sununu
102
fourteen
popping
##aleigh
redoub
streisand
robots
##gerheads
##ueling
complicity
##iji
davos
mcf
mcen
carriage
snacks
quicken
multitude
501
dispens
finalizing
motions
ensn
ensured
applicable
msf
selfies
warring
kenny
intrusions
##woods
avoidance
##ascar
paink
introduces
availability
checkers
erictrump
implicating
leeway
upscale
1962
loggerheads
alto
honorary
subsidiaries
lynching
initials
textiles
updating
ashraf
darkest
gatekeepers
bloggers
queue
burnett
brags
predicts
darfur
regrettable
methodology
530
preferring
cryb
pregnancies
##ulsed
nasdaq
baldas
reiterating
azerba
faulty
julio
ellis
shariah
##iosity
passionately
shinawat
lesbos
pardons
pillow
spewed
defaulted
laptops
defects
eliot
stabilizing
scholarships
diverting
inexcus
##farlane
repatriated
detonate
ozdemir
leniency
beheading
shepher
slovenian
jolie
paralyzed
philanthropy
unconscion
tubman
plummeted
injecting
tirelessly
corsica
corrosion
plagiarized
stagnant
staple
fresno
telecoms
livestock
scourge
kendall
maureen
##alongkorn
eavesdropping
reprisals
coronation
balcony
inhabitants
slippery
##russia
wilkerson
dictionary
undergraduate
untrustworthy
rebuttal
tibet
indispensable
sordid
overthrew
gryphon
shinawatra
inexcusable
420
ayn
bing
bind
bites
bauer
cus
dade
dccc
fs
fath
fount
gale
jafari
lush
lund
mama
paz
tene
vass
zerv
##master
##rand
##rif
##gd
##cb
##aic
##pic
##bra
##75
##xn
##x0
##erfas
toting
##arks
inse
##icidal
##asian
android
recept
##omatic
##lex
beleagu
ont
onion
onstage
forging
##veigh
stain
stave
styl
stacey
##igel
deq
##amn
##irted
saints
conception
ala
##thia
##estration
neben
sew
chore
chatt
chopping
hag
hailing
legr
##arte
gofund
206
##ifted
adr
cristina
alluded
cage
caving
brom
##oda
outland
resides
##iza
moniker
expiring
attire
blur
blah
##kson
coy
invites
decisively
minn
marvel
striving
quig
politicization
whitewater
flower
contag
warsh
reliably
belly
bett
immun
taxing
paraph
schengen
2017of
2017what
correl
maternal
barney
buchar
annan
annie
##verse
realjames
leftwing
believer
farrell
caputo
slack
gloom
severity
playboy
failings
lavelle
christina
profiting
marchers
shovel
##phob
metals
shoots
armen
robber
117
##ovych
ruhle
futerfas
negotiable
badges
complains
focal
parliamentarians
singular
equation
fearless
waist
lowell
sniff
malign
miscon
projecting
groundbreaking
counterfe
verma
autocratic
hotbed
##heit
felarca
exchanging
greenfield
motherf
gasp
280
tomato
obsess
laboratory
unpleas
sadness
babin
sensation
guilfoyle
paints
unsk
romantic
digest
faithfully
audits
derived
hawija
objectivity
rigid
fanatics
gutter
480
katrin
cui
renounce
mortar
340
industrialized
torped
graphics
coincides
jacinda
##loads
discrediting
exxonmobil
overruled
tallies
screwing
secessionists
assassinations
nl2n1
buckle
sinclair
paramount
abolished
chronicle
exceeding
jabs
bubb
thornton
tangled
unsealed
exaggeration
superiority
cadets
steeped
weaknesses
exhibition
healey
dystop
velayati
shredded
sequestration
unraveling
simplify
bunny
penetrate
maungdaw
bamn
geraldo
allergan
farewell
amano
assailants
alvarez
spectacularly
##hofstadt
browder
ancestors
masturb
resilient
reappoint
satirical
yanukovych
byrne
littered
inferior
lofgren
youssef
##unciation
epitome
prevalent
ferocious
vouchers
downtrend
mushroom
mcclatchy
peruvian
gossip
impetus
ultimatum
photoshop
baluchistan
sloppy
curfew
shakespeare
outpouring
marseille
mcenany
zervos
beleaguered
nebenzia
gofundme
outlandish
paraphr
bucharest
unpleasant
bands
cac
clement
gir
hok
hover
jade
lous
l8n1
poke
rim
rica
sul
tee
uigh
ubi
vom
yada
##mich
##eban
##gal
##gur
##i6
##qd
##qp
##qj
##oj
##fusc
##dar
##daily
##hav
##vency
##62
##0t
##1r
##87
##9w
##zm
##zinger
##kj
##kids
##jab
##jean
##wana
##atis
##atius
##eni
##enable
##aney
touring
rect
reimb
sturgeon
##igault
tracy
##ettered
dehuman
##amas
##ldom
aso
trumped
##elor
frost
seldom
ata
##occup
##unct
##unders
exiled
excel
##antically
orte
##trod
enm
cran
arre
capr
##ibillion
##ibouti
partnered
twtr
ober
obfusc
##grown
demoted
manigault
##api
##actory
blitz
tep
themed
deple
deposed
underperform
##oyd
desires
immers
myers
genetic
needy
phased
maid
2016so
barbed
worlds
##angement
colgate
discounted
buchan
##hnikov
blackstone
judith
##enew
promesa
arranging
chriss
acu
speculating
slid
slice
emptive
papp
nears
glitch
charade
chartered
filter
214
laos
involunt
mighty
staffan
geoff
costumes
engages
lessen
aval
reformed
develops
basel
dell
regulates
viruses
purport
purvey
waver
epith
ruby
cubs
riina
environments
multibillion
finalised
magically
template
verhofstadt
bidder
macdonald
unfettered
##haus
practition
toughen
radicalism
trusting
jeffries
khat
settings
definite
##lights
unsav
rocker
conditional
ratify
revolver
occupies
dissented
comprising
spanning
##akhan
altmaier
naturalized
bulgarian
papal
knowledgeable
joni
blowhard
litig
mohamud
subscribers
accomplishing
leaned
commercials
terminating
mcmorris
2027
stunts
sheltering
masri
acquiring
nazar
stickers
greeting
1953
stonewall
clergy
shrunk
abedi
abortive
bleak
bleach
##wright
deleting
musicians
mobilizing
webb
salva
tremor
ringing
ringle
shocker
instructors
helmand
lunches
dearly
appropriation
gears
discouraged
tuz
intellectuals
evaluated
unpopularity
jennings
covertly
excellence
stalwart
euphem
chilean
whitney
starred
squads
cynthia
lapd
lodging
aggrieved
maneuvers
wtc
wtf
artificially
muscles
disavowed
kelner
rwandan
nhk
resonated
derek
bruised
imperialism
penetrated
dotcom
##twittertwittertwittertwitter
articulated
underestimate
mckinney
##hearted
disadvantaged
riverside
smells
##wilson
broward
##ahahahahahahahah
rolands
cheerleaders
renovation
fomenting
##ahawk
envisioned
chickens
vengeance
embarked
disbanded
dylan
infringement
cicig
canvass
micah
patel
unabashed
##ugnant
swastika
pummeled
clemency
charismatic
workshop
regressive
strasbourg
conscientious
chisholm
handpicked
ullah
volcanic
bromance
unskilled
ubiqu
ortega
90s
aa
dias
fven
fiance
faded
fahr
gna
gdb
hig
jas
kha
kios
laced
ocha
piling
pawn
sre
##mike
##mey
##rics
##gam
##gencies
##ove
##lr
##lain
##fish
##dah
##pill
##hay
##bin
##vg
##vv
##vol
##7j
##kt
##kam
##2w
##onic
##oro
touts
##itiously
##isite
##idad
reais
onset
onerous
onlook
trum
traps
shia
fruits
##chak
##checks
seam
coma
cheek
##ulse
hails
hafiz
##ocese
repugnant
##unin
clo
clou
spurs
##antial
envelop
enron
##asta
##ostic
criti
##okers
doo
dong
brics
brunt
grades
grifter
##ffen
obamatr
invitations
marion
marital
##avid
mole
flim
flowed
flopping
warlords
defies
refoc
nationalities
deserving
remanded
genn
taxable
##argas
maiden
guit
2016wh
endemic
roam
2017no
effig
propping
huong
farah
subt
##protest
##ashenkov
programmes
deniers
loesch
215
facade
##ampton
meticul
costco
##feen
##shad
##aughton
collier
nonstop
api
salame
salah
youngstown
uncanny
labs
isna
##bren
influences
walid
expressly
catering
kingston
californians
emergencies
quicker
tillis
moderated
tempered
designating
churchgoers
##ommons
intrusive
khad
settlers
navigator
blockbuster
competence
avoids
hooper
conspirators
sensors
unsolved
pursuant
ratification
squared
occupant
##axy
dedicate
modernizing
rescuing
rescuers
cbsnews
waitress
cardboard
##zzi
oregonian
advertised
##holt
gutting
punishments
kareem
bodied
pedest
libertarians
unnerved
shelley
shoplifting
nazanin
reacts
bowe
bowie
bowman
sanctity
recipe
loudmouth
magnific
daunting
gmail
comprehend
widen
pensioners
confronts
smuggle
##republican
stemexpress
elaborated
rabbit
awaits
acknowledgement
biographer
irreparable
compensated
finishes
rewarding
hashtags
reverber
sidney
decentral
disapproved
cantwell
constructing
peshawar
jerem
harrigan
nullify
liquor
expedite
phenomena
reunited
humorous
jaime
djibouti
resembles
sahara
liquidity
annoying
syndicated
konashenkov
squeezed
commemorate
mistress
dolph
disguise
culminated
mckinnon
correa
assimilating
demolished
unsettling
crosstal
incriminating
wmds
cessation
cesspool
stigmat
unmask
disconnect
technician
tashfeen
decapitated
covfefe
snarky
hazardous
intriguing
gerrit
unearthed
chlorine
yonhap
ghazala
shafik
libyans
kaczynski
spawned
##mentioned
joaquin
sriniv
yoshih
raddatz
azerbaijan
unconscionable
buchanan
obamatrade
ae
aster
bos
bonn
bode
bounce
cp
dine
etern
fey
folded
gin
ids
juries
joko
kut
kits
kane
katherine
nt
nim
pix
pounded
quds
ruse
rips
sq
sj
ses
voy
##qc
##oes
##oed
##ooping
##top
##pf
##pse
##hey
##bill
##bird
##vited
##volent
##1y
##jia
##inished
##ono
token
##arado
##icco
##iltered
bef
pratt
##still
##ayn
##adata
##olk
heap
ites
asians
##thora
##opolitan
fran
friv
unic
##ulia
repatriate
##osy
##arton
presby
clicking
spook
oracle
##abr
##trow
butcher
afari
crass
arbor
brakes
##agency
##ibi
grac
grazing
demons
upward
commie
commended
##auley
evap
thereof
bled
blunder
compuls
decorum
donaldtrump
camping
callahan
consume
scuff
knelt
medically
courier
underhanded
amok
finn
nationalistic
##web
whereby
irvine
downturn
2016as
corral
communique
foiled
vein
presses
clearances
fares
slay
sliding
slater
schooled
opera
steak
filthy
homework
afflict
protestant
##anky
shoigu
recep
massoud
mrctv
url
complement
calv
metadata
armor
##books
testy
fullest
shortened
broadening
merged
primetime
mural
purity
devon
devol
##omaniac
plethora
kingpin
energet
wireless
preventable
temples
verifiable
winger
checker
injection
instituted
unfiltered
goldwater
fraudulently
##enchon
rhine
demonized
greenwald
granddaughter
tenet
##eseen
235
260
competed
scandalous
owing
punjab
subjecting
lifes
packers
surrounds
cameraman
abc7
hyped
##frame
exams
implicate
digs
integral
reintrod
diversify
qaida
##blue
trailed
##clical
headscar
theres
softened
hydr
splits
brainer
observing
selectively
325
entitlements
beset
circumstantial
isolating
mutilation
##kaido
perpetuate
395
bribing
danielle
ayers
sympathies
abedini
tremendously
unheard
540
lucifer
560
rainy
avenues
luxurious
censored
molotov
whistles
geared
discouraging
arbitr
tallied
buffer
scales
curtailing
kabunin
huddled
distracting
calculation
predominately
professionally
filibusters
cowardice
parameters
applauding
collaborate
2017there
depths
##character
harrowing
misdemean
prioritizing
reaffirm
blackmailed
simultaneous
resembled
decreased
adjour
sequence
preached
yuge
safeguarding
adherents
dudich
vandalized
sidewalks
2016that
rousing
inquis
cultivated
tattoos
hewlett
scapegoating
moldova
tucked
wreckage
##egal
alvarado
amplify
assignments
mossos
fostered
petrol
fianna
endeavor
accumulated
fugitive
cortes
turbines
cosmopolitan
gothenburg
bickering
anointed
ciudadan
silvio
overcrowded
impropriety
enclaves
dissuade
kandahar
vibrant
##chemical
catalyst
voucher
saharan
hokkaido
lousy
depleted
bpr
cb
cked
cgt
cgi
fon
fade
fdr
fester
gior
gsa
gosh
hina
horm
jed
jie
jumb
kt
kork
mes
mullah
nour
nast
nix
oy
pj
poin
pounding
qosi
rope
roub
ti
tube
torrent
yur
yaz
zell
##mg
##mac
##ein
##gj
##gales
##cu
##oi
##liness
##tan
##fn
##fj
##du
##person
##bx
##vide
##01
##08
##xc
##kw
##kers
##kelly
##krist
##job
##2s
##wictor
##4x
##54
##arov
inception
##itus
##itiz
##itaw
##icommons
##iler
##ilian
bewil
prism
pristina
##adar
heel
##tera
##elight
##elman
nepot
sein
semen
chp
unice
unison
haig
weibo
##ouncing
suster
byron
aback
exas
cling
spilling
spurring
20s
##outed
envel
newburgh
crist
crocod
ari
peac
groom
##ardi
##ipa
##herty
##gra
nogales
##eemed
monmouth
usps
senegal
expatriate
attaching
composition
cooney
teh
##quette
marble
stray
stringer
depended
registr
lasts
warped
refrained
confuse
bette
carne
controll
##otherap
downstream
guer
##athetic
matr
matrix
##uthammer
cola
joey
##ernaut
internment
foil
healthier
subver
smashing
paypal
visibility
slope
looms
swind
charm
stopg
markle
explored
freewheel
210
popped
mustafa
despised
holster
midtown
teamed
114
paltrow
solberg
limelight
ballroom
wrongfully
bushes
analyses
revoking
mcgr
snag
awad
malm
malfunction
misg
launchers
drugmakers
connell
projectiles
respectable
madman
kellyann
silencing
unfinished
##haf
crossh
breakaway
tenn
trustees
khur
discla
wikicommons
parenting
extramar
hoek
attends
bitcoin
##ihan
##nyc
packard
conditioned
strengths
##balls
creatures
amidst
pointedly
preparedness
principals
automation
slowdown
thomaswictor
mohamad
pedigree
penalize
shelved
renamed
tanker
likeness
seasonal
330
certifying
sizeable
heighten
greene
montage
clerical
perpetuated
stamped
psychology
shreds
tsip
kinzinger
supervising
reassignment
appreciates
salvo
salvage
abuja
obstructionism
satisfying
mixture
dimicco
fateful
nicola
jenna
mcdowell
warmly
screws
fragmented
smearing
##onzi
disparate
##fkhon
indexof
betraying
lamont
pharmacy
donnie
laurent
writings
roofs
pfizer
prejudices
zhou
mountainous
wields
exaggerating
plunge
gorbach
toilets
##letta
vowg
reinforcing
albanian
reinforcements
gwadar
bakery
averages
egeland
eradication
croatian
tumor
disseminated
stipulates
mishandled
immensely
bachelor
queensland
affiliations
amanpour
raufkhon
neoconservatives
eyewitnesses
hastings
unedited
nadal
neighbouring
coincidental
misunderstood
amplified
coerce
misspoke
glasgow
patronage
implicitly
cheerleader
lisbon
fertile
naypy
adventure
addicts
vengeful
unexplained
nostal
scrubbed
awakening
discrepancies
freeload
hebdo
lukew
peppered
pragmatist
goddamn
revitalize
unpresidented
parishioners
maturity
swirling
remnants
sporadic
blindsided
scumbag
pacifist
cunning
dabbashi
lachlan
krauthammer
hierarchy
hamstrung
unsavory
fahrenthold
onlookers
trumka
flimsy
srinivasan
yoshihide
compulsory
misdemeanors
ciudadanos
unicef
envelope
freewheeling
extramarital
hoekstra
gorbachev
5pm
awhile
bert
bakers
coke
dots
drey
eac
guru
hq
kou
kaw
kardash
lub
nis
oge
pb
paw
pine
rangers
raleigh
sling
sultan
tsh
tara
tails
vargas
yikes
zb
zen
zag
##mag
##map
##gled
##gles
##nob
##clad
##lot
##lov
##pent
##hd
##hak
##bro
##bomb
##73
##yt
##zai
##jir
##jana
##wig
##aton
##idge
##lew
onoder
##staff
##mph
trolled
##adina
##sex
itv
ascent
negro
chau
chiac
##ppard
##ppenstein
##andi
noteworthy
##oswalt
goose
205
ori
orbit
##derick
newman
##tons
crawl
allan
donb
brenda
bricks
##iken
grizz
plural
##aldwin
upbeat
manpower
governs
overbl
##emi
##ffer
##quiez
medics
##uese
amzn
amicus
defection
tah
##lippenstein
womensmarch
turi
irna
downhill
2016but
earns
##contr
discern
##aziz
wedge
booted
haradina
headphones
esch
authorit
differs
socialized
104
humane
gotcha
christensen
sandoval
susceptible
micha
distractions
activated
sitcom
ceased
unionists
##anners
avowed
arabiya
##play
delrahim
skys
salinas
equate
equitable
davao
murky
purview
mcveigh
carroll
##omani
malian
misrat
kingmaker
rubin
flagging
boardroom
sonic
separates
143
custod
davidson
injure
designations
heartbroken
affaires
opportunist
lackl
distorting
27th
khary
correcting
garment
volcker
melan
melgen
melenchon
parental
mandating
banging
##ihu
aggressor
##flash
humility
premiers
attraction
##oooo
derangement
hamper
recommends
bulld
qualification
performs
ankle
nicely
wwp
uncertainties
spiraling
karem
duyne
pediatric
pacts
woody
retiree
overtake
unwind
professionalism
ironclad
corresponds
psychologically
interpretations
beautifully
musician
fundamentalist
petitioned
precedents
reckoning
harshest
chelseac
persuading
specter
disappearing
levi
adjusting
##peace
dimit
blankets
pdf
dodgy
cookie
snapshot
jacoby
mechanical
ibm
gerard
hoaxes
attribution
fragment
smears
installment
incumbents
piggy
pivoted
athletics
collegial
wisely
gladio
sincerity
hanen
microag
possesses
abolishing
lolita
deteriorate
tossing
huntington
diminishing
prejudiced
depriving
##folk
2017then
inconc
janeiro
delusions
screened
unpredictability
portfolios
proportionate
2017yes
contracept
intermediaries
bruises
razak
funneling
gambit
unequal
assimilation
eruption
kono
satanic
portuguese
bratton
plummeting
sketchy
utilized
mildly
neighbours
cinema
corroborate
cronyism
marxism
loosening
burgeoning
newcomer
quarles
disenfranchisement
nasser
looters
appalachia
farrakhan
vegetables
benedict
diabetes
incursion
ernesto
wrenching
dancers
wauquiez
overstepped
annihil
misinterpreted
scoffed
allotted
qassem
mccullough
exonerated
endowment
kagame
ontario
ubiquitous
srebren
presbyter
arbitrarily
adjourned
nepotism
susteren
crocodile
stopgap
naypyitaw
onodera
haradinaj
srebrenica
70s
cower
dix
eck
fuss
fists
fsa
gly
gael
g40
jut
jct
jeep
kot
kib
lour
lanc
lingu
lira
ner
nure
nond
nosed
nude
nwo
pest
q4
rer
rides
tast
tetz
vy
vie
vonn
vogue
wmd
yam
##mire
##eight
##evelop
##rump
##gf
##g8
##city
##oza
##uze
##fra
##dor
##dique
##belly
##v3
##xm
##xi
##xing
##96
##3l
##3media
##zr
##52
##inate
##atal
##atim
##atial
##atical
##eski
##ords
##anac
##anmen
inhib
anita
rejo
prick
stoy
##igators
##adays
heaped
deer
##itha
alis
trumpers
##thirty
##chua
##chicken
chess
ungr
unaf
suez
prescriptions
goons
abject
exting
##earing
ader
adjud
adrian
ad3media
aflo
crashes
doina
alluding
arisen
pey
herm
disassoc
monter
iframe
intertw
interagency
justifying
##obe
cooked
recap
recoup
mina
marri
maraga
strides
impeding
underlining
underbelly
sykes
drank
nowadays
amounting
flashed
deference
deficiencies
opaque
caret
descriptions
immature
helsin
needle
banquet
guzman
wrought
2016a
2016we
endlessly
terrestr
centcom
2017w
barbs
efficiently
emission
##tsa
claimants
presser
##entionally
powerless
fara
fared
numb
liberate
islamberg
edgar
passwords
bored
slob
slips
deng
dengue
charming
speechless
107
108
mccorm
despot
redress
holiest
streamed
##gett
networking
erie
larson
avat
palatable
121
leveling
apoll
delos
choir
corpus
jeanne
identifiable
richman
##aphone
mcl
maloney
mischaracter
excor
storming
fellows
booking
starter
##kei
172
dispro
magical
motel
autos
burial
researched
##coat
combetta
superpower
cults
cheeto
trustworthy
generator
riders
265
volker
remembering
francs
weakest
mailbox
drafts
assemblies
squabb
missionary
sprung
cornered
sickened
cardillo
principally
frequented
qualifying
maxim
yells
odin
splc
ashes
ashlee
fanatic
litmus
govt
renee
gabby
tarp
presumption
fifths
mutil
lyons
loren
psychologist
shroud
hedman
detainer
435
aye
colombians
preceding
memorials
retrieve
marsha
1944
mastercard
insanely
gaping
instructs
dimension
luncheon
harrisburg
flashback
censure
rawlings
disparaged
gifted
fernando
chatting
outdo
pumps
marginalization
pitfalls
mahmud
sailor
apprehend
aspiring
thais
betsydev
piracy
dusty
dustin
brinkley
orthodoxy
decrying
pinkett
buttons
mysteriously
soto
unfavorably
erecting
fabricating
revamped
javier
bastard
stereotype
disseminating
cementing
hammers
bbb
overstated
fraternal
propagandists
eclips
videotape
martyrs
sarcastically
nkos
dreamed
unaffiliated
cocktails
upgraded
quadrup
tiananmen
roadblocks
algorithm
adorable
pallone
salda
##espite
anguish
morphed
psdb
nonviolent
psychiatrist
scepticism
grammy
extravagant
limousine
microman
vaxx
antisem
carolyn
paramedics
ensnared
receptive
chattano
chrissy
epithets
guitar
magnificent
##video
tsipras
lukewarm
chiacu
skyscr
lackluster
chelseaclinton
inconclusive
tetzner
stoynoff
unafraid
extingu
afloat
helsinki
terrestrial
9am
bie
bour
besh
bjp
cv
dm
dab
dag
dashed
danced
eust
fent
fang
faire
gem
gown
gger
ginger
hord
kling
koval
mch
nell
nudge
nomani
piles
roc
suther
tl
tid
ump
uter
uaw
wp
zed
##mese
##million
##miller
##cm
##cip
##citiz
##qs
##oof
##u6
##funded
##ajo
##date
##pat
##hua
##bies
##100
##370
##zen
##kp
##kim
##women
##eriously
##inum
##esity
##arin
##arial
##itives
anwr
anatom
##iconduct
##ilot
##lewood
##vezon
trucking
deli
##irah
sailed
##opold
##estation
##chn
chand
unused
unsh
haunted
weidel
##andy
##ivost
presid
preside
preserves
clam
sparring
##uddin
##abs
##abel
##abul
afters
##iani
brisk
grinding
plated
obesity
disb
disaff
disrep
##oughts
secede
sayyed
##akei
interjected
##eys
blago
compart
##forwom
minted
howell
scanners
knit
indeb
rightful
newsread
medell
prevezon
##ummer
droughts
flun
flipp
flailing
defl
assu
carlin
desirable
remington
phasing
workplaces
throng
roch
hereby
##wayne
2017to
conco
colts
immigrate
##azana
retarded
##version
veered
breeding
brezler
terrorized
jude
ilk
airl
##pract
##prime
headaches
sanitation
paychecks
debilit
misses
edges
promul
slum
swarm
stewards
steffen
morel
sandford
mustard
profane
mrny
metrics
halperin
menstru
armstrong
artistic
outsized
replicate
firepower
nonf
skele
religiously
statistically
favorability
favoritism
rulesforwom
envy
analyzes
cato
pleasing
westph
westchester
136
137
populace
landlord
1600
angus
preventive
ency
encroach
ensl
varied
autocrat
burmese
selfless
televisions
portal
commanded
shuts
recognizable
felix
crossroads
timor
impacting
##ooned
233
saranac
295
langdon
baja
reneg
vladivost
roma
romero
promotions
revolving
dominion
implode
premiere
sheridan
derel
lumber
altar
batons
qaim
homeschool
obligatory
smartphones
observations
champagne
modeled
inflamed
solidified
layers
contrasts
triggers
nigerien
burdened
semiconduct
pocketed
ican
icons
interpreting
reassess
royalties
streamlined
hawaiian
provocateur
governorship
adoptions
marshawn
container
omitted
maha
bradford
appropriated
attachment
synonymous
twisting
structured
puppy
kenyans
petrochemical
repairing
loosely
##walk
calculating
heralded
tornado
jaket
toppling
verbatim
atrocity
tamir
garnering
shaaban
mikel
mitigation
divergence
wielded
inefficient
expedition
sarajev
gorge
duckworth
resemblance
livid
nhtsa
sequel
forcadell
fictitious
grapples
abstinence
##william
2016then
gnassing
dispersed
cohorts
philanthropic
philanthropist
mantle
confidante
culmination
hannah
utilize
##bags
lampkin
tarnish
inventor
absorb
rutte
siphon
dissatisfied
nunberg
sobchak
prudent
stigma
livelihoods
emancip
fervent
disintegr
cafeter
newcomers
##jevich
abysmal
caterpill
imbeciles
nucor
indecent
astronom
apocalyptic
hoffman
hobbled
dehydration
crescent
licht
temptation
relegated
froze
cusp
clouds
gerritson
crosshairs
nkosazana
chattanooga
sutherland
aftersh
blagojevich
indebted
rulesforwomensmarch
vladivostok
sarajevo
gnassingbe
caterpillar
720
boc
bens
coded
dit
dps
fitch
fading
gy
garg
idr
kory
kah
kron
kander
kelli
lv
mgm
nance
norton
ponzi
rv
rath
rattle
selle
tj
taw
tarr
ticked
ubs
vw
vests
wc
wsb
ym
zu
##m4
##mong
##moon
##racial
##nv
##nan
##cv
##ceral
##q9
##qing
##oir
##lj
##tted
##fal
##faced
##bw
##bari
##7r
##8r
##xter
##3j
##yll
##kine
##2k
##onac
##esth
##orates
##isi
##isy
##ashnikov
reef
##lean
##othing
beware
stur
##ige
triang
##illers
##cell
##usi
##opol
shelf
shiny
shaked
shaved
frames
unreg
##ocut
##ocial
##akson
suicides
suicidal
notions
notifying
##unya
levant
##ivings
abby
abstr
orph
##ifiably
butch
adoles
newton
willie
##okee
doar
dogg
bracing
pecul
##iba
partition
hermit
disf
monk
sochua
commend
expensing
imams
##emocratic
peron
perennial
##reek
recurring
##arev
##enshire
##ervative
##erville
##mberg
marg
strik
strangled
knuck
getaway
newsom
newshere
impulsive
preoccup
underdog
amaq
timeframe
flare
finns
refute
##ogues
maya
weeping
washingtonpost
carper
parsons
##aturally
schoo
schuster
funks
maura
2016via
##atham
veryfak
earl
2017t
thinkers
idly
coloss
propped
claus
latvia
runway
transgress
blacked
blackrock
terrorizing
airborne
smoked
headway
specifying
slut
slapping
empir
lovel
restive
103
218
polluted
##atters
##attack
holm
financiers
distraught
emble
procession
##shaw
globes
palpable
paladino
##appar
127
furthering
fivethirty
destinations
liners
complacent
lineup
limo
##brokers
occult
mommy
188
waits
awake
malpass
apparel
circulation
excused
puff
161
technocrat
emeritus
angels
174
50s
tempting
verifying
recognise
handsome
greenville
wholehearted
intrigue
unduly
trustworthiness
generates
periodic
defections
eyeing
welt
behavioral
punt
roadmap
iowans
materialized
cleanse
cleanup
egyptians
examines
rammed
doorstep
sprint
imploded
##uka
zeke
altus
characteristic
breaking911
binder
odni
bipart
reactionary
ashore
ashton
bridget
curiosity
karimov
eurozone
terminology
woodwork
forgets
embraces
resettling
contrasting
##rovia
470
475
1956
unvetted
hilarie
laser
vajir
jacqu
unhelp
boundary
##rahman
coffman
obstructionists
inequalities
stresses
nutty
plaguing
attributes
smeared
ecst
nl4n1
nonprofits
shadowy
kalin
kalashnikov
chatter
sideline
awkwardly
##hofe
tribunals
dealership
gibbs
myths
beeley
fantasies
lunatics
prostitute
lapierre
bartender
shattering
gorilla
djal
resembling
lagging
bibi
horns
unintentionally
novelist
exempting
hemorr
crusader
microphones
java
abidjan
allergy
allergic
##zczer
misrepresented
aspire
pattonoswalt
cultivation
knights
whisp
disobey
wahhabi
puzzle
flourish
misspelled
loathed
plagiarism
demolition
libraries
adversely
outposts
undeserving
coercive
dylann
discrepancy
algorithms
inversions
patriarchal
transpired
rapporteur
esquire
horses
indignation
foreseeable
##bernie
unsurprisingly
ingredients
whirlpool
vapid
eritrea
avaaz
hillyer
endeavors
impediment
refocus
overblown
presbyterian
jaketapper
emancipation
selleck
peculiar
fivethirtyeight
vajiralongkorn
##zczerba
3pm
aadha
bere
cmp
cmc
dt
dann
duca
faking
fier
faked
gers
gend
gum
gassed
hk
hench
hanged
hoyer
juch
kol
kund
kamer
loun
lared
lashes
mates
mtv
nit
nak
nerves
oatis
pess
pets
pounced
qad
sv
sas
tare
tuck
vod
vern
vamp
wb
wesley
yower
zem
zdf
zavala
##meas
##mosexual
##rs
##nell
##nard
##cock
##iations
##some
##qo
##lani
##uv
##tar
##aik
##px
##hor
##bee
##05
##3b
##yf
##wd
##anas
##alu
##aried
inroads
inhofe
##itania
revert
rejoin
##ilahren
##otent
wharton
prow
thatcher
stoop
stahl
stellar
##igi
trench
##adze
##ething
##sev
##seat
##irk
sak
altering
alfa
trumphot
trumpkins
trumpchicken
shoring
frantically
##chumer
##istence
unamb
##uland
hauled
reputations
leopold
##ivated
##orementioned
meager
offends
newer
aforementioned
dovet
dobias
allay
arist
arlene
cagl
bros
brums
parting
noises
disheart
##eez
upbr
intergovern
##ussbaum
##osevic
compile
##owner
coaching
decor
##adej
camped
feast
feathers
strick
##olls
quetta
##avan
moyn
impuls
improb
backstage
drake
ammosexual
refun
##ogen
confess
carville
contreras
##dryan
workable
2016now
2017just
##conf
barak
colour
discard
probed
transphob
blackwell
nuanced
libby
visceral
nextgen
elic
swings
glance
glitz
janesville
picnic
morell
filters
teller
storyline
sexy
##ewz
affinity
stafford
geosp
geography
messed
158
furiously
##ipps
##shell
##ageddon
meanings
easiest
##ovsky
306
noncitiz
delicious
bestowed
enforces
damian
reasoned
simpler
balloons
richards
accessories
wrongful
aprildryan
187
mcin
awfully
marketplaces
maloni
malpract
##odeo
mispl
misinformed
remarking
corrupted
##undai
ethically
##intel
autop
wiley
londoners
maccall
balbi
growers
##hea
behaves
superstar
subserv
flea
fleming
tomilahren
seller
copying
copeland
utopia
babanov
weakens
unsatisf
mailed
promoter
rats
strengthens
##army
literary
occupants
##frank
ramallah
creators
brokenshire
implosion
milosevic
partnering
comprises
consequential
kasai
##zej
characterizing
objectively
surveilled
josef
degen
chemistry
bottled
crazier
hyundai
fledged
steinem
biya
fanfare
coordinates
motivating
woodrow
##ashington
383
mortars
engagements
lyon
toddlers
markedly
ordinances
royalty
evacuations
sabato
nascent
1940
crookedhillary
persecute
mulling
hubbard
nikkei
philosopher
faults
wiretaps
destabilization
kidnap
censoring
enormously
synag
610
tampered
contradictions
exceptionally
kilo
reprod
culp
petrocelli
siemens
jeopardizing
brigades
kneeled
surgical
surrendering
gaggle
consolidating
##posted
seddique
gavel
collaborative
homelessness
wrestle
stalking
interrogated
imperfect
taboo
rotating
untruth
reshuff
mudd
resemble
reinforces
rendering
decreasing
degrad
dysph
2017pic
seminary
hindered
sacrificing
ambulances
indisput
algonac
forfeit
ftc
georgetakei
##johnson
embodiment
honeymoon
trademarks
puzzling
##vette
corroborated
unequivocal
styles
hutchins
ausp
duplicate
caitlyn
brentwood
automobiles
##awatts
freso
sopa
sociology
disconnected
impressions
carpenter
mammo
adultery
emigrated
subordinates
envisaged
tulsa
andrzej
deconst
buoyed
splinter
indiscriminate
dislodge
pepsi
subdued
wiping
loudspeakers
intoxicated
correlation
involuntary
jeremiah
asterisk
frivolous
theresistance
korkmaz
seinfeld
misrata
ungrateful
intertwined
zedong
debilitating
renegade
##williams
##apparently
wholeheartedly
bipartisanship
djalali
aadhaar
laredo
pessim
yoweri
trumphotels
caglayan
brumskine
intergovernmental
moynihan
geospatial
maccallum
bates
burs
bonnie
dizz
ehr
fm
hott
ie
ioc
jbs
jasta
korn
kph
[...]
